{
  "[#11C]": 5,
  "[#14C]": 2,
  "[#Branch1]": 1075317,
  "[#Branch1][C][=Branch1][C][=O]": 5064,
  "[#Branch1][C][=Branch1][C][=O][N]": 2360,
  "[#Branch1][C][=Branch1][C][=O][N][O]": 539,
  "[#Branch1][C][=Branch1][C][=O][O]": 1100,
  "[#Branch1][C][=Branch1][C][=O][O][C]": 922,
  "[#Branch1][C][=Branch1][C][=O][O][C][C]": 618,
  "[#Branch1][C][=C][Ring1][=Branch1]": 5473,
  "[#Branch1][C][=C][Ring1][=Branch1][O][C]": 908,
  "[#Branch1][C][=C][Ring1][=Branch1][O][C][C]": 2571,
  "[#Branch1][C][C]": 4621,
  "[#Branch1][C][C][=Branch1][C][=O]": 3977,
  "[#Branch1][C][C][=Branch1][C][=O][O]": 4594,
  "[#Branch1][C][C][=Branch1][C][=O][O][=C]": 546,
  "[#Branch1][C][C][=Branch1][C][=O][O][C]": 669,
  "[#Branch1][C][C][Branch1][C][C]": 13215,
  "[#Branch1][C][C][Branch1][C][C][C]": 714,
  "[#Branch1][C][C][Branch1][C][N][=O]": 2080,
  "[#Branch1][C][C][C][C]": 12046,
  "[#Branch1][C][C][C][C][Ring1][Ring1]": 4638,
  "[#Branch1][C][C][C][C][Ring1][Ring2]": 2157,
  "[#Branch1][C][N][Branch1][C][C]": 652,
  "[#Branch1][N][C][=Branch1][C][=O]": 1930,
  "[#Branch1][N][C][Branch1][C][C][=O]": 3207,
  "[#Branch1][N][C][C][C][Ring1]": 1478,
  "[#Branch1][N][C][C][C][Ring1][Ring1]": 927,
  "[#Branch1][O][C]": 30536,
  "[#Branch1][O][C][Branch1][C][C]": 843,
  "[#Branch1][O][C][Branch1][C][C][=O]": 18985,
  "[#Branch1][O][C][Branch1][C][C][=O][C@@H1]": 1251,
  "[#Branch1][O][C][Branch1][C][C][=O][C@H1]": 713,
  "[#Branch1][O][C][Branch1][C][C][C]": 1346,
  "[#Branch1][O][C][Branch1][C][C][C][C]": 572,
  "[#Branch1][O][C][Branch1][C][F][F]": 2603,
  "[#Branch1][S][=Branch1][C][=O][=Branch1][C][=O]": 1453,
  "[#Branch2]": 756940,
  "[#Branch2][C]": 93640,
  "[#Branch2][C][=Branch1][C][=O]": 4489,
  "[#Branch2][C][=Branch1][C][=O][N]": 1691,
  "[#Branch2][C][=N]": 993,
  "[#Branch2][C][C]": 2170,
  "[#Branch2][C][C][=C][C][=C]": 2728,
  "[#Branch2][C][C][C][C][C][C]": 4574,
  "[#Branch2][C][C][C][N]": 4368,
  "[#Branch2][C][N][C][C]": 2140,
  "[#Branch2][N]": 12787,
  "[#Branch2][N][C][=Branch1][C][=O]": 4602,
  "[#Branch2][O]": 10463,
  "[#Branch2][O][C]": 4486,
  "[#Branch2][Ring1][=Branch1]": 20020,
  "[#Branch2][S][=Branch1][C][=O][=Branch1][C][=O]": 1683,
  "[#C-1]": 15,
  "[#CH0]": 1,
  "[#C]": 496410,
  "[#C][C]": 1564,
  "[#C][C][=Branch1][C][=O]": 4284,
  "[#C][C][=Branch1][C][=O][N]": 2138,
  "[#C][C][=Branch1][C][=O][N][C]": 1714,
  "[#C][C][=Branch1][C][=O][N][C][C]": 695,
  "[#C][C][=C][C][=C]": 14175,
  "[#C][C][=C][C][=C][Branch1][C][Cl]": 1693,
  "[#C][C][=C][C][=C][Branch1][C][F]": 1946,
  "[#C][C][=C][C][=C][Branch2][Ring2][Ring1]": 670,
  "[#C][C][=C][C][=C][C]": 1075,
  "[#C][C][=C][C][=C][N][=C]": 673,
  "[#C][C][=N]": 1540,
  "[#C][C][C]": 1617,
  "[#C][C][C][=C][NH1]": 5967,
  "[#C][N][C][=Branch1][C][=O]": 9079,
  "[#C][N][C][=Branch1][C][=O][C]": 648,
  "[#C][Ring1][=Branch1]": 1503,
  "[#C][S][=Branch1][C][=O][=Branch1][C][=O]": 3397,
  "[#N+1]": 821,
  "[#N]": 69376,
  "[#S]": 1,
  "[-/Ring1]": 42,
  "[-/Ring2]": 238,
  "[-\\Ring1]": 55,
  "[-\\Ring2]": 185,
  "[/123I]": 7,
  "[/125I]": 7,
  "[/131I]": 2,
  "[/13CH1]": 3,
  "[/13C]": 3,
  "[/14CH1]": 1,
  "[/14C]": 1,
  "[/As]": 1,
  "[/B]": 11,
  "[/Br]": 400,
  "[/C-1]": 13,
  "[/C@@H1]": 3784,
  "[/C@@]": 274,
  "[/C@H1]": 3050,
  "[/C@]": 213,
  "[/C]": 379920,
  "[/C][#N]": 877,
  "[/C][=Branch1]": 31440,
  "[/C][=Branch1][#Branch1]": 1053,
  "[/C][=Branch1][#Branch2]": 4510,
  "[/C][=Branch1][#Branch2][=C][/C][=C]": 1436,
  "[/C][=Branch1][#Branch2][=C][\\C][=C]": 1227,
  "[/C][=Branch1][#C]": 2023,
  "[/C][=Branch1][=Branch2]": 1908,
  "[/C][=Branch1][=C]": 2040,
  "[/C][=Branch1][=N]": 3847,
  "[/C][=Branch1][=N][=C][/C][=C][C][=C]": 1019,
  "[/C][=Branch1][=N][=C][\\C][=C][C][=C]": 973,
  "[/C][=Branch1][Branch2]": 1455,
  "[/C][=Branch1][Branch2][=N][\\N]": 638,
  "[/C][=Branch1][C][=O]": 5040,
  "[/C][=Branch1][N][=C]": 857,
  "[/C][=Branch1][N][=N]": 562,
  "[/C][=Branch1][O][=C]": 1298,
  "[/C][=Branch1][P]": 3239,
  "[/C][=Branch1][P][=C][/C][=C]": 557,
  "[/C][=Branch1][Ring1][=N]": 4566,
  "[/C][=Branch1][Ring1][=N][/O]": 2187,
  "[/C][=Branch1][Ring1][=N][\\O]": 2193,
  "[/C][=Branch1][Ring2][=N]": 1016,
  "[/C][=Branch1][S]": 2429,
  "[/C][=Branch2]": 19755,
  "[/C][=Branch2][Ring1]": 2571,
  "[/C][=Branch2][Ring1][#Branch1]": 994,
  "[/C][=Branch2][Ring1][#Branch2]": 720,
  "[/C][=Branch2][Ring1][=Branch1]": 878,
  "[/C][=Branch2][Ring1][=Branch2]": 567,
  "[/C][=Branch2][Ring1][Branch1]": 1016,
  "[/C][=Branch2][Ring1][Branch2]": 809,
  "[/C][=Branch2][Ring1][C][=C]": 900,
  "[/C][=Branch2][Ring1][Ring1][=C]": 853,
  "[/C][=Branch2][Ring1][Ring2]": 1865,
  "[/C][=Branch2][Ring2]": 1656,
  "[/C][=C]": 220759,
  "[/C][=C][/C@@H1]": 2229,
  "[/C][=C][/C@H1]": 2007,
  "[/C][=C][/C]": 34597,
  "[/C][=C][/C][=Branch1][C][=O]": 18973,
  "[/C][=C][/C][=Branch1][C][=O][N]": 814,
  "[/C][=C][/C][=Branch1][C][=O][N][O]": 607,
  "[/C][=C][/C][=Branch1][C][=O][O]": 2578,
  "[/C][=C][/C][=C]": 49630,
  "[/C][=C][/C][=C][Branch1][C][C]": 544,
  "[/C][=C][/C][=C][C][=C]": 9399,
  "[/C][=C][/C][=C][C][=C][Branch1]": 3770,
  "[/C][=C][/C][=C][C][=C][C][=C]": 1182,
  "[/C][=C][/C][=C][C][Branch1][Ring1][O]": 847,
  "[/C][=C][/C][=N]": 862,
  "[/C][=C][/C][Branch1][C][C][=C]": 1288,
  "[/C][=C][/N]": 978,
  "[/C][=C][/O]": 596,
  "[/C][=C][/S]": 1106,
  "[/C][=C][Branch1][C]": 807,
  "[/C][=C][Branch1][C][/C]": 639,
  "[/C][=C][Branch1][C][C]": 588,
  "[/C][=C][Branch1][C][\\C]": 6081,
  "[/C][=C][Branch1][C][\\O]": 564,
  "[/C][=C][Branch1][Ring1]": 1580,
  "[/C][=C][Branch1][Ring1][\\C][#N]": 1180,
  "[/C][=C][C][=C][C][=C][Ring1][=Branch1]": 1410,
  "[/C][=C][\\C]": 17802,
  "[/C][=C][\\C][/C][=C][\\C]": 2303,
  "[/C][=C][\\C][=Branch1][C][=O]": 3940,
  "[/C][=C][\\C][=Branch1][C][=O][O]": 1059,
  "[/C][=C][\\C][=C]": 1988,
  "[/C][=C][\\N]": 1684,
  "[/C][=C][\\N][C][=Branch1][C][=O][N]": 662,
  "[/C][=C][\\O]": 756,
  "[/C][=C][\\S]": 2617,
  "[/C][=C][\\S][C][=Branch1][C][=S]": 1021,
  "[/C][=N]": 17963,
  "[/C][=N][/C]": 761,
  "[/C][=N][/C][=C]": 1144,
  "[/C][=N][/N]": 10019,
  "[/C][=N][/N][C][=Branch1][C][=O]": 3839,
  "[/C][=N][/N][C][=N]": 876,
  "[/C][=N][/O]": 2466,
  "[/C][Branch1]": 3370,
  "[/C][Branch1][C][C][=C]": 8128,
  "[/C][Branch1][C][C][=C][/C]": 4325,
  "[/C][Branch1][C][C][=C][\\C]": 799,
  "[/C][Branch1][C][C][=N]": 1441,
  "[/C][Branch1][C][C][=N][/N]": 687,
  "[/C][Branch1][C][N][=N]": 1087,
  "[/C][Branch1][C][O]": 1127,
  "[/C][Branch1][C][O][=C]": 616,
  "[/C][Branch1][C][O][=C][\\C]": 701,
  "[/C][Branch1][C][S][=N]": 620,
  "[/C][Branch1][Ring1][C][#N]": 1479,
  "[/C][Branch1][Ring1][C][#N][=C]": 710,
  "[/C][Branch1][Ring1][C][#N][=C][/C][=C]": 829,
  "[/C][Ring1][#Branch2]": 807,
  "[/C][Ring1][=Branch1]": 827,
  "[/C][Ring1][=Branch2]": 941,
  "[/Cl]": 242,
  "[/F]": 116,
  "[/I]": 145,
  "[/N+1]": 874,
  "[/N-1]": 13,
  "[/NH1]": 70,
  "[/N]": 62650,
  "[/N][=C]": 36988,
  "[/N][=C][/C]": 1567,
  "[/N][=C][/C][=C]": 17196,
  "[/N][=C][/C][=C][C][=C]": 1686,
  "[/N][=C][/C][=C][C][=C][Branch1]": 1078,
  "[/N][=C][/N]": 584,
  "[/N][=C][Branch1]": 2478,
  "[/N][=C][Branch1][C]": 3763,
  "[/N][=C][Branch1][C][\\C]": 758,
  "[/N][=C][Branch1][C][\\N]": 1590,
  "[/N][=C][Branch1][C][\\S]": 1131,
  "[/N][=C][\\C]": 1857,
  "[/N][=C][\\C][=C]": 1203,
  "[/N][=C][\\S]": 1165,
  "[/N][=N][/C][=C]": 2579,
  "[/O-1]": 71,
  "[/O]": 9312,
  "[/P+1]": 3,
  "[/P@@]": 1,
  "[/PH1]": 1,
  "[/P]": 144,
  "[/S+1]": 52,
  "[/S-1]": 3,
  "[/SH0]": 2,
  "[/S]": 3134,
  "[/S][=Branch1][C][=O][=Branch1][C][=O]": 546,
  "[/SeH1]": 2,
  "[/Se]": 3,
  "[/Si]": 9,
  "[10B]": 4,
  "[11C@@H1]": 1,
  "[11CH1]": 2,
  "[11CH2]": 5,
  "[11CH3]": 326,
  "[11C]": 56,
  "[123I-1]": 1,
  "[123I]": 75,
  "[123Te]": 1,
  "[124I-1]": 1,
  "[124I]": 14,
  "[125I-1]": 1,
  "[125IH1]": 1,
  "[125I]": 258,
  "[127I]": 3,
  "[127Xe]": 1,
  "[129Xe]": 1,
  "[131Cs]": 1,
  "[131I-1]": 1,
  "[131I]": 40,
  "[133Xe]": 1,
  "[135I]": 1,
  "[13CH1]": 3,
  "[13CH3]": 1,
  "[13C]": 8,
  "[14C@@H1]": 4,
  "[14C@@]": 1,
  "[14C@H1]": 3,
  "[14CH1]": 24,
  "[14CH2]": 27,
  "[14CH3]": 19,
  "[14C]": 72,
  "[15NH1]": 1,
  "[15N]": 2,
  "[17F]": 5,
  "[18F-1]": 2,
  "[18F]": 594,
  "[18OH1]": 1,
  "[19F]": 10,
  "[211At]": 1,
  "[223Ra]": 2,
  "[22Na+1]": 1,
  "[2H]": 2543,
  "[2H][C][Branch1][C][2H]": 594,
  "[32P]": 5,
  "[35S]": 6,
  "[3H]": 449,
  "[42K+1]": 1,
  "[45Ca+2]": 1,
  "[47Ca+2]": 1,
  "[73Se]": 1,
  "[75Se]": 2,
  "[76Br]": 3,
  "[81Kr]": 1,
  "[82Rb+1]": 1,
  "[82Rb]": 1,
  "[85Sr+2]": 2,
  "[89Sr+2]": 1,
  "[=11C]": 24,
  "[=13CH1]": 6,
  "[=13C]": 2,
  "[=14CH1]": 20,
  "[=14C]": 32,
  "[=18O]": 3,
  "[=32PH1]": 1,
  "[=32P]": 1,
  "[=Al]": 3,
  "[=As]": 42,
  "[=B-1]": 2,
  "[=B]": 4,
  "[=Branch1]": 4992912,
  "[=Branch1][#Branch1]": 1187,
  "[=Branch1][#Branch2]": 998,
  "[=Branch1][=Branch1]": 6133,
  "[=Branch1][=Branch1][=C][Ring1][=Branch1]": 817,
  "[=Branch1][=Branch2]": 563,
  "[=Branch1][=C]": 893,
  "[=Branch1][=N]": 635,
  "[=Branch1][Branch1]": 2681,
  "[=Branch1][Branch1][=C][Ring1][=Branch1]": 1479,
  "[=Branch1][Branch2]": 1408,
  "[=Branch1][C@@H1][Branch1][C][C]": 670,
  "[=Branch1][C]": 3139861,
  "[=Branch1][C][#C]": 716,
  "[=Branch1][C][#N]": 1610,
  "[=Branch1][C][=Branch1][C][=N]": 2806,
  "[=Branch1][C][=Branch1][C][=N][N]": 3046,
  "[=Branch1][C][=Branch1][C][=N][N][=C]": 832,
  "[=Branch1][C][=Branch1][C][=O]": 172056,
  "[=Branch1][C][=Branch1][C][=O][C][=Ring1]": 561,
  "[=Branch1][C][=Branch1][C][=O][NH1]": 2208,
  "[=Branch1][C][=Branch1][C][=O][N]": 4196,
  "[=Branch1][C][=Branch1][C][=O][N][Branch1][=N]": 1037,
  "[=Branch1][C][=Branch1][C][=O][N][C@@H1][Branch1]": 2052,
  "[=Branch1][C][=Branch1][C][=O][N][C@H1]": 750,
  "[=Branch1][C][=Branch1][C][=O][N][C@H1][Branch1]": 836,
  "[=Branch1][C][=Branch1][C][=O][N][C]": 3169,
  "[=Branch1][C][=Branch1][C][=O][N][C][C]": 4534,
  "[=Branch1][C][=Branch1][C][=O][N][Ring1]": 4337,
  "[=Branch1][C][=Branch1][C][=O][N][Ring1][#Branch2]": 1367,
  "[=Branch1][C][=Branch1][C][=O][N][Ring1][O]": 768,
  "[=Branch1][C][=Branch1][C][=O][O-1]": 2867,
  "[=Branch1][C][=Branch1][C][=O][O]": 38698,
  "[=Branch1][C][=Branch1][C][=O][O][=C]": 11051,
  "[=Branch1][C][=Branch1][C][=O][O][C@@H1]": 1296,
  "[=Branch1][C][=Branch1][C][=O][O][C@H1]": 1237,
  "[=Branch1][C][=Branch1][C][=O][O][C]": 9114,
  "[=Branch1][C][=Branch1][C][=O][O][C][Branch1]": 655,
  "[=Branch1][C][=Branch1][C][=O][O][C][C@H1]": 601,
  "[=Branch1][C][=Branch1][C][=O][O][C][C]": 5472,
  "[=Branch1][C][=Branch1][C][=S]": 581,
  "[=Branch1][C][=C][Ring1][=Branch1]": 5775,
  "[=Branch1][C][=C][Ring1][=Branch1][Cl]": 1036,
  "[=Branch1][C][=C][Ring1][=Branch1][F]": 2200,
  "[=Branch1][C][=N]": 43788,
  "[=Branch1][C][=N][N]": 7751,
  "[=Branch1][C][=N][N][=C][Branch1]": 549,
  "[=Branch1][C][=O]": 2542813,
  "[=Branch1][C][=O][=Branch1][C][=O]": 219253,
  "[=Branch1][C][=O][=O]": 39018,
  "[=Branch1][C][=O][O-1]": 73775,
  "[=Branch1][C][=O][O]": 784,
  "[=Branch1][C][=Ring1]": 14155,
  "[=Branch1][C][=Ring1][=Branch2]": 6390,
  "[=Branch1][C][=Ring1][=Branch2][C]": 1355,
  "[=Branch1][C][=Ring1][=Branch2][Cl]": 630,
  "[=Branch1][C][=Ring1][N]": 557,
  "[=Branch1][C][=Ring1][O]": 837,
  "[=Branch1][C][=S]": 31555,
  "[=Branch1][C][=S][N]": 667,
  "[=Branch1][C][Branch1]": 12956,
  "[=Branch1][C][Branch1][#Branch2]": 593,
  "[=Branch1][C][Branch1][=Branch2]": 2295,
  "[=Branch1][C][Branch1][C]": 1732,
  "[=Branch1][C][Branch1][C][C]": 13908,
  "[=Branch1][C][Branch1][C][C][=O]": 9660,
  "[=Branch1][C][Branch1][C][C][Branch1][C][C]": 812,
  "[=Branch1][C][Branch1][C][C][C]": 7729,
  "[=Branch1][C][Branch1][C][C][C][=N]": 615,
  "[=Branch1][C][Branch1][C][C][C][C]": 3866,
  "[=Branch1][C][Branch1][C][C][C][N]": 694,
  "[=Branch1][C][Branch1][C][Cl]": 641,
  "[=Branch1][C][Branch1][C][F]": 728,
  "[=Branch1][C][Branch1][C][F][F]": 2624,
  "[=Branch1][C][Branch1][C][N][=O]": 20948,
  "[=Branch1][C][Branch1][C][O]": 1874,
  "[=Branch1][C][Branch1][N][C][=C][C][=C]": 905,
  "[=Branch1][C][Branch1][Ring1][O]": 696,
  "[=Branch1][C][C@H1]": 560,
  "[=Branch1][C][C@H1][Ring1][#Branch2]": 797,
  "[=Branch1][C][C@H1][Ring1][=Branch2]": 1006,
  "[=Branch1][C][C][=C][C][=C][Branch1]": 717,
  "[=Branch1][C][C][C][C]": 5572,
  "[=Branch1][C][C][C][Ring1]": 6669,
  "[=Branch1][C][C][C][Ring1][Ring1]": 8660,
  "[=Branch1][C][C][C][Ring1][Ring1][=C]": 1468,
  "[=Branch1][C][C][C][Ring1][Ring1][=N]": 2385,
  "[=Branch1][C][C][C][Ring1][Ring1][C]": 651,
  "[=Branch1][C][N]": 955,
  "[=Branch1][C][N][=N][NH1][N][=Ring1][Branch1]": 1717,
  "[=Branch1][C][N][C][=Branch1][C][=O]": 3401,
  "[=Branch1][C][N][C][C]": 1768,
  "[=Branch1][C][N][Ring1][#Branch2]": 1545,
  "[=Branch1][C][O]": 2034,
  "[=Branch1][C][O][C]": 749,
  "[=Branch1][C][O][C][C]": 539,
  "[=Branch1][C][Ring1][#Branch2]": 14521,
  "[=Branch1][C][Ring1][#Branch2][=O]": 7383,
  "[=Branch1][C][Ring1][#C]": 2504,
  "[=Branch1][C][Ring1][#C][=O]": 712,
  "[=Branch1][C][Ring1][=Branch2]": 7203,
  "[=Branch1][C][Ring1][=Branch2][=C][Ring1][=N]": 682,
  "[=Branch1][C][Ring1][=Branch2][=O]": 1627,
  "[=Branch1][C][Ring1][=C]": 1589,
  "[=Branch1][C][Ring1][=C][=O]": 911,
  "[=Branch1][C][Ring1][=N]": 4662,
  "[=Branch1][C][Ring1][=N][=O]": 2232,
  "[=Branch1][C][Ring1][N]": 1611,
  "[=Branch1][C][Ring1][N][=O]": 1782,
  "[=Branch1][C][Ring1][O]": 1517,
  "[=Branch1][C][Ring1][O][=O]": 2979,
  "[=Branch1][C][Ring1][P]": 1188,
  "[=Branch1][C][Ring1][P][=O]": 1011,
  "[=Branch1][C][Ring1][S]": 1343,
  "[=Branch1][C][Ring1][S][=O]": 925,
  "[=Branch1][C][Ring2][Ring1]": 930,
  "[=Branch1][C][Ring2][Ring1][#Branch1]": 706,
  "[=Branch1][C][Ring2][Ring1][=Branch1][=O]": 629,
  "[=Branch1][C][Ring2][Ring1][Branch1][=O]": 719,
  "[=Branch1][C][Ring2][Ring1][C][=O]": 1088,
  "[=Branch1][C][Ring2][Ring1][Ring1]": 652,
  "[=Branch1][C][Ring2][Ring1][Ring1][=O]": 823,
  "[=Branch1][C][Ring2][Ring1][Ring2]": 653,
  "[=Branch1][C][Ring2][Ring1][Ring2][=O]": 735,
  "[=Branch1][C][S]": 1177,
  "[=Branch1][N+1][=Branch1][C][=O][O-1]": 56872,
  "[=Branch1][N+1][=Branch1][C][=O][O-1][=C]": 938,
  "[=Branch1][N][Branch1][C][C]": 4963,
  "[=Branch1][N][Branch1][C][C][C]": 7259,
  "[=Branch1][N][Branch1][C][C][C][C]": 627,
  "[=Branch1][N][C][=Branch1][C][=O]": 5003,
  "[=Branch1][N][C][C]": 728,
  "[=Branch1][Ring2]": 96285,
  "[=Branch1][Ring2][=C][Ring1]": 80384,
  "[=Branch1][Ring2][=C][Ring1][#Branch1]": 3072,
  "[=Branch1][Ring2][=C][Ring1][=Branch1]": 61757,
  "[=Branch1][Ring2][=C][Ring1][=Branch1][C]": 8425,
  "[=Branch1][Ring2][=C][Ring1][=Branch1][C][Branch1]": 2499,
  "[=Branch1][Ring2][=C][Ring1][=Branch1][C][C]": 3996,
  "[=Branch1][Ring2][=C][Ring1][=Branch1][C][C][N]": 766,
  "[=Branch1][Ring2][=C][Ring1][=Branch1][NH1]": 579,
  "[=Branch1][Ring2][=C][Ring1][=Branch1][N][=C]": 838,
  "[=Branch1][Ring2][=C][Ring1][=Branch1][O][C]": 707,
  "[=Branch1][Ring2][=C][Ring1][=Branch1][O][C][C]": 852,
  "[=Branch1][Ring2][=C][Ring1][=Branch1][O][C][O]": 18773,
  "[=Branch1][Ring2][=N]": 9582,
  "[=Branch1][Ring2][=N][Ring1][=Branch1]": 3605,
  "[=Branch1][Ring2][=N][Ring1][Branch1]": 1637,
  "[=Branch1][S][=Branch1][C][=O][=Branch1][C][=O]": 2297,
  "[=Branch2]": 963009,
  "[=Branch2][C]": 154726,
  "[=Branch2][C][=Branch1][C][=O]": 3596,
  "[=Branch2][C][=N]": 648,
  "[=Branch2][C][Branch1][C][C][Branch1][C][C]": 2890,
  "[=Branch2][C][C][=C][NH1][C][=N]": 840,
  "[=Branch2][N][C][=Branch1][C][=O]": 4964,
  "[=Branch2][S][=Branch1][C][=O][=Branch1][C][=O]": 1167,
  "[=C]": 12667858,
  "[=C][/C]": 2340,
  "[=C][/C][=Branch1][C][=O]": 981,
  "[=C][/C][=C]": 11422,
  "[=C][/C][=C][C][=C]": 2085,
  "[=C][/C][=C][C][=C][Branch1]": 1175,
  "[=C][/N]": 1095,
  "[=C][Branch1]": 41616,
  "[=C][Branch1][#Branch2]": 930,
  "[=C][Branch1][#C]": 714,
  "[=C][Branch1][=Branch1][C][=Branch1][C][=O][O]": 662,
  "[=C][Branch1][=Branch1][N+1][=Branch1][C][=O][O-1]": 966,
  "[=C][Branch1][=Branch2]": 5520,
  "[=C][Branch1][=Branch2][C]": 873,
  "[=C][Branch1][=C]": 673,
  "[=C][Branch1][Branch2]": 1073,
  "[=C][Branch1][C]": 1681,
  "[=C][Branch1][C][/O]": 619,
  "[=C][Branch1][C][Br]": 1206,
  "[=C][Branch1][C][C]": 6600,
  "[=C][Branch1][C][C][C]": 1416,
  "[=C][Branch1][C][C][O]": 1025,
  "[=C][Branch1][C][Cl]": 5043,
  "[=C][Branch1][C][F]": 4407,
  "[=C][Branch1][C][F][C][Branch1][C][F]": 1396,
  "[=C][Branch1][C][N]": 3153,
  "[=C][Branch1][C][O]": 7164,
  "[=C][Branch1][C][O][C]": 4426,
  "[=C][Branch1][C][O][C][=C][Ring1][Branch2]": 1322,
  "[=C][Branch1][N][C][=C][C][=C]": 2171,
  "[=C][Branch1][P]": 879,
  "[=C][Branch1][Ring1]": 539,
  "[=C][Branch1][Ring1][C][#N]": 2582,
  "[=C][Branch1][Ring1][O][C]": 1920,
  "[=C][Branch1][Ring1][O][C][C]": 704,
  "[=C][Branch1][S]": 598,
  "[=C][Branch2][Ring1]": 1665,
  "[=C][Branch2][Ring1][Ring1]": 546,
  "[=C][C]": 58709,
  "[=C][C][=Branch1][=Branch1]": 995,
  "[=C][C][=Branch1][Branch1]": 679,
  "[=C][C][=Branch1][C][=O]": 10673,
  "[=C][C][=Branch1][C][=O][N]": 9097,
  "[=C][C][=Branch1][C][=O][O][C]": 2696,
  "[=C][C][=Branch1][Ring2][=C][Ring1][#Branch1]": 2507,
  "[=C][C][=Branch1][Ring2][=N]": 879,
  "[=C][C][=C]": 3228,
  "[=C][C][=C][Branch1]": 623,
  "[=C][C][=C][C][=C]": 3305,
  "[=C][C][=C][C][=C][C][=C][Ring1]": 1134,
  "[=C][C][=C][C][=C][C][Ring1][=Branch1]": 5473,
  "[=C][C][=C][NH1]": 557,
  "[=C][C][=C][Ring1]": 3519,
  "[=C][C][=C][Ring1][#Branch1]": 42700,
  "[=C][C][=C][Ring1][#Branch1][Cl]": 2735,
  "[=C][C][=C][Ring1][#Branch1][F]": 2948,
  "[=C][C][=C][Ring1][#Branch1][NH1][Ring1][#Branch2]": 1844,
  "[=C][C][=C][Ring1][#Branch1][N][Ring1][#Branch2]": 690,
  "[=C][C][=C][Ring1][#Branch1][O]": 2554,
  "[=C][C][=C][Ring1][#Branch1][O][C]": 2166,
  "[=C][C][=C][Ring1][#Branch1][O][C][C]": 758,
  "[=C][C][=C][Ring1][#Branch1][O][Ring1][#Branch2]": 724,
  "[=C][C][=C][Ring1][#Branch1][Ring1][#Branch2]": 862,
  "[=C][C][=C][Ring1][#Branch1][Ring1][#C]": 642,
  "[=C][C][=C][Ring1][#Branch1][Ring1][O]": 764,
  "[=C][C][=C][Ring1][#Branch2]": 1617,
  "[=C][C][=C][Ring1][#C]": 6106,
  "[=C][C][=C][Ring1][=Branch1]": 873,
  "[=C][C][=C][Ring1][=Branch2]": 5060,
  "[=C][C][=C][Ring1][=C]": 2914,
  "[=C][C][=C][Ring1][=N]": 3218,
  "[=C][C][=C][Ring1][N]": 2025,
  "[=C][C][=C][Ring1][O]": 2261,
  "[=C][C][=C][Ring1][P]": 4022,
  "[=C][C][=C][Ring1][S]": 4891,
  "[=C][C][=C][Ring2][Ring1]": 36505,
  "[=C][C][=C][Ring2][Ring1][#Branch1]": 3242,
  "[=C][C][=C][Ring2][Ring1][#Branch2]": 1293,
  "[=C][C][=C][Ring2][Ring1][#C]": 769,
  "[=C][C][=C][Ring2][Ring1][=Branch1]": 2780,
  "[=C][C][=C][Ring2][Ring1][=Branch2]": 1865,
  "[=C][C][=C][Ring2][Ring1][Branch1]": 2530,
  "[=C][C][=C][Ring2][Ring1][Branch2]": 2164,
  "[=C][C][=C][Ring2][Ring1][C][F]": 807,
  "[=C][C][=C][Ring2][Ring1][O]": 562,
  "[=C][C][=C][Ring2][Ring1][Ring1]": 2262,
  "[=C][C][=C][Ring2][Ring1][Ring2]": 3424,
  "[=C][C][=C][Ring2][Ring1][S]": 543,
  "[=C][C][=C][Ring2][Ring2]": 695,
  "[=C][C][=N]": 20822,
  "[=C][C][=N][C][=N]": 1486,
  "[=C][C][=N][Ring1][#Branch2]": 702,
  "[=C][C][=Ring1]": 1311,
  "[=C][C][Branch1]": 34342,
  "[=C][C][Branch1][=Branch2]": 2184,
  "[=C][C][Branch1][=Branch2][C]": 7356,
  "[=C][C][Branch1][=C]": 795,
  "[=C][C][Branch1][C]": 2913,
  "[=C][C][Branch1][C][Br]": 2008,
  "[=C][C][Branch1][C][Br][=C][Ring1][Branch2]": 1058,
  "[=C][C][Branch1][C][C]": 693,
  "[=C][C][Branch1][C][C][=C][Ring1][Branch2]": 837,
  "[=C][C][Branch1][C][Cl]": 7352,
  "[=C][C][Branch1][C][Cl][=C][Ring1][Branch2]": 5468,
  "[=C][C][Branch1][C][F]": 5426,
  "[=C][C][Branch1][C][F][=C][Ring1][Branch2]": 4115,
  "[=C][C][Branch1][C][O]": 5303,
  "[=C][C][Branch1][C][O][=C][Ring1][Branch2]": 2551,
  "[=C][C][Branch1][N][C][=C][C][=C]": 623,
  "[=C][C][Branch1][P]": 627,
  "[=C][C][Branch1][Ring1][O]": 12878,
  "[=C][C][Branch2][Ring1]": 882,
  "[=C][C][C@@H1]": 2198,
  "[=C][C][C@H1]": 622,
  "[=C][C][C]": 1238,
  "[=C][C][C][=Branch1][C][=O]": 2039,
  "[=C][C][C][=C][C][=C]": 1332,
  "[=C][C][C][=C][C][=C][Branch1]": 2020,
  "[=C][C][C][=C][C][=C][C]": 705,
  "[=C][C][NH1]": 725,
  "[=C][C][Ring1][#C]": 645,
  "[=C][NH1]": 5142,
  "[=C][N][=C]": 4716,
  "[=C][N][=C][C][=C][C][Ring1][=Branch1]": 604,
  "[=C][N][=C][Ring1]": 876,
  "[=C][N][C][=Branch1][C][=O]": 18319,
  "[=C][N][Ring1]": 1880,
  "[=C][N][Ring2][Ring1]": 1501,
  "[=C][O]": 1307,
  "[=C][O][C][=Branch1][C][=O]": 4355,
  "[=C][Ring1]": 665462,
  "[=C][Ring1][#Branch1]": 83584,
  "[=C][Ring1][#Branch2]": 57850,
  "[=C][Ring1][#Branch2][C]": 2547,
  "[=C][Ring1][#Branch2][C][=Branch1][C][=O][N]": 657,
  "[=C][Ring1][#Branch2][C][=C][Ring2][Ring1][Ring1]": 599,
  "[=C][Ring1][#Branch2][C][C][Ring1][S]": 1029,
  "[=C][Ring1][#Branch2][Cl]": 1037,
  "[=C][Ring1][#Branch2][F]": 1399,
  "[=C][Ring1][#Branch2][Ring1][=Branch1]": 827,
  "[=C][Ring1][#Branch2][Ring1][=Branch1][C]": 966,
  "[=C][Ring1][#C]": 18365,
  "[=C][Ring1][=Branch1]": 10432,
  "[=C][Ring1][=Branch2]": 34915,
  "[=C][Ring1][=Branch2][C]": 2633,
  "[=C][Ring1][=Branch2][F]": 673,
  "[=C][Ring1][=C]": 16321,
  "[=C][Ring1][=C][C]": 793,
  "[=C][Ring1][=C][C][=C][Ring2][Ring1]": 678,
  "[=C][Ring1][=N]": 15065,
  "[=C][Ring1][=N][C]": 592,
  "[=C][Ring1][=N][O]": 539,
  "[=C][Ring1][Branch1]": 718,
  "[=C][Ring1][Branch2]": 65210,
  "[=C][Ring1][Branch2][C][Ring1][=N][=O]": 865,
  "[=C][Ring1][Branch2][Cl]": 694,
  "[=C][Ring1][Branch2][O]": 558,
  "[=C][Ring1][N]": 10870,
  "[=C][Ring1][N][=C]": 859,
  "[=C][Ring1][N][C]": 1518,
  "[=C][Ring1][N][C][=Branch1][C][=O]": 555,
  "[=C][Ring1][N][C][C]": 821,
  "[=C][Ring1][O]": 14288,
  "[=C][Ring1][O][=C]": 2203,
  "[=C][Ring1][O][C]": 2356,
  "[=C][Ring1][O][C][C]": 2033,
  "[=C][Ring1][O][O]": 1141,
  "[=C][Ring1][P]": 21759,
  "[=C][Ring1][S]": 14992,
  "[=C][Ring1][S][C]": 938,
  "[=C][Ring2][Ring1]": 185081,
  "[=C][Ring2][Ring1][#Branch1]": 14157,
  "[=C][Ring2][Ring1][#Branch2]": 11141,
  "[=C][Ring2][Ring1][#Branch2][C]": 666,
  "[=C][Ring2][Ring1][#C]": 5463,
  "[=C][Ring2][Ring1][=Branch1]": 10794,
  "[=C][Ring2][Ring1][=Branch1][C]": 903,
  "[=C][Ring2][Ring1][=Branch2]": 11985,
  "[=C][Ring2][Ring1][=Branch2][C]": 927,
  "[=C][Ring2][Ring1][=C]": 6923,
  "[=C][Ring2][Ring1][=N]": 7413,
  "[=C][Ring2][Ring1][Branch1]": 12768,
  "[=C][Ring2][Ring1][Branch1][C]": 1282,
  "[=C][Ring2][Ring1][Branch2]": 12412,
  "[=C][Ring2][Ring1][C]": 9301,
  "[=C][Ring2][Ring1][C][C]": 1419,
  "[=C][Ring2][Ring1][C][O]": 796,
  "[=C][Ring2][Ring1][N]": 7274,
  "[=C][Ring2][Ring1][N][C]": 574,
  "[=C][Ring2][Ring1][O]": 9232,
  "[=C][Ring2][Ring1][O][C]": 848,
  "[=C][Ring2][Ring1][P]": 4504,
  "[=C][Ring2][Ring1][Ring1]": 13617,
  "[=C][Ring2][Ring1][Ring1][C]": 1820,
  "[=C][Ring2][Ring1][Ring1][N]": 721,
  "[=C][Ring2][Ring1][Ring1][O]": 679,
  "[=C][Ring2][Ring1][Ring2]": 15754,
  "[=C][Ring2][Ring1][S]": 4269,
  "[=C][Ring2][Ring2]": 16609,
  "[=C][Ring2][Ring2][#Branch1]": 1312,
  "[=C][Ring2][Ring2][#Branch2]": 702,
  "[=C][Ring2][Ring2][=Branch1]": 1307,
  "[=C][Ring2][Ring2][=Branch2]": 949,
  "[=C][Ring2][Ring2][Branch1]": 1712,
  "[=C][Ring2][Ring2][Branch2]": 987,
  "[=C][Ring2][Ring2][C]": 2466,
  "[=C][Ring2][Ring2][O]": 603,
  "[=C][Ring2][Ring2][Ring1]": 2658,
  "[=C][Ring2][Ring2][Ring2]": 2382,
  "[=C][S]": 17529,
  "[=C][S][=Branch1][C][=O][=Branch1][C][=O]": 1914,
  "[=C][S][C][C][=C][C][=C]": 1088,
  "[=C][S][Ring1][#C]": 1010,
  "[=C][S][Ring1][=C]": 861,
  "[=C][S][Ring1][=N]": 1101,
  "[=C][S][Ring1][N]": 1196,
  "[=C][S][Ring1][O]": 1799,
  "[=C][\\C]": 5349,
  "[=C][\\C][=Branch1][C][=O]": 1283,
  "[=C][\\C][=C]": 11707,
  "[=C][\\C][=C][C][=C]": 2392,
  "[=C][\\C][=C][C][=C][Branch1]": 1313,
  "[=C][\\N]": 657,
  "[=Mg]": 7,
  "[=N+1]": 28123,
  "[=N+1][=N-1]": 2439,
  "[=N+1][Branch1][C][C]": 858,
  "[=N+1][Branch1][C][O-1]": 11404,
  "[=N+1][Ring1][=Branch1]": 1004,
  "[=N-1]": 2448,
  "[=NH1+1]": 10,
  "[=NH2+1]": 6,
  "[=N]": 1801688,
  "[=N][/C]": 1197,
  "[=N][/C][=C]": 4871,
  "[=N][/N]": 3215,
  "[=N][/N][C][=Branch1][C][=O]": 549,
  "[=N][/O]": 1329,
  "[=N][C]": 54506,
  "[=N][C][=Branch1][C][=O]": 15938,
  "[=N][C][=Branch1][C][=O][N]": 3322,
  "[=N][C][=Branch1][C][=O][N][C][C]": 3719,
  "[=N][C][=C]": 2200,
  "[=N][C][=C][Branch1]": 683,
  "[=N][C][=C][Branch1][C][Cl]": 596,
  "[=N][C][=C][Branch1][C][F]": 896,
  "[=N][C][=C][C][=C]": 14723,
  "[=N][C][=C][C][=C][Branch1]": 9378,
  "[=N][C][=C][C][=C][C]": 1927,
  "[=N][C][=C][C][=C][C][=C][Ring1]": 7778,
  "[=N][C][=C][C][Branch1]": 895,
  "[=N][C][=C][C][Branch1][C][Cl]": 790,
  "[=N][C][=C][C][Branch1][C][Cl][=C]": 635,
  "[=N][C][=C][Ring1]": 621,
  "[=N][C][=C][Ring1][#C]": 655,
  "[=N][C][=C][Ring1][=N]": 583,
  "[=N][C][=C][Ring1][P]": 705,
  "[=N][C][=N]": 11455,
  "[=N][C][=Ring1]": 10074,
  "[=N][C][=Ring1][#C]": 550,
  "[=N][C][=Ring1][=Branch1]": 626,
  "[=N][C][=Ring1][O]": 728,
  "[=N][C][=Ring2]": 3544,
  "[=N][C][Branch1]": 4213,
  "[=N][C][Branch1][#Branch2]": 593,
  "[=N][C][Branch1][#C]": 586,
  "[=N][C][Branch1][=Branch2]": 4427,
  "[=N][C][Branch1][=C]": 567,
  "[=N][C][Branch1][Branch2]": 683,
  "[=N][C][Branch1][C]": 5580,
  "[=N][C][Branch1][C][C]": 1247,
  "[=N][C][Branch1][C][C][=N]": 886,
  "[=N][C][Branch1][C][Cl]": 821,
  "[=N][C][Branch1][C][N]": 713,
  "[=N][C][Branch1][C][N][=N]": 2452,
  "[=N][C][Branch1][C][N][=N][Ring1][Branch2]": 591,
  "[=N][C][Branch1][C][O]": 2945,
  "[=N][C][Branch1][C][O][=C][Ring1][Branch2]": 566,
  "[=N][C][Branch1][P]": 562,
  "[=N][C][Branch2][Ring1]": 763,
  "[=N][C][C]": 1386,
  "[=N][C][C][=Branch1][C][=O]": 661,
  "[=N][C][C][=C][C][=C]": 17845,
  "[=N][C][C][=C][C][=C][C]": 4847,
  "[=N][C][C][C][C]": 1193,
  "[=N][C][NH1]": 603,
  "[=N][C][N][C][C]": 1002,
  "[=N][C][Ring1][N][=C][Ring1][S]": 868,
  "[=N][C][Ring1][O][=C][Ring1][#C]": 572,
  "[=N][C][S]": 799,
  "[=N][NH1]": 10471,
  "[=N][NH1][C][=Ring1]": 1271,
  "[=N][NH1][C][Ring1][=N][=C][Ring1][P]": 1014,
  "[=N][N]": 4542,
  "[=N][N][Branch1][C][C]": 953,
  "[=N][N][Branch1][C][C][C][=Ring1][=Branch1]": 1404,
  "[=N][N][C][=Branch1][C][=O]": 10224,
  "[=N][N][C][=C][C][=C]": 1432,
  "[=N][N][C][=C][C][=C][C]": 1071,
  "[=N][N][Ring1]": 5185,
  "[=N][N][Ring1][#C]": 790,
  "[=N][N][Ring1][Branch2]": 700,
  "[=N][N][Ring1][P]": 541,
  "[=N][N][Ring1][S]": 654,
  "[=N][N][Ring2][Ring1]": 5724,
  "[=N][N][Ring2][Ring1][Ring1]": 558,
  "[=N][O]": 24439,
  "[=N][O][C]": 764,
  "[=N][O][C][=Branch1][C][=O]": 1414,
  "[=N][O][C][=C][C][=C]": 1174,
  "[=N][O][C][=C][C][=C][C]": 992,
  "[=N][O][C][=Ring1]": 906,
  "[=N][O][C][C]": 875,
  "[=N][O][C][C][C][C]": 678,
  "[=N][O][Ring1][#Branch2]": 540,
  "[=N][O][Ring1][#C]": 910,
  "[=N][O][Ring1][=Branch1]": 908,
  "[=N][O][Ring1][=C]": 843,
  "[=N][O][Ring1][=N]": 807,
  "[=N][O][Ring1][N]": 1252,
  "[=N][O][Ring1][O]": 1268,
  "[=N][O][Ring1][S]": 674,
  "[=N][O][Ring2][Ring1][=Branch1]": 583,
  "[=N][O][Ring2][Ring1][Ring2]": 568,
  "[=N][Ring1][#Branch1]": 1548,
  "[=N][Ring1][#Branch2]": 10932,
  "[=N][Ring1][#C]": 7139,
  "[=N][Ring1][=Branch1]": 1047,
  "[=N][Ring1][=Branch2]": 1276,
  "[=N][Ring1][=C]": 4985,
  "[=N][Ring1][=N]": 4927,
  "[=N][Ring1][Branch2]": 2250,
  "[=N][Ring1][N]": 5147,
  "[=N][Ring1][N][=C]": 942,
  "[=N][Ring1][O]": 5102,
  "[=N][Ring1][O][=C]": 742,
  "[=N][Ring1][P]": 5972,
  "[=N][Ring1][S]": 7474,
  "[=N][Ring1][S][C][=C][Ring2][Ring1][=Branch1]": 549,
  "[=N][Ring2][Ring1]": 83140,
  "[=N][Ring2][Ring1][#Branch1]": 5449,
  "[=N][Ring2][Ring1][#Branch2]": 4703,
  "[=N][Ring2][Ring1][#C]": 2509,
  "[=N][Ring2][Ring1][=Branch1]": 6385,
  "[=N][Ring2][Ring1][=Branch2]": 5141,
  "[=N][Ring2][Ring1][=C]": 2697,
  "[=N][Ring2][Ring1][=N]": 2719,
  "[=N][Ring2][Ring1][Branch1]": 6807,
  "[=N][Ring2][Ring1][Branch2]": 5745,
  "[=N][Ring2][Ring1][C]": 6212,
  "[=N][Ring2][Ring1][N]": 2871,
  "[=N][Ring2][Ring1][O]": 3467,
  "[=N][Ring2][Ring1][P]": 1869,
  "[=N][Ring2][Ring1][Ring1]": 7239,
  "[=N][Ring2][Ring1][Ring2]": 8421,
  "[=N][Ring2][Ring1][S]": 2453,
  "[=N][Ring2][Ring2][C]": 844,
  "[=N][Ring2][Ring2][Ring1]": 747,
  "[=N][Ring2][Ring2][Ring2]": 637,
  "[=N][S][=Branch1][C][=O][=Branch1][C][=O]": 3365,
  "[=N][\\C]": 1124,
  "[=N][\\C][=Branch1][C][=O]": 727,
  "[=N][\\C][=C]": 1561,
  "[=N][\\N]": 5604,
  "[=N][\\N][C][=Branch1][C][=O]": 1578,
  "[=N][\\O]": 2467,
  "[=O+1]": 157,
  "[=OH0]": 3,
  "[=O]": 2887618,
  "[=P@@]": 23,
  "[=P@]": 19,
  "[=PH1]": 19,
  "[=PH2]": 2,
  "[=P]": 2302,
  "[=Ring1]": 203185,
  "[=Ring1][#Branch1]": 4069,
  "[=Ring1][#Branch2]": 3115,
  "[=Ring1][#C]": 3586,
  "[=Ring1][=Branch1]": 8017,
  "[=Ring1][=Branch1][C]": 598,
  "[=Ring1][=Branch2]": 5118,
  "[=Ring1][=C]": 1814,
  "[=Ring1][=N]": 3253,
  "[=Ring1][Branch1]": 31296,
  "[=Ring1][Branch1][C]": 4511,
  "[=Ring1][Branch1][C][=Branch1][C][=O]": 546,
  "[=Ring1][Branch1][C][C]": 2819,
  "[=Ring1][Branch1][C][C][C][C][Ring1][#Branch1]": 567,
  "[=Ring1][Branch2]": 2335,
  "[=Ring1][N]": 1697,
  "[=Ring1][O]": 2020,
  "[=Ring1][P]": 2610,
  "[=Ring1][S]": 2263,
  "[=Ring2]": 58319,
  "[=Ring2][Ring1]": 1430,
  "[=Ring2][Ring1][#Branch1]": 2299,
  "[=Ring2][Ring1][#Branch2]": 1184,
  "[=Ring2][Ring1][=Branch1]": 1741,
  "[=Ring2][Ring1][=Branch2]": 1069,
  "[=Ring2][Ring1][=N]": 618,
  "[=Ring2][Ring1][Branch1]": 1604,
  "[=Ring2][Ring1][Branch2]": 1369,
  "[=Ring2][Ring1][C]": 1263,
  "[=Ring2][Ring1][O]": 605,
  "[=Ring2][Ring1][Ring1]": 1550,
  "[=Ring2][Ring1][Ring2]": 1725,
  "[=Ring2][Ring2]": 682,
  "[=S+1]": 174,
  "[=S-1]": 1,
  "[=S@@]": 2,
  "[=S@]": 2,
  "[=SH1]": 5,
  "[=S]": 53924,
  "[=S][=Branch1][C][=O]": 14877,
  "[=Se+1]": 47,
  "[=Se]": 170,
  "[=Si]": 15,
  "[=Te+1]": 39,
  "[=Te]": 2,
  "[Ag+1]": 10,
  "[Ag-4]": 1,
  "[Ag]": 8,
  "[Al+3]": 23,
  "[Al-3]": 2,
  "[Al]": 21,
  "[As+1]": 8,
  "[As-1]": 1,
  "[AsH1]": 2,
  "[AsH3]": 1,
  "[As]": 233,
  "[At]": 1,
  "[B-1]": 605,
  "[B@-1]": 2,
  "[B@@-1]": 2,
  "[BH0]": 3,
  "[BH1-1]": 8,
  "[BH2-1]": 69,
  "[BH3-1]": 20,
  "[B]": 3790,
  "[B][Branch1][C][O]": 2393,
  "[B][Branch1][C][O][O]": 1219,
  "[Ba+2]": 11,
  "[Ba]": 1,
  "[Be+2]": 2,
  "[Bi+3]": 4,
  "[Bi]": 1,
  "[Br+2]": 3,
  "[Br-1]": 7339,
  "[Br-1][Br-1]": 1561,
  "[Br]": 97976,
  "[Branch1]": 6441434,
  "[Branch1][#Branch1]": 9210,
  "[Branch1][#Branch1][C][=Branch1][C][=O][O]": 575,
  "[Branch1][#Branch1][C][=Branch1][C][=O][O][C]": 2036,
  "[Branch1][#Branch1][C][C][=Branch1][C][=O]": 679,
  "[Branch1][#Branch1][O][C][Branch1][C][C][=O]": 1208,
  "[Branch1][#Branch2]": 3617,
  "[Branch1][#Branch2][C]": 2830,
  "[Branch1][#C]": 5055,
  "[Branch1][=Branch1]": 1761,
  "[Branch1][=Branch1][C][=Branch1][C][=O][O]": 1109,
  "[Branch1][=Branch1][C][=Branch1][C][=O][O][C]": 1099,
  "[Branch1][=Branch1][C][Branch1][C][C]": 566,
  "[Branch1][=Branch1][N+1][=Branch1][C][=O][O-1]": 1681,
  "[Branch1][=Branch2]": 60362,
  "[Branch1][=Branch2][C]": 4950,
  "[Branch1][=C]": 5891,
  "[Branch1][=C][C][=Branch1][C][=O][N]": 596,
  "[Branch1][=N]": 4954,
  "[Branch1][=N][C][=Branch1][C][=O][N]": 548,
  "[Branch1][=N][C][=C][C][=C]": 854,
  "[Branch1][=N][C][=C][C][=C][Branch1]": 980,
  "[Branch1][=N][C][C][=C][C][=C]": 648,
  "[Branch1][Branch1][C]": 915,
  "[Branch1][Branch1][C][C]": 871,
  "[Branch1][Branch2]": 9877,
  "[Branch1][Branch2][C][=Branch1][C][=O][O]": 598,
  "[Branch1][Branch2][C][C][=C][Branch1][C][C]": 872,
  "[Branch1][C]": 2095971,
  "[Branch1][C][/C]": 2040,
  "[Branch1][C][2H]": 834,
  "[Branch1][C][=Branch1][C][=O]": 30062,
  "[Branch1][C][=Branch1][C][=O][N][C@@H1][Branch1]": 690,
  "[Branch1][C][=Branch1][C][=O][N][C]": 654,
  "[Branch1][C][=Branch1][C][=O][N][C][C]": 709,
  "[Branch1][C][=Branch1][C][=O][O]": 701,
  "[Branch1][C][=C][Ring1][=Branch1]": 1091,
  "[Branch1][C][=C][Ring1][=Branch1][C]": 657,
  "[Branch1][C][=N]": 8672,
  "[Branch1][C][=N][Ring1][=Branch1]": 617,
  "[Branch1][C][Br]": 74884,
  "[Branch1][C][Br][=C][Ring1][#Branch1]": 6953,
  "[Branch1][C][Br][=C][Ring1][=Branch2]": 831,
  "[Branch1][C][Br][=C][Ring1][Branch2]": 565,
  "[Branch1][C][Br][C][=C][Ring1][#Branch1]": 27082,
  "[Branch1][C][Br][C][=C][Ring1][#Branch1][F]": 889,
  "[Branch1][C][C]": 1282989,
  "[Branch1][C][C][=Branch1][C][=O]": 4297,
  "[Branch1][C][C][=Branch1][C][=O][=O]": 554,
  "[Branch1][C][C][=C]": 23723,
  "[Branch1][C][C][=C][Ring1][#Branch1]": 11729,
  "[Branch1][C][C][=C][Ring1][Branch2]": 3801,
  "[Branch1][C][C][=N]": 18553,
  "[Branch1][C][C][=N][Ring1][#Branch1]": 931,
  "[Branch1][C][C][=N][Ring1][=Branch1]": 837,
  "[Branch1][C][C][=O]": 52723,
  "[Branch1][C][C][Branch1][C][C]": 67532,
  "[Branch1][C][C][Branch1][C][C][C]": 22488,
  "[Branch1][C][C][Branch1][C][C][C][=N]": 1168,
  "[Branch1][C][C][Branch1][C][C][C][C]": 7277,
  "[Branch1][C][C][Branch1][C][C][C][O]": 1314,
  "[Branch1][C][C][Branch1][C][C][O]": 1571,
  "[Branch1][C][C][C@@H1]": 3448,
  "[Branch1][C][C][C@@]": 979,
  "[Branch1][C][C][C@H1]": 15741,
  "[Branch1][C][C][C@H1][Ring1][=C]": 743,
  "[Branch1][C][C][C@H1][Ring1][=N]": 1463,
  "[Branch1][C][C][C@H1][Ring1][N][C][C]": 1299,
  "[Branch1][C][C][C@]": 3771,
  "[Branch1][C][C][C]": 187926,
  "[Branch1][C][C][C][#N]": 1266,
  "[Branch1][C][C][C][=Branch1][C][=O]": 2511,
  "[Branch1][C][C][C][=Branch1][C][=O][N]": 1321,
  "[Branch1][C][C][C][=Branch1][C][=O][O]": 717,
  "[Branch1][C][C][C][=Branch2]": 1195,
  "[Branch1][C][C][C][=C][C][=C]": 600,
  "[Branch1][C][C][C][=C][Ring1][#Branch1]": 24292,
  "[Branch1][C][C][C][=N]": 1672,
  "[Branch1][C][C][C][Branch1][C][O]": 791,
  "[Branch1][C][C][C][Branch2][Ring1]": 758,
  "[Branch1][C][C][C][C@@H1]": 759,
  "[Branch1][C][C][C][C@H1]": 838,
  "[Branch1][C][C][C][C@H1][Branch1]": 2832,
  "[Branch1][C][C][C][C]": 84147,
  "[Branch1][C][C][C][C][=Branch1][C][=O]": 562,
  "[Branch1][C][C][C][C][Branch1][C][O]": 796,
  "[Branch1][C][C][C][C][C@@H1]": 2213,
  "[Branch1][C][C][C][C][C@@]": 650,
  "[Branch1][C][C][C][C][C@H1]": 2519,
  "[Branch1][C][C][C][C][C][C]": 1979,
  "[Branch1][C][C][C][C][C][Ring1][#Branch1]": 745,
  "[Branch1][C][C][C][C][Ring1][#Branch1]": 673,
  "[Branch1][C][C][C][C][Ring1][=Branch1]": 749,
  "[Branch1][C][C][C][N]": 2193,
  "[Branch1][C][C][C][O]": 1972,
  "[Branch1][C][C][C][Ring1]": 659,
  "[Branch1][C][C][C][Ring1][#Branch1]": 901,
  "[Branch1][C][C][N][=C][Ring1][#Branch1]": 809,
  "[Branch1][C][C][N][C][=Branch1][C][=O]": 751,
  "[Branch1][C][C][O]": 10510,
  "[Branch1][C][C][O][Ring1][=Branch1]": 1405,
  "[Branch1][C][C][O][Ring1][O]": 617,
  "[Branch1][C][C][Ring1][=Branch1]": 5688,
  "[Branch1][C][C][Ring1][=Branch1][C]": 3027,
  "[Branch1][C][C][S]": 956,
  "[Branch1][C][Cl]": 327017,
  "[Branch1][C][Cl][=C][Ring1][#Branch1]": 30919,
  "[Branch1][C][Cl][=C][Ring1][#Branch1][Cl]": 3247,
  "[Branch1][C][Cl][=C][Ring1][#Branch1][F]": 1437,
  "[Branch1][C][Cl][=C][Ring1][=Branch2]": 1344,
  "[Branch1][C][Cl][=C][Ring1][Branch2]": 1498,
  "[Branch1][C][Cl][Branch1][C][Cl][Cl]": 1010,
  "[Branch1][C][Cl][C][=C][Ring1][#Branch1]": 109775,
  "[Branch1][C][Cl][C][=C][Ring1][#Branch1][=C]": 1081,
  "[Branch1][C][Cl][C][=C][Ring1][#Branch1][=N]": 1864,
  "[Branch1][C][Cl][C][=C][Ring1][#Branch1][Cl]": 13520,
  "[Branch1][C][Cl][C][=C][Ring1][#Branch1][F]": 1157,
  "[Branch1][C][Cl][C][=C][Ring1][#Branch1][O]": 553,
  "[Branch1][C][Cl][C][=C][Ring1][#Branch1][S]": 650,
  "[Branch1][C][Cl][C][=C][Ring1][Branch2]": 2434,
  "[Branch1][C][Cl][Cl]": 2267,
  "[Branch1][C][Cl][N][=C][Ring1][#Branch1]": 716,
  "[Branch1][C][F]": 590096,
  "[Branch1][C][F][=C][Ring1][#Branch1]": 20672,
  "[Branch1][C][F][=C][Ring1][#Branch1][F]": 1208,
  "[Branch1][C][F][=C][Ring1][Branch2]": 819,
  "[Branch1][C][F][Branch1][C][F]": 170142,
  "[Branch1][C][F][Branch1][C][F][F]": 153997,
  "[Branch1][C][F][Branch1][C][F][F][=C]": 8697,
  "[Branch1][C][F][Branch1][C][F][F][=N]": 3340,
  "[Branch1][C][F][C][=C][Ring1][#Branch1]": 91880,
  "[Branch1][C][F][C][=C][Ring1][#Branch1][=C]": 1190,
  "[Branch1][C][F][C][=C][Ring1][#Branch1][=N]": 1604,
  "[Branch1][C][F][C][=C][Ring1][#Branch1][Cl]": 1932,
  "[Branch1][C][F][C][=C][Ring1][#Branch1][F]": 9464,
  "[Branch1][C][F][C][=C][Ring1][Branch2]": 748,
  "[Branch1][C][F][C][=C][Ring1][Branch2][F]": 1043,
  "[Branch1][C][F][F]": 10224,
  "[Branch1][C][I]": 7244,
  "[Branch1][C][I][=C][Ring1][#Branch1]": 960,
  "[Branch1][C][I][C][=C][Ring1][#Branch1]": 2872,
  "[Branch1][C][N]": 143784,
  "[Branch1][C][N][=Branch1][C][=O][=O]": 11065,
  "[Branch1][C][N][=C][Ring1][#Branch1]": 1504,
  "[Branch1][C][N][=N]": 16927,
  "[Branch1][C][N][=N][Ring1][=Branch1]": 1231,
  "[Branch1][C][N][=O]": 40720,
  "[Branch1][C][N][=S]": 608,
  "[Branch1][C][N][Branch1]": 589,
  "[Branch1][C][N][C]": 9402,
  "[Branch1][C][N][C][=Branch1][C][=O]": 8238,
  "[Branch1][C][N][C][=Branch1][C][=O][N]": 1580,
  "[Branch1][C][N][C][=Branch1][C][=O][O]": 1320,
  "[Branch1][C][N][C][=C][C][=C]": 2165,
  "[Branch1][C][N][C][=C][Ring1][#Branch1]": 3990,
  "[Branch1][C][N][C][C]": 6036,
  "[Branch1][C][N][C][C][=C][C][=C]": 1021,
  "[Branch1][C][N][C][C][Ring1][#Branch1]": 704,
  "[Branch1][C][N][N][=C][Ring1][#Branch1]": 2977,
  "[Branch1][C][O-1]": 27365,
  "[Branch1][C][O-1][Branch1][C][O-1]": 717,
  "[Branch1][C][O]": 416326,
  "[Branch1][C][O][=C]": 3338,
  "[Branch1][C][O][=C][Ring1][#Branch1]": 9919,
  "[Branch1][C][O][=C][Ring1][#Branch2]": 624,
  "[Branch1][C][O][=C][Ring1][=Branch2]": 624,
  "[Branch1][C][O][Branch1][=Branch2]": 863,
  "[Branch1][C][O][C@@H1]": 30010,
  "[Branch1][C][O][C@@H1][Branch1][C][O][C@@H1]": 1193,
  "[Branch1][C][O][C@@H1][Branch1][C][O][C@H1]": 1582,
  "[Branch1][C][O][C@@H1][Ring1][#Branch2]": 1322,
  "[Branch1][C][O][C@H1]": 54852,
  "[Branch1][C][O][C@H1][Branch1]": 826,
  "[Branch1][C][O][C@H1][Branch1][C][O]": 609,
  "[Branch1][C][O][C@H1][Branch1][C][O][C@H1]": 897,
  "[Branch1][C][O][C@H1][Branch1][C][O][C]": 546,
  "[Branch1][C][O][C@H1][Branch1][Ring1][C][O]": 572,
  "[Branch1][C][O][C@H1][Ring1][#Branch2]": 7247,
  "[Branch1][C][O][C@H1][Ring1][#Branch2][O]": 2063,
  "[Branch1][C][O][C@H1][Ring1][#Branch2][O][=C]": 917,
  "[Branch1][C][O][C@H1][Ring1][Branch2]": 611,
  "[Branch1][C][O][C@H1][Ring1][O]": 586,
  "[Branch1][C][O][C]": 139251,
  "[Branch1][C][O][C][=Branch1][C][=O]": 2660,
  "[Branch1][C][O][C][=C][C][=C]": 1169,
  "[Branch1][C][O][C][=C][Ring1][#Branch1]": 34749,
  "[Branch1][C][O][C][=C][Ring1][#Branch1][O]": 1796,
  "[Branch1][C][O][C][Branch1]": 7860,
  "[Branch1][C][O][C][Branch1][C][O]": 11986,
  "[Branch1][C][O][C][Branch1][C][O][C]": 1753,
  "[Branch1][C][O][C][Branch1][Ring1][C][O]": 599,
  "[Branch1][C][O][C][C@@H1][Branch1][C][C]": 658,
  "[Branch1][C][O][C][C@@H1][Branch1][C][O]": 540,
  "[Branch1][C][O][C][C]": 833,
  "[Branch1][C][O][C][C][C][C]": 594,
  "[Branch1][C][O][C][C][Ring1][#Branch1]": 1832,
  "[Branch1][C][O][C][O]": 2729,
  "[Branch1][C][O][C][Ring1][#Branch1]": 1174,
  "[Branch1][C][O][C][Ring1][Branch2]": 710,
  "[Branch1][C][O][O]": 1030,
  "[Branch1][C][Ring1][=Branch1][=O]": 2174,
  "[Branch1][C][Ring1][=Branch1][=O][C]": 540,
  "[Branch1][C][S]": 10923,
  "[Branch1][C][S][=N]": 2608,
  "[Branch1][C][\\C]": 8127,
  "[Branch1][N]": 703,
  "[Branch1][N][C][=Branch1][C][=O]": 9219,
  "[Branch1][N][C][=C][C][=C]": 7078,
  "[Branch1][N][C][=C][C][=C][C]": 953,
  "[Branch1][N][C][C]": 4917,
  "[Branch1][N][C][C][O]": 763,
  "[Branch1][O]": 886,
  "[Branch1][O][C]": 2206,
  "[Branch1][O][C][C]": 4698,
  "[Branch1][P]": 4816,
  "[Branch1][Ring1]": 4028,
  "[Branch1][Ring1][C][#N]": 1762,
  "[Branch1][Ring1][C][C]": 637,
  "[Branch1][Ring1][C][C][Branch1]": 639,
  "[Branch1][Ring1][C][C][C][C]": 620,
  "[Branch1][Ring1][C][O]": 4406,
  "[Branch1][Ring1][C][O][C]": 1436,
  "[Branch1][Ring1][O]": 23830,
  "[Branch1][Ring1][O][C]": 2282,
  "[Branch1][Ring1][O][C][=C][Ring1][=Branch2]": 2019,
  "[Branch1][Ring1][O][C][C]": 1618,
  "[Branch1][Ring2]": 24098,
  "[Branch1][Ring2][C][Ring1][#Branch1]": 1538,
  "[Branch1][Ring2][C][Ring1][#Branch1][C][Ring1][#Branch2]": 696,
  "[Branch1][Ring2][C][Ring1][=Branch1]": 1157,
  "[Branch1][Ring2][C][Ring1][=Branch1][C][Ring1][=Branch2]": 6833,
  "[Branch1][Ring2][O][C][C]": 1502,
  "[Branch1][S]": 4826,
  "[Branch1][S][=Branch1][C][=O][=Branch1][C][=O]": 1611,
  "[Branch2]": 2175123,
  "[Branch2][#Branch1]": 7487,
  "[Branch2][#Branch1][Ring2]": 607,
  "[Branch2][=Branch1]": 19100,
  "[Branch2][=Branch1][#Branch1]": 1202,
  "[Branch2][=Branch1][#Branch2]": 768,
  "[Branch2][=Branch1][#C]": 548,
  "[Branch2][=Branch1][=Branch1]": 923,
  "[Branch2][=Branch1][=Branch2]": 982,
  "[Branch2][=Branch1][=C]": 570,
  "[Branch2][=Branch1][=N]": 539,
  "[Branch2][=Branch1][Branch1]": 727,
  "[Branch2][=Branch1][Branch2]": 872,
  "[Branch2][=Branch1][C]": 1151,
  "[Branch2][=Branch1][P]": 587,
  "[Branch2][=Branch1][Ring1]": 1054,
  "[Branch2][=Branch1][Ring2]": 2002,
  "[Branch2][Branch1]": 80922,
  "[Branch2][Branch1][#Branch1]": 4193,
  "[Branch2][Branch1][#Branch2]": 2615,
  "[Branch2][Branch1][#C]": 1934,
  "[Branch2][Branch1][=Branch1]": 3354,
  "[Branch2][Branch1][=Branch2]": 3397,
  "[Branch2][Branch1][=C]": 1670,
  "[Branch2][Branch1][=N]": 1654,
  "[Branch2][Branch1][Branch1]": 2611,
  "[Branch2][Branch1][Branch2]": 3572,
  "[Branch2][Branch1][C]": 2898,
  "[Branch2][Branch1][C][C]": 2272,
  "[Branch2][Branch1][C][C][=Branch1][C][=O]": 1109,
  "[Branch2][Branch1][C][N]": 926,
  "[Branch2][Branch1][C][N][C][=Branch1][C][=O]": 644,
  "[Branch2][Branch1][O]": 655,
  "[Branch2][Branch1][P]": 1377,
  "[Branch2][Branch1][Ring1]": 4041,
  "[Branch2][Branch1][Ring2]": 5771,
  "[Branch2][Branch1][S]": 1249,
  "[Branch2][Branch2]": 1318,
  "[Branch2][C][=Branch1][C][=O]": 3847,
  "[Branch2][C][=Branch1][C][=O][N]": 1753,
  "[Branch2][C][=C][C][=C][O][Ring1][Branch1]": 5152,
  "[Branch2][C][=C][C][=C][S][Ring1][Branch1]": 4359,
  "[Branch2][C][=N]": 6100,
  "[Branch2][C][=N][C][=C][S][Ring1][Branch1]": 598,
  "[Branch2][C][=N][C][C][N][Ring1][Branch1]": 622,
  "[Branch2][C][C]": 13547,
  "[Branch2][C][C][=C]": 4730,
  "[Branch2][C][C][=C][O][C][=Ring1][Branch1]": 1359,
  "[Branch2][C][C][=C][S][C][=Ring1][Branch1]": 1281,
  "[Branch2][C][C][C]": 2018,
  "[Branch2][C][C][C][=Branch1][C][=O]": 1900,
  "[Branch2][C][C][C][=Branch1][C][=O][O]": 3260,
  "[Branch2][C][C][C][Branch1][C][N][=O]": 1061,
  "[Branch2][C][C][C][C]": 6887,
  "[Branch2][C][C][C][C][C][Ring1][Branch1]": 1087,
  "[Branch2][C][C][N][Branch1][C][C]": 1183,
  "[Branch2][C][C][N][Branch1][C][C][C]": 624,
  "[Branch2][C][O][C][Branch1][C][C][=O]": 717,
  "[Branch2][N][C][=Branch1][C][=O]": 6638,
  "[Branch2][N][C][C][C][C][Ring1][Branch1]": 1011,
  "[Branch2][Ring1]": 1068678,
  "[Branch2][Ring1][#Branch1]": 12341,
  "[Branch2][Ring1][#Branch2]": 9210,
  "[Branch2][Ring1][#Branch2][N][C][=Branch1][C][=O]": 732,
  "[Branch2][Ring1][#C]": 7423,
  "[Branch2][Ring1][=Branch1]": 9195,
  "[Branch2][Ring1][=Branch1][C]": 1780,
  "[Branch2][Ring1][=Branch2]": 9673,
  "[Branch2][Ring1][=Branch2][N][C][=Branch1][C][=O]": 778,
  "[Branch2][Ring1][=C]": 5524,
  "[Branch2][Ring1][=N]": 6646,
  "[Branch2][Ring1][Branch1]": 8129,
  "[Branch2][Ring1][Branch1][C]": 797,
  "[Branch2][Ring1][Branch1][C][=Branch1][C][=O]": 1108,
  "[Branch2][Ring1][Branch1][C][=C][C][=C][Branch1]": 613,
  "[Branch2][Ring1][Branch1][C][C]": 784,
  "[Branch2][Ring1][Branch2]": 10898,
  "[Branch2][Ring1][N]": 3545,
  "[Branch2][Ring1][O]": 3789,
  "[Branch2][Ring1][P]": 5720,
  "[Branch2][Ring1][Ring1]": 17250,
  "[Branch2][Ring1][Ring1][N][C][=Branch1][C][=O]": 617,
  "[Branch2][Ring1][Ring2]": 18409,
  "[Branch2][Ring1][Ring2][N][C][=Branch1][C][=O]": 639,
  "[Branch2][Ring1][S]": 4483,
  "[Branch2][Ring2]": 341801,
  "[Branch2][Ring2][#Branch1]": 10562,
  "[Branch2][Ring2][#Branch1][N][C][=Branch1][C][=O]": 748,
  "[Branch2][Ring2][#Branch2]": 7062,
  "[Branch2][Ring2][#Branch2][N][C][=Branch1][C][=O]": 640,
  "[Branch2][Ring2][#C]": 3679,
  "[Branch2][Ring2][=Branch1]": 7069,
  "[Branch2][Ring2][=Branch1][C]": 876,
  "[Branch2][Ring2][=Branch1][N][C][=Branch1][C][=O]": 894,
  "[Branch2][Ring2][=Branch2]": 7379,
  "[Branch2][Ring2][=Branch2][N][C][=Branch1][C][=O]": 732,
  "[Branch2][Ring2][=C]": 3424,
  "[Branch2][Ring2][=N]": 4007,
  "[Branch2][Ring2][Branch1]": 5607,
  "[Branch2][Ring2][Branch1][C]": 702,
  "[Branch2][Ring2][Branch1][N][C][=Branch1][C][=O]": 537,
  "[Branch2][Ring2][Branch2]": 10053,
  "[Branch2][Ring2][Branch2][N][C][=Branch1][C][=O]": 896,
  "[Branch2][Ring2][C][N][C][=Branch1][C][=O]": 641,
  "[Branch2][Ring2][N]": 1210,
  "[Branch2][Ring2][O]": 796,
  "[Branch2][Ring2][P]": 3164,
  "[Branch2][Ring2][Ring1]": 36743,
  "[Branch2][Ring2][Ring1][C][=Branch1][C][=O]": 957,
  "[Branch2][Ring2][Ring1][N][C][=Branch1][C][=O]": 1913,
  "[Branch2][Ring2][Ring2]": 26784,
  "[Branch2][Ring2][Ring2][N][C][=Branch1][C][=O]": 1557,
  "[Branch2][Ring2][S]": 3426,
  "[Branch2][S][=Branch1][C][=O][=Branch1][C][=O]": 1594,
  "[C+1]": 159,
  "[C-1]": 854,
  "[C-1][#N+1]": 789,
  "[C@@H1]": 653990,
  "[C@@H1][Branch1]": 125284,
  "[C@@H1][Branch1][#Branch1]": 1221,
  "[C@@H1][Branch1][#Branch1][C][C][Branch1][C][C]": 969,
  "[C@@H1][Branch1][#Branch2]": 1063,
  "[C@@H1][Branch1][#Branch2][C]": 4799,
  "[C@@H1][Branch1][#Branch2][O]": 620,
  "[C@@H1][Branch1][#C]": 3161,
  "[C@@H1][Branch1][=Branch1][C][=Branch1][C][=O][O]": 748,
  "[C@@H1][Branch1][=Branch2]": 3863,
  "[C@@H1][Branch1][=C]": 951,
  "[C@@H1][Branch1][=C][N][C][=Branch1][C][=O]": 1156,
  "[C@@H1][Branch1][=C][O][C][=Branch1][C][=O]": 1462,
  "[C@@H1][Branch1][=N][C][C][=C][C][=C]": 994,
  "[C@@H1][Branch1][Branch1]": 841,
  "[C@@H1][Branch1][Branch1][C]": 582,
  "[C@@H1][Branch1][Branch2]": 1237,
  "[C@@H1][Branch1][Branch2][N][C][=Branch1][C][=O]": 753,
  "[C@@H1][Branch1][C][C]": 34222,
  "[C@@H1][Branch1][C][C][C@@H1]": 747,
  "[C@@H1][Branch1][C][C][C@H1]": 694,
  "[C@@H1][Branch1][C][C][C]": 2097,
  "[C@@H1][Branch1][C][C][C][C]": 1412,
  "[C@@H1][Branch1][C][C][O]": 1479,
  "[C@@H1][Branch1][C][F]": 1105,
  "[C@@H1][Branch1][C][N]": 1305,
  "[C@@H1][Branch1][C][N][C]": 879,
  "[C@@H1][Branch1][C][O]": 14593,
  "[C@@H1][Branch1][C][O][C@@H1]": 5279,
  "[C@@H1][Branch1][C][O][C@@H1][Branch1][C][C]": 613,
  "[C@@H1][Branch1][C][O][C@H1]": 19452,
  "[C@@H1][Branch1][C][O][C@H1][Branch1]": 657,
  "[C@@H1][Branch1][C][O][C@H1][Branch1][#Branch2][C]": 846,
  "[C@@H1][Branch1][C][O][C@H1][Branch1][C][O]": 638,
  "[C@@H1][Branch1][C][O][C@H1][Ring1][Branch2]": 1594,
  "[C@@H1][Branch1][C][O][C@H1][Ring1][Branch2][O]": 1971,
  "[C@@H1][Branch1][C][O][C@]": 1280,
  "[C@@H1][Branch1][C][O][C]": 9604,
  "[C@@H1][Branch1][N][C][=C][C][=C]": 1361,
  "[C@@H1][Branch1][O][O][C]": 735,
  "[C@@H1][Branch1][P]": 2389,
  "[C@@H1][Branch1][Ring1][C][O]": 4854,
  "[C@@H1][Branch1][Ring1][C][O][O][Ring1][Branch2]": 1062,
  "[C@@H1][Branch1][Ring1][O][C]": 1084,
  "[C@@H1][Branch1][Ring2]": 3040,
  "[C@@H1][Branch1][S]": 1734,
  "[C@@H1][Branch2][Ring1]": 33379,
  "[C@@H1][Branch2][Ring1][#Branch1]": 1730,
  "[C@@H1][Branch2][Ring1][#Branch2]": 940,
  "[C@@H1][Branch2][Ring1][#C]": 746,
  "[C@@H1][Branch2][Ring1][=Branch1]": 1217,
  "[C@@H1][Branch2][Ring1][=Branch2]": 1035,
  "[C@@H1][Branch2][Ring1][=C]": 566,
  "[C@@H1][Branch2][Ring1][=N]": 606,
  "[C@@H1][Branch2][Ring1][Branch1]": 3394,
  "[C@@H1][Branch2][Ring1][Branch1][O][C@@H1][O][C@H1]": 1421,
  "[C@@H1][Branch2][Ring1][Branch2]": 1548,
  "[C@@H1][Branch2][Ring1][P]": 810,
  "[C@@H1][Branch2][Ring1][Ring1]": 1219,
  "[C@@H1][Branch2][Ring1][Ring2]": 3028,
  "[C@@H1][Branch2][Ring1][S]": 614,
  "[C@@H1][Branch2][Ring2]": 1914,
  "[C@@H1][C@@H1]": 803,
  "[C@@H1][C@H1]": 608,
  "[C@@H1][C][=C]": 916,
  "[C@@H1][C][C@@H1]": 3256,
  "[C@@H1][C][C@H1]": 3813,
  "[C@@H1][C][C@H1][Branch1]": 582,
  "[C@@H1][C][C@H1][Ring1][Ring1]": 838,
  "[C@@H1][C][C]": 4090,
  "[C@@H1][C][C][C@@H1]": 1027,
  "[C@@H1][C][C][C@H1]": 3892,
  "[C@@H1][C][C][C@H1][Ring1][Branch1][C]": 619,
  "[C@@H1][C][C][C][C]": 2389,
  "[C@@H1][C][C][C][N]": 5799,
  "[C@@H1][C][C][C][N][Ring1][Branch1]": 990,
  "[C@@H1][C][C][C][N][Ring1][Branch1][C]": 810,
  "[C@@H1][O]": 648,
  "[C@@H1][O][C@H1]": 2462,
  "[C@@H1][O][C@H1][Branch1]": 1458,
  "[C@@H1][O][C@H1][Branch1][Ring1][C][O]": 3808,
  "[C@@H1][Ring1]": 913,
  "[C@@H1][Ring1][#Branch1]": 4244,
  "[C@@H1][Ring1][#Branch2]": 4686,
  "[C@@H1][Ring1][#Branch2][C][C][C@][Ring1]": 1272,
  "[C@@H1][Ring1][#C]": 2814,
  "[C@@H1][Ring1][=Branch1]": 5981,
  "[C@@H1][Ring1][=Branch1][C]": 1348,
  "[C@@H1][Ring1][=Branch2]": 1980,
  "[C@@H1][Ring1][=C]": 1682,
  "[C@@H1][Ring1][=N]": 2775,
  "[C@@H1][Ring1][Branch1]": 1920,
  "[C@@H1][Ring1][Branch2]": 1938,
  "[C@@H1][Ring1][N]": 1189,
  "[C@@H1][Ring1][N][C][C]": 734,
  "[C@@H1][Ring1][O]": 1209,
  "[C@@H1][Ring1][O][C][C]": 1359,
  "[C@@H1][Ring1][P]": 1985,
  "[C@@H1][Ring1][S]": 1967,
  "[C@@H1][Ring2][Ring1]": 6276,
  "[C@@H1][Ring2][Ring1][#Branch1]": 1205,
  "[C@@H1][Ring2][Ring1][=Branch1]": 960,
  "[C@@H1][Ring2][Ring1][Branch2]": 688,
  "[C@@H1][Ring2][Ring1][Ring1]": 1423,
  "[C@@H1][Ring2][Ring1][Ring2]": 1483,
  "[C@@H1][Ring2][Ring2]": 3215,
  "[C@@]": 109292,
  "[C@@][Branch1]": 5464,
  "[C@@][Branch1][C][C]": 23221,
  "[C@@][Branch1][C][C][Branch1][Ring1][C][O]": 554,
  "[C@@][Branch1][C][C][C]": 2181,
  "[C@@][Branch1][C][C][C][C]": 8323,
  "[C@@][Branch1][C][C][C][C][C@H1]": 1714,
  "[C@@][Branch1][C][C][C][C][C@H1][Branch1]": 604,
  "[C@@][Branch1][C][O]": 5124,
  "[C@@][Branch1][C][O][C]": 791,
  "[C@@][Ring1]": 1294,
  "[C@@][Ring1][#Branch1]": 1070,
  "[C@@][Ring1][#Branch2]": 909,
  "[C@@][Ring1][#C]": 1898,
  "[C@@][Ring1][#C][Branch1][C][C][C@]": 639,
  "[C@@][Ring1][=Branch1]": 1481,
  "[C@@][Ring1][=Branch2]": 788,
  "[C@@][Ring1][=C]": 615,
  "[C@@][Ring1][=N]": 2163,
  "[C@@][Ring1][=N][Ring1][#Branch1]": 950,
  "[C@@][Ring1][Branch2]": 644,
  "[C@@][Ring1][O]": 855,
  "[C@@][Ring1][P]": 823,
  "[C@@][Ring1][S]": 1203,
  "[C@@][Ring2][Ring1]": 1361,
  "[C@H1]": 702320,
  "[C@H1][Branch1]": 146565,
  "[C@H1][Branch1][#Branch1]": 1621,
  "[C@H1][Branch1][#Branch1][C][C][Branch1][C][C]": 2510,
  "[C@H1][Branch1][#Branch2]": 1149,
  "[C@H1][Branch1][#Branch2][C]": 9620,
  "[C@H1][Branch1][#Branch2][C][C][C][N]": 677,
  "[C@H1][Branch1][#C]": 2415,
  "[C@H1][Branch1][#C][C][C][=C][NH1]": 888,
  "[C@H1][Branch1][=Branch1][C][=Branch1][C][=O][O]": 695,
  "[C@H1][Branch1][=Branch1][C][Branch1][C][C]": 572,
  "[C@H1][Branch1][=Branch1][C][C][C][C]": 686,
  "[C@H1][Branch1][=Branch2]": 3861,
  "[C@H1][Branch1][=C]": 936,
  "[C@H1][Branch1][=C][N][C][=Branch1][C][=O]": 731,
  "[C@H1][Branch1][=C][O][C][=Branch1][C][=O]": 1507,
  "[C@H1][Branch1][=N]": 553,
  "[C@H1][Branch1][=N][C][C][=C][C][=C]": 1112,
  "[C@H1][Branch1][Branch2]": 1549,
  "[C@H1][Branch1][C][C]": 29311,
  "[C@H1][Branch1][C][C][C@H1]": 1071,
  "[C@H1][Branch1][C][C][C]": 3704,
  "[C@H1][Branch1][C][C][C][C]": 4489,
  "[C@H1][Branch1][C][C][C][C][C@@H1]": 625,
  "[C@H1][Branch1][C][C][C][C][C@][Branch1]": 841,
  "[C@H1][Branch1][C][C][O]": 685,
  "[C@H1][Branch1][C][F]": 1018,
  "[C@H1][Branch1][C][N]": 1222,
  "[C@H1][Branch1][C][N][C][=Branch1][C][=O]": 718,
  "[C@H1][Branch1][C][O]": 13130,
  "[C@H1][Branch1][C][O][C@@H1]": 10288,
  "[C@H1][Branch1][C][O][C@@H1][Branch1][C][C]": 630,
  "[C@H1][Branch1][C][O][C@@H1][Branch1][C][O]": 747,
  "[C@H1][Branch1][C][O][C@@H1][Ring1][S][O]": 819,
  "[C@H1][Branch1][C][O][C@H1]": 5899,
  "[C@H1][Branch1][C][O][C@H1][Branch1][#Branch2][C]": 627,
  "[C@H1][Branch1][C][O][C]": 11031,
  "[C@H1][Branch1][C][O][C][C@@H1]": 769,
  "[C@H1][Branch1][N][C][=C][C][=C]": 1079,
  "[C@H1][Branch1][N][C][=C][C][=C][C]": 670,
  "[C@H1][Branch1][O][O][C]": 706,
  "[C@H1][Branch1][P]": 2538,
  "[C@H1][Branch1][Ring1][C][O]": 4575,
  "[C@H1][Branch1][Ring1][O][C]": 1139,
  "[C@H1][Branch1][Ring2]": 2002,
  "[C@H1][Branch1][S]": 2889,
  "[C@H1][Branch2][Ring1]": 27381,
  "[C@H1][Branch2][Ring1][#Branch1]": 1386,
  "[C@H1][Branch2][Ring1][#Branch2]": 946,
  "[C@H1][Branch2][Ring1][#C]": 608,
  "[C@H1][Branch2][Ring1][=Branch1]": 973,
  "[C@H1][Branch2][Ring1][=Branch2]": 1039,
  "[C@H1][Branch2][Ring1][Branch1]": 1127,
  "[C@H1][Branch2][Ring1][Branch2]": 1375,
  "[C@H1][Branch2][Ring1][P]": 1270,
  "[C@H1][Branch2][Ring1][Ring1]": 1320,
  "[C@H1][Branch2][Ring1][Ring2]": 2483,
  "[C@H1][Branch2][Ring1][S]": 645,
  "[C@H1][Branch2][Ring2]": 4415,
  "[C@H1][C@@H1]": 656,
  "[C@H1][C@H1]": 792,
  "[C@H1][C][C@@H1]": 3770,
  "[C@H1][C][C@@H1][Branch1]": 820,
  "[C@H1][C][C@@H1][Ring1][Ring1]": 846,
  "[C@H1][C][C@H1]": 2609,
  "[C@H1][C][C@H1][Branch1]": 1077,
  "[C@H1][C][C@H1][Branch1][C][O]": 1366,
  "[C@H1][C][C]": 1303,
  "[C@H1][C][C][C@@H1]": 1235,
  "[C@H1][C][C][C@H1]": 7018,
  "[C@H1][C][C][C@H1][Branch1]": 1641,
  "[C@H1][C][C][C@H1][C@@H1]": 1787,
  "[C@H1][C][C][C][C]": 1852,
  "[C@H1][C][C][C][N]": 2335,
  "[C@H1][C][N]": 1209,
  "[C@H1][C][N][C][C]": 770,
  "[C@H1][C][O][C][=Branch1][C][=O][C@H1]": 566,
  "[C@H1][O]": 552,
  "[C@H1][O][C@@H1]": 1810,
  "[C@H1][O][C][=Branch1][C][=O]": 932,
  "[C@H1][Ring1][#Branch1]": 3477,
  "[C@H1][Ring1][#Branch2]": 5518,
  "[C@H1][Ring1][#Branch2][O][C@][Branch1][C][C]": 1094,
  "[C@H1][Ring1][#C]": 2575,
  "[C@H1][Ring1][#C][C][C@@][Ring1][#C]": 703,
  "[C@H1][Ring1][=Branch1]": 4773,
  "[C@H1][Ring1][=Branch1][C]": 1648,
  "[C@H1][Ring1][=Branch1][C][=Branch1][C][=O]": 1491,
  "[C@H1][Ring1][=Branch2]": 2836,
  "[C@H1][Ring1][=C]": 2145,
  "[C@H1][Ring1][=N]": 2287,
  "[C@H1][Ring1][Branch1]": 1431,
  "[C@H1][Ring1][Branch2]": 2696,
  "[C@H1][Ring1][Branch2][C][=C][C][C@@H1]": 593,
  "[C@H1][Ring1][N]": 1904,
  "[C@H1][Ring1][O]": 1760,
  "[C@H1][Ring1][P]": 1725,
  "[C@H1][Ring1][S]": 1449,
  "[C@H1][Ring2][Ring1]": 5239,
  "[C@H1][Ring2][Ring1][#Branch1]": 1320,
  "[C@H1][Ring2][Ring1][=Branch1]": 756,
  "[C@H1][Ring2][Ring1][=Branch2]": 669,
  "[C@H1][Ring2][Ring1][Branch1]": 769,
  "[C@H1][Ring2][Ring1][Branch2]": 762,
  "[C@H1][Ring2][Ring1][Ring1]": 1156,
  "[C@H1][Ring2][Ring1][Ring2]": 1242,
  "[C@H1][Ring2][Ring2]": 989,
  "[C@]": 135242,
  "[C@][Branch1]": 8035,
  "[C@][Branch1][=Branch2]": 682,
  "[C@][Branch1][C][C]": 19420,
  "[C@][Branch1][C][C][Branch1]": 615,
  "[C@][Branch1][C][C][Branch1][C][O]": 706,
  "[C@][Branch1][C][C][C@@H1][Branch1]": 554,
  "[C@][Branch1][C][C][C@H1]": 1088,
  "[C@][Branch1][C][C][C]": 3240,
  "[C@][Branch1][C][C][C][=Branch2]": 1395,
  "[C@][Branch1][C][C][C][C]": 1798,
  "[C@][Branch1][C][O]": 5126,
  "[C@][Branch1][C][O][Branch1][=Branch2]": 747,
  "[C@][Branch1][C][O][C]": 1405,
  "[C@][Branch1][Ring1][C][C]": 720,
  "[C@][Branch1][Ring2]": 588,
  "[C@][Branch2][Ring1]": 845,
  "[C@][C][C][C]": 752,
  "[C@][Ring1]": 1631,
  "[C@][Ring1][#Branch1]": 1926,
  "[C@][Ring1][#Branch2]": 1026,
  "[C@][Ring1][#C]": 1521,
  "[C@][Ring1][=Branch1]": 1064,
  "[C@][Ring1][=Branch2]": 1108,
  "[C@][Ring1][=N]": 739,
  "[C@][Ring1][Branch1]": 593,
  "[C@][Ring1][Branch2]": 1526,
  "[C@][Ring1][O]": 1097,
  "[C@][Ring1][P]": 781,
  "[C@][Ring1][S]": 1111,
  "[C@][Ring2][Ring1]": 1855,
  "[C@][Ring2][Ring1][Branch1]": 626,
  "[C@][Ring2][Ring1][Ring1]": 1526,
  "[C@][Ring2][Ring1][Ring1][Ring1][S][C]": 754,
  "[CH0]": 2,
  "[CH1-1]": 15,
  "[CH1]": 2,
  "[CH2]": 6,
  "[CH3]": 3,
  "[C]": 34128481,
  "[C][#C]": 12628,
  "[C][#C][C][N][C][=Branch1][C][=O]": 732,
  "[C][#N]": 4639,
  "[C][/C]": 1684,
  "[C][/C][=Branch2]": 4361,
  "[C][/C][=C]": 2923,
  "[C][/C][=C][/C]": 1501,
  "[C][/C][=C][/C][=Branch1][C][=O]": 1517,
  "[C][/C][=C][/C][=C]": 2153,
  "[C][/C][=C][Branch1][C][\\C]": 1229,
  "[C][/C][=C][\\C]": 1418,
  "[C][/C][Branch1][C][C][=C][/C]": 1404,
  "[C][=Branch1]": 5132,
  "[C][=Branch1][=Branch1]": 682,
  "[C][=Branch1][Branch1]": 753,
  "[C][=Branch1][C][=N]": 4348,
  "[C][=Branch1][C][=N][N]": 1361,
  "[C][=Branch1][C][=O]": 1404468,
  "[C][=Branch1][C][=O][/C]": 561,
  "[C][=Branch1][C][=O][/C][=C][/C][=C]": 1453,
  "[C][=Branch1][C][=O][C@@H1]": 1129,
  "[C][=Branch1][C][=O][C@@][Branch1][C][C]": 583,
  "[C][=Branch1][C][=O][C@H1]": 592,
  "[C][=Branch1][C][=O][C@H1][Branch1][C][C]": 1711,
  "[C][=Branch1][C][=O][C][=C]": 1422,
  "[C][=Branch1][C][=O][C][=C][C][=C]": 12923,
  "[C][=Branch1][C][=O][C][=C][C][Branch1]": 568,
  "[C][=Branch1][C][=O][C][=C][NH1]": 734,
  "[C][=Branch1][C][=O][C][=N]": 827,
  "[C][=Branch1][C][=O][C][=Ring1]": 2901,
  "[C][=Branch1][C][=O][C][=Ring1][#Branch1]": 661,
  "[C][=Branch1][C][=O][C][=Ring2]": 1364,
  "[C][=Branch1][C][=O][C][Branch1]": 3152,
  "[C][=Branch1][C][=O][C][Branch1][C][C]": 852,
  "[C][=Branch1][C][=O][C][C]": 1767,
  "[C][=Branch1][C][=O][C][C][C][C]": 737,
  "[C][=Branch1][C][=O][C][N]": 1075,
  "[C][=Branch1][C][=O][C][O]": 773,
  "[C][=Branch1][C][=O][C][S]": 1199,
  "[C][=Branch1][C][=O][C][S][C][=N]": 733,
  "[C][=Branch1][C][=O][NH1]": 13223,
  "[C][=Branch1][C][=O][NH1][Ring1][#Branch1]": 642,
  "[C][=Branch1][C][=O][N]": 197029,
  "[C][=Branch1][C][=O][N][Branch1]": 15535,
  "[C][=Branch1][C][=O][N][Branch1][#Branch2][C]": 1666,
  "[C][=Branch1][C][=O][N][Branch1][#C]": 702,
  "[C][=Branch1][C][=O][N][Branch1][=Branch2]": 2262,
  "[C][=Branch1][C][=O][N][Branch1][C][C]": 11277,
  "[C][=Branch1][C][=O][N][Branch1][P]": 648,
  "[C][=Branch1][C][=O][N][Branch2][Ring1]": 1305,
  "[C][=Branch1][C][=O][N][C@@H1]": 1363,
  "[C][=Branch1][C][=O][N][C@@H1][Branch1]": 12541,
  "[C][=Branch1][C][=O][N][C@H1]": 5194,
  "[C][=Branch1][C][=O][N][C@H1][Branch1]": 2975,
  "[C][=Branch1][C][=O][N][C]": 28941,
  "[C][=Branch1][C][=O][N][C][=N]": 6168,
  "[C][=Branch1][C][=O][N][C][Branch1]": 2119,
  "[C][=Branch1][C][=O][N][C][C]": 57950,
  "[C][=Branch1][C][=O][N][C][C][=N]": 598,
  "[C][=Branch1][C][=O][N][C][C][C]": 640,
  "[C][=Branch1][C][=O][N][C][C][O]": 656,
  "[C][=Branch1][C][=O][N][O]": 3984,
  "[C][=Branch1][C][=O][N][Ring1]": 17278,
  "[C][=Branch1][C][=O][N][Ring1][#Branch1]": 1750,
  "[C][=Branch1][C][=O][N][Ring1][#C]": 968,
  "[C][=Branch1][C][=O][N][Ring1][=Branch1]": 769,
  "[C][=Branch1][C][=O][N][Ring1][=Branch2]": 1351,
  "[C][=Branch1][C][=O][N][Ring1][=Branch2][C]": 933,
  "[C][=Branch1][C][=O][N][Ring1][=C]": 1054,
  "[C][=Branch1][C][=O][N][Ring1][Branch2]": 2333,
  "[C][=Branch1][C][=O][N][Ring1][Branch2][C]": 553,
  "[C][=Branch1][C][=O][N][Ring1][P]": 1051,
  "[C][=Branch1][C][=O][N][Ring2][Ring1]": 1041,
  "[C][=Branch1][C][=O][N][Ring2][Ring1][Ring1]": 612,
  "[C][=Branch1][C][=O][N][Ring2][Ring1][Ring2]": 555,
  "[C][=Branch1][C][=O][O-1]": 792,
  "[C][=Branch1][C][=O][O]": 54103,
  "[C][=Branch1][C][=O][O][=C]": 1429,
  "[C][=Branch1][C][=O][O][C@@H1]": 1563,
  "[C][=Branch1][C][=O][O][C@H1]": 2401,
  "[C][=Branch1][C][=O][O][C]": 31882,
  "[C][=Branch1][C][=O][O][C][C]": 11684,
  "[C][=Branch1][C][=O][O][C][Ring1][=Branch1]": 914,
  "[C][=Branch1][C][=O][O][C][Ring1][Branch2]": 618,
  "[C][=Branch1][C][=S]": 6577,
  "[C][=Branch1][C][=S][N]": 699,
  "[C][=Branch2]": 3131,
  "[C][=C]": 9818391,
  "[C][=C][Branch1]": 237838,
  "[C][=C][Branch1][#Branch1]": 8066,
  "[C][=C][Branch1][#Branch2]": 6403,
  "[C][=C][Branch1][#Branch2][C]": 1239,
  "[C][=C][Branch1][#Branch2][N]": 557,
  "[C][=C][Branch1][#C]": 7068,
  "[C][=C][Branch1][#C][C][=C][C][=C]": 744,
  "[C][=C][Branch1][=Branch1][C][=Branch1][C][=O]": 1511,
  "[C][=C][Branch1][=Branch2]": 27417,
  "[C][=C][Branch1][=Branch2][C]": 8487,
  "[C][=C][Branch1][=C]": 7231,
  "[C][=C][Branch1][=N]": 5979,
  "[C][=C][Branch1][=N][C][=C][C][=C]": 857,
  "[C][=C][Branch1][Branch1][C]": 1163,
  "[C][=C][Branch1][Branch2]": 10020,
  "[C][=C][Branch1][C][Br]": 6651,
  "[C][=C][Branch1][C][C]": 49770,
  "[C][=C][Branch1][C][C][C@@H1]": 2750,
  "[C][=C][Branch1][C][C][C]": 4101,
  "[C][=C][Branch1][C][C][NH1]": 2260,
  "[C][=C][Branch1][C][C][N][=C]": 859,
  "[C][=C][Branch1][C][C][O][N][=Ring1]": 1241,
  "[C][=C][Branch1][C][Cl]": 27254,
  "[C][=C][Branch1][C][F]": 20784,
  "[C][=C][Branch1][C][N]": 12365,
  "[C][=C][Branch1][C][N][N][=C]": 598,
  "[C][=C][Branch1][C][O]": 24935,
  "[C][=C][Branch1][C][O][C]": 4491,
  "[C][=C][Branch1][C][O][C][=C][Branch1]": 1068,
  "[C][=C][Branch1][C][O][C][Branch1]": 1554,
  "[C][=C][Branch1][C][O][N][=C]": 688,
  "[C][=C][Branch1][N][C][=C][C][=C]": 7080,
  "[C][=C][Branch1][N][NH1]": 1963,
  "[C][=C][Branch1][N][N][C][C]": 641,
  "[C][=C][Branch1][O]": 1673,
  "[C][=C][Branch1][P]": 8329,
  "[C][=C][Branch1][Ring1][C][#N]": 4221,
  "[C][=C][Branch1][Ring1][C][C]": 610,
  "[C][=C][Branch1][Ring1][C][O]": 650,
  "[C][=C][Branch1][Ring1][O][C]": 10836,
  "[C][=C][Branch1][Ring1][O][C][C]": 2712,
  "[C][=C][Branch1][Ring2]": 5214,
  "[C][=C][Branch1][Ring2][C][Ring1][Branch2]": 566,
  "[C][=C][Branch1][Ring2][S]": 1691,
  "[C][=C][Branch1][S]": 6544,
  "[C][=C][Branch2][Branch1]": 797,
  "[C][=C][Branch2][Ring1]": 75447,
  "[C][=C][Branch2][Ring1][#Branch1]": 4164,
  "[C][=C][Branch2][Ring1][#Branch2]": 3002,
  "[C][=C][Branch2][Ring1][#C]": 2384,
  "[C][=C][Branch2][Ring1][=Branch1]": 2928,
  "[C][=C][Branch2][Ring1][=Branch2]": 3000,
  "[C][=C][Branch2][Ring1][=C]": 1594,
  "[C][=C][Branch2][Ring1][=N]": 1677,
  "[C][=C][Branch2][Ring1][Branch1]": 3111,
  "[C][=C][Branch2][Ring1][Branch2]": 3281,
  "[C][=C][Branch2][Ring1][N]": 619,
  "[C][=C][Branch2][Ring1][O]": 696,
  "[C][=C][Branch2][Ring1][P]": 1850,
  "[C][=C][Branch2][Ring1][Ring1]": 7011,
  "[C][=C][Branch2][Ring1][Ring2]": 7050,
  "[C][=C][Branch2][Ring1][S]": 1334,
  "[C][=C][Branch2][Ring2]": 17159,
  "[C][=C][Branch2][Ring2][#Branch1]": 1077,
  "[C][=C][Branch2][Ring2][#Branch2]": 782,
  "[C][=C][Branch2][Ring2][=Branch1]": 798,
  "[C][=C][Branch2][Ring2][=Branch2]": 843,
  "[C][=C][Branch2][Ring2][Branch1]": 758,
  "[C][=C][Branch2][Ring2][Branch2]": 800,
  "[C][=C][Branch2][Ring2][Ring1]": 997,
  "[C][=C][Branch2][Ring2][Ring2]": 1062,
  "[C][=C][C@@H1]": 2976,
  "[C][=C][C@@H1][C][C@][Ring1][Ring1][Branch2]": 566,
  "[C][=C][C@@][Branch1][C][C]": 565,
  "[C][=C][C@H1]": 1095,
  "[C][=C][C@][Branch1][C][C][C]": 716,
  "[C][=C][C]": 338906,
  "[C][=C][C][=Branch1]": 10493,
  "[C][=C][C][=Branch1][#Branch1]": 715,
  "[C][=C][C][=Branch1][#C]": 738,
  "[C][=C][C][=Branch1][=Branch1]": 1912,
  "[C][=C][C][=Branch1][Branch1]": 1502,
  "[C][=C][C][=Branch1][Branch1][=C][Ring1][#Branch1]": 822,
  "[C][=C][C][=Branch1][Branch2]": 947,
  "[C][=C][C][=Branch1][C][=O]": 19720,
  "[C][=C][C][=Branch1][C][=O][C][=C]": 641,
  "[C][=C][C][=Branch1][C][=O][C][Branch1]": 1060,
  "[C][=C][C][=Branch1][C][=O][NH1]": 3105,
  "[C][=C][C][=Branch1][C][=O][N]": 4093,
  "[C][=C][C][=Branch1][C][=O][O]": 1392,
  "[C][=C][C][=Branch1][C][=O][O][C@@H1]": 973,
  "[C][=C][C][=Branch1][C][=O][O][C@H1]": 564,
  "[C][=C][C][=Branch1][C][=O][O][C]": 1802,
  "[C][=C][C][=Branch1][N][=N]": 1654,
  "[C][=C][C][=Branch1][Ring2][=C][Ring1]": 946,
  "[C][=C][C][=Branch1][Ring2][=C][Ring1][=Branch1]": 813,
  "[C][=C][C][=Branch1][Ring2][=C][Ring1][Branch2]": 542,
  "[C][=C][C][=Branch1][Ring2][=N]": 1035,
  "[C][=C][C][=Branch1][Ring2][=N][Ring1][=Branch1]": 1620,
  "[C][=C][C][=Branch2]": 3091,
  "[C][=C][C][=C]": 3946039,
  "[C][=C][C][=C][Branch1]": 380094,
  "[C][=C][C][=C][Branch1][#Branch1]": 7481,
  "[C][=C][C][=C][Branch1][#Branch2]": 22535,
  "[C][=C][C][=C][Branch1][#Branch2][C]": 1236,
  "[C][=C][C][=C][Branch1][#Branch2][N]": 2032,
  "[C][=C][C][=C][Branch1][#Branch2][O]": 4828,
  "[C][=C][C][=C][Branch1][#Branch2][O][C]": 5839,
  "[C][=C][C][=C][Branch1][#C]": 10266,
  "[C][=C][C][=C][Branch1][=Branch1]": 815,
  "[C][=C][C][=C][Branch1][=Branch2]": 41737,
  "[C][=C][C][=C][Branch1][=Branch2][C]": 26681,
  "[C][=C][C][=C][Branch1][=C]": 7222,
  "[C][=C][C][=C][Branch1][=C][C][=N]": 929,
  "[C][=C][C][=C][Branch1][=N]": 8718,
  "[C][=C][C][=C][Branch1][Branch2]": 11993,
  "[C][=C][C][=C][Branch1][C][Br]": 3622,
  "[C][=C][C][=C][Branch1][C][C]": 2943,
  "[C][=C][C][=C][Branch1][C][C][C]": 2080,
  "[C][=C][C][=C][Branch1][C][Cl]": 22942,
  "[C][=C][C][=C][Branch1][C][F]": 8984,
  "[C][=C][C][=C][Branch1][C][O]": 1188,
  "[C][=C][C][=C][Branch1][C][O][C]": 3162,
  "[C][=C][C][=C][Branch1][N]": 1817,
  "[C][=C][C][=C][Branch1][O]": 1679,
  "[C][=C][C][=C][Branch1][O][C]": 560,
  "[C][=C][C][=C][Branch1][O][O]": 577,
  "[C][=C][C][=C][Branch1][O][O][C]": 3093,
  "[C][=C][C][=C][Branch1][P]": 8230,
  "[C][=C][C][=C][Branch1][Ring1][C][#N]": 1848,
  "[C][=C][C][=C][Branch1][Ring1][O][C]": 1781,
  "[C][=C][C][=C][Branch1][Ring2]": 3512,
  "[C][=C][C][=C][Branch1][S]": 7496,
  "[C][=C][C][=C][Branch2][Branch1]": 7278,
  "[C][=C][C][=C][Branch2][Branch1][Ring2]": 782,
  "[C][=C][C][=C][Branch2][Ring1]": 240709,
  "[C][=C][C][=C][Branch2][Ring1][#Branch1]": 8735,
  "[C][=C][C][=C][Branch2][Ring1][#Branch2]": 7338,
  "[C][=C][C][=C][Branch2][Ring1][#C]": 5050,
  "[C][=C][C][=C][Branch2][Ring1][=Branch1]": 5696,
  "[C][=C][C][=C][Branch2][Ring1][=Branch1][C]": 557,
  "[C][=C][C][=C][Branch2][Ring1][=Branch2]": 8395,
  "[C][=C][C][=C][Branch2][Ring1][=C]": 4530,
  "[C][=C][C][=C][Branch2][Ring1][=N]": 5577,
  "[C][=C][C][=C][Branch2][Ring1][Branch1]": 5626,
  "[C][=C][C][=C][Branch2][Ring1][Branch1][C]": 728,
  "[C][=C][C][=C][Branch2][Ring1][Branch2]": 8850,
  "[C][=C][C][=C][Branch2][Ring1][N]": 2650,
  "[C][=C][C][=C][Branch2][Ring1][O]": 1584,
  "[C][=C][C][=C][Branch2][Ring1][O][C]": 737,
  "[C][=C][C][=C][Branch2][Ring1][P]": 5319,
  "[C][=C][C][=C][Branch2][Ring1][Ring1]": 8159,
  "[C][=C][C][=C][Branch2][Ring1][Ring2]": 9542,
  "[C][=C][C][=C][Branch2][Ring1][S]": 3635,
  "[C][=C][C][=C][Branch2][Ring2]": 47881,
  "[C][=C][C][=C][Branch2][Ring2][#Branch1]": 3806,
  "[C][=C][C][=C][Branch2][Ring2][#Branch2]": 2631,
  "[C][=C][C][=C][Branch2][Ring2][#C]": 912,
  "[C][=C][C][=C][Branch2][Ring2][=Branch1]": 2551,
  "[C][=C][C][=C][Branch2][Ring2][=Branch2]": 2873,
  "[C][=C][C][=C][Branch2][Ring2][=C]": 1192,
  "[C][=C][C][=C][Branch2][Ring2][=N]": 1253,
  "[C][=C][C][=C][Branch2][Ring2][Branch1]": 2146,
  "[C][=C][C][=C][Branch2][Ring2][Branch2]": 3100,
  "[C][=C][C][=C][Branch2][Ring2][P]": 801,
  "[C][=C][C][=C][Branch2][Ring2][Ring1]": 3425,
  "[C][=C][C][=C][Branch2][Ring2][Ring2]": 5246,
  "[C][=C][C][=C][Branch2][Ring2][S]": 810,
  "[C][=C][C][=C][C]": 279580,
  "[C][=C][C][=C][C][=Branch1][=Branch1]": 2249,
  "[C][=C][C][=C][C][=C]": 2018,
  "[C][=C][C][=C][C][=C][Branch1]": 1791,
  "[C][=C][C][=C][C][=C][Branch1][=Branch2]": 651,
  "[C][=C][C][=C][C][=C][Branch2][Ring1]": 567,
  "[C][=C][C][=C][C][=C][C][=C]": 3066,
  "[C][=C][C][=C][C][=C][N][=C]": 577,
  "[C][=C][C][=C][C][=C][Ring1]": 908524,
  "[C][=C][C][=C][C][=C][Ring1][#Branch2]": 3199,
  "[C][=C][C][=C][C][=C][Ring1][=Branch1]": 654949,
  "[C][=C][C][=C][C][=C][Ring1][=Branch2]": 22657,
  "[C][=C][C][=C][C][=C][Ring2][Ring1]": 2237,
  "[C][=C][C][=C][C][=N]": 6578,
  "[C][=C][C][=C][C][=N][Ring1][=Branch1]": 21156,
  "[C][=C][C][=C][C][Branch1]": 71058,
  "[C][=C][C][=C][C][Branch1][#Branch1]": 816,
  "[C][=C][C][=C][C][Branch1][#Branch2]": 1634,
  "[C][=C][C][=C][C][Branch1][#Branch2][O]": 1376,
  "[C][=C][C][=C][C][Branch1][#C]": 1377,
  "[C][=C][C][=C][C][Branch1][=Branch2]": 5155,
  "[C][=C][C][=C][C][Branch1][=Branch2][C]": 12704,
  "[C][=C][C][=C][C][Branch1][=C]": 1510,
  "[C][=C][C][=C][C][Branch1][Branch2]": 1489,
  "[C][=C][C][=C][C][Branch1][C]": 710,
  "[C][=C][C][=C][C][Branch1][C][Br]": 902,
  "[C][=C][C][=C][C][Branch1][C][Cl]": 2019,
  "[C][=C][C][=C][C][Branch1][C][F]": 823,
  "[C][=C][C][=C][C][Branch1][C][O]": 739,
  "[C][=C][C][=C][C][Branch1][P]": 1307,
  "[C][=C][C][=C][C][Branch1][Ring1][O]": 5095,
  "[C][=C][C][=C][C][Branch1][S]": 1039,
  "[C][=C][C][=C][C][Branch2][Branch1]": 574,
  "[C][=C][C][=C][C][Branch2][Ring1]": 60568,
  "[C][=C][C][=C][C][Branch2][Ring1][#Branch1]": 2914,
  "[C][=C][C][=C][C][Branch2][Ring1][#Branch2]": 2529,
  "[C][=C][C][=C][C][Branch2][Ring1][#C]": 1864,
  "[C][=C][C][=C][C][Branch2][Ring1][=Branch1]": 1297,
  "[C][=C][C][=C][C][Branch2][Ring1][=Branch2]": 2516,
  "[C][=C][C][=C][C][Branch2][Ring1][=C]": 1515,
  "[C][=C][C][=C][C][Branch2][Ring1][=N]": 1512,
  "[C][=C][C][=C][C][Branch2][Ring1][Branch1]": 1351,
  "[C][=C][C][=C][C][Branch2][Ring1][Branch2]": 2606,
  "[C][=C][C][=C][C][Branch2][Ring1][N]": 654,
  "[C][=C][C][=C][C][Branch2][Ring1][P]": 1822,
  "[C][=C][C][=C][C][Branch2][Ring1][Ring1]": 2203,
  "[C][=C][C][=C][C][Branch2][Ring1][Ring2]": 4051,
  "[C][=C][C][=C][C][Branch2][Ring1][S]": 1425,
  "[C][=C][C][=C][C][Branch2][Ring2]": 8178,
  "[C][=C][C][=C][C][Branch2][Ring2][#Branch1]": 646,
  "[C][=C][C][=C][C][Branch2][Ring2][=Branch2]": 603,
  "[C][=C][C][=C][C][Branch2][Ring2][Branch1]": 595,
  "[C][=C][C][=C][C][Branch2][Ring2][Branch2]": 581,
  "[C][=C][C][=C][C][Branch2][Ring2][Ring1]": 617,
  "[C][=C][C][=C][C][Branch2][Ring2][Ring2]": 642,
  "[C][=C][C][=C][C][NH1]": 1466,
  "[C][=C][C][=C][C][Ring1][=Branch1]": 31579,
  "[C][=C][C][=C][N+1]": 717,
  "[C][=C][C][=C][NH1]": 9973,
  "[C][=C][C][=C][NH1][N][=C]": 702,
  "[C][=C][C][=C][NH1][Ring1][Branch1]": 1039,
  "[C][=C][C][=C][N][=C]": 6644,
  "[C][=C][C][=C][N][=C][Branch1]": 1048,
  "[C][=C][C][=C][N][=C][Branch1][=Branch2]": 568,
  "[C][=C][C][=C][N][=C][Ring1]": 6371,
  "[C][=C][C][=C][N][=C][Ring1][=Branch1]": 30609,
  "[C][=C][C][=C][N][Ring1]": 820,
  "[C][=C][C][=C][N][Ring1][Branch1]": 661,
  "[C][=C][C][=C][O]": 30784,
  "[C][=C][C][=C][O][Ring1][Branch1]": 21481,
  "[C][=C][C][=C][O][Ring1][Branch1][=N]": 881,
  "[C][=C][C][=C][O][Ring1][Branch1][C]": 3528,
  "[C][=C][C][=C][Ring1]": 1635,
  "[C][=C][C][=C][Ring1][#Branch1]": 30958,
  "[C][=C][C][=C][Ring1][#Branch1][C]": 855,
  "[C][=C][C][=C][Ring1][#Branch1][Cl]": 8682,
  "[C][=C][C][=C][Ring1][#Branch1][F]": 5751,
  "[C][=C][C][=C][Ring1][#Branch2]": 4711,
  "[C][=C][C][=C][Ring1][#Branch2][Ring1][=Branch1]": 2179,
  "[C][=C][C][=C][Ring1][#C]": 897,
  "[C][=C][C][=C][Ring1][=Branch1]": 44294,
  "[C][=C][C][=C][Ring1][=Branch1][C]": 7512,
  "[C][=C][C][=C][Ring1][=Branch1][Cl]": 1150,
  "[C][=C][C][=C][Ring1][=Branch1][F]": 716,
  "[C][=C][C][=C][Ring1][=Branch1][O]": 962,
  "[C][=C][C][=C][Ring1][=Branch1][O][C]": 1902,
  "[C][=C][C][=C][Ring1][=Branch1][Ring1][#Branch2]": 1644,
  "[C][=C][C][=C][Ring1][=Branch1][Ring1][=Branch2]": 1319,
  "[C][=C][C][=C][Ring1][=Branch2]": 2277,
  "[C][=C][C][=C][Ring1][=Branch2][C]": 643,
  "[C][=C][C][=C][Ring1][=Branch2][Ring1][=Branch1]": 620,
  "[C][=C][C][=C][Ring1][=N]": 1601,
  "[C][=C][C][=C][Ring1][=N][Ring1][=Branch2]": 646,
  "[C][=C][C][=C][Ring1][Branch2]": 4731,
  "[C][=C][C][=C][Ring1][Branch2][O][C]": 623,
  "[C][=C][C][=C][Ring1][N]": 564,
  "[C][=C][C][=C][Ring1][O]": 541,
  "[C][=C][C][=C][Ring1][P]": 868,
  "[C][=C][C][=C][Ring1][S]": 925,
  "[C][=C][C][=C][Ring2][Ring1]": 2156,
  "[C][=C][C][=C][S]": 6772,
  "[C][=C][C][=C][S][Ring1][Branch1]": 20270,
  "[C][=C][C][=C][S][Ring1][Branch1][=N]": 623,
  "[C][=C][C][=C][S][Ring1][Branch1][C]": 2529,
  "[C][=C][C][=N+1]": 3203,
  "[C][=C][C][=N]": 82058,
  "[C][=C][C][=N][C][=C][Ring1][=Branch1]": 23752,
  "[C][=C][C][=N][C][=N][Ring1][=Branch1]": 822,
  "[C][=C][C][=N][C][Branch1]": 930,
  "[C][=C][C][=N][C][Branch1][=Branch2]": 955,
  "[C][=C][C][=N][C][NH1]": 546,
  "[C][=C][C][=N][C][Ring1][=Branch1]": 664,
  "[C][=C][C][=N][N][Ring1][Branch1][C]": 584,
  "[C][=C][C][=N][Ring1][=Branch1]": 6686,
  "[C][=C][C][=N][Ring1][=Branch1][C]": 986,
  "[C][=C][C][=Ring1]": 1450,
  "[C][=C][C][=Ring1][Branch1]": 3405,
  "[C][=C][C][=Ring1][Branch1][C]": 1771,
  "[C][=C][C][Branch1]": 169512,
  "[C][=C][C][Branch1][#Branch2]": 3348,
  "[C][=C][C][Branch1][#Branch2][N]": 800,
  "[C][=C][C][Branch1][#Branch2][O]": 732,
  "[C][=C][C][Branch1][#C]": 3857,
  "[C][=C][C][Branch1][=Branch2]": 16924,
  "[C][=C][C][Branch1][=Branch2][C]": 16851,
  "[C][=C][C][Branch1][=C]": 2761,
  "[C][=C][C][Branch1][=N]": 2523,
  "[C][=C][C][Branch1][Branch2]": 2727,
  "[C][=C][C][Branch1][C]": 18909,
  "[C][=C][C][Branch1][C][Br]": 10645,
  "[C][=C][C][Branch1][C][Br][=C]": 2653,
  "[C][=C][C][Branch1][C][C]": 1488,
  "[C][=C][C][Branch1][C][C][=C]": 1362,
  "[C][=C][C][Branch1][C][C][=N]": 4458,
  "[C][=C][C][Branch1][C][Cl]": 45419,
  "[C][=C][C][Branch1][C][Cl][=C]": 14636,
  "[C][=C][C][Branch1][C][F]": 27073,
  "[C][=C][C][Branch1][C][F][=C]": 7843,
  "[C][=C][C][Branch1][C][F][=C][Branch1]": 1608,
  "[C][=C][C][Branch1][C][I]": 1149,
  "[C][=C][C][Branch1][C][N][=C]": 2150,
  "[C][=C][C][Branch1][C][N][=N]": 1630,
  "[C][=C][C][Branch1][C][O]": 23462,
  "[C][=C][C][Branch1][C][O][=C]": 3378,
  "[C][=C][C][Branch1][N]": 537,
  "[C][=C][C][Branch1][N][N][C][C]": 695,
  "[C][=C][C][Branch1][O][O][C]": 737,
  "[C][=C][C][Branch1][P]": 3217,
  "[C][=C][C][Branch1][Ring1][C][#N]": 669,
  "[C][=C][C][Branch1][Ring1][C][#N][=C]": 2253,
  "[C][=C][C][Branch1][Ring1][O]": 29500,
  "[C][=C][C][Branch1][Ring2]": 1971,
  "[C][=C][C][Branch1][S]": 4044,
  "[C][=C][C][Branch2][Branch1]": 1144,
  "[C][=C][C][Branch2][Ring1]": 79595,
  "[C][=C][C][Branch2][Ring1][#Branch1]": 3299,
  "[C][=C][C][Branch2][Ring1][#Branch2]": 2229,
  "[C][=C][C][Branch2][Ring1][#C]": 1145,
  "[C][=C][C][Branch2][Ring1][=Branch1]": 1953,
  "[C][=C][C][Branch2][Ring1][=Branch2]": 2388,
  "[C][=C][C][Branch2][Ring1][=C]": 1002,
  "[C][=C][C][Branch2][Ring1][=N]": 1282,
  "[C][=C][C][Branch2][Ring1][Branch1]": 2083,
  "[C][=C][C][Branch2][Ring1][Branch2]": 2850,
  "[C][=C][C][Branch2][Ring1][O]": 590,
  "[C][=C][C][Branch2][Ring1][P]": 1055,
  "[C][=C][C][Branch2][Ring1][Ring1]": 4355,
  "[C][=C][C][Branch2][Ring1][Ring2]": 5147,
  "[C][=C][C][Branch2][Ring1][S]": 985,
  "[C][=C][C][Branch2][Ring2]": 19971,
  "[C][=C][C][Branch2][Ring2][#Branch1]": 826,
  "[C][=C][C][Branch2][Ring2][#Branch2]": 716,
  "[C][=C][C][Branch2][Ring2][=Branch1]": 857,
  "[C][=C][C][Branch2][Ring2][=Branch2]": 838,
  "[C][=C][C][Branch2][Ring2][=C]": 537,
  "[C][=C][C][Branch2][Ring2][Branch1]": 591,
  "[C][=C][C][Branch2][Ring2][Branch2]": 795,
  "[C][=C][C][Branch2][Ring2][Ring1]": 1314,
  "[C][=C][C][Branch2][Ring2][Ring2]": 1112,
  "[C][=C][C][C@@H1]": 1663,
  "[C][=C][C][C@H1]": 895,
  "[C][=C][C][C][=Branch1][C][=O]": 1360,
  "[C][=C][C][C][Branch1]": 729,
  "[C][=C][C][C][C@@H1]": 835,
  "[C][=C][C][C][C@H1]": 728,
  "[C][=C][C][C][C][C]": 827,
  "[C][=C][C][C][C][C][Ring1][=Branch1]": 1292,
  "[C][=C][C][NH1]": 2256,
  "[C][=C][C][N]": 2977,
  "[C][=C][C][N][C][=Branch1][C][=O]": 1977,
  "[C][=C][C][N][C][C]": 1475,
  "[C][=C][C][O]": 1322,
  "[C][=C][C][O][C][=Branch1][C][=O]": 855,
  "[C][=C][C][Ring1]": 561,
  "[C][=C][C][Ring1][#Branch1]": 5116,
  "[C][=C][C][Ring1][#Branch1][=C][Ring1][O]": 1232,
  "[C][=C][C][Ring1][#Branch2]": 1488,
  "[C][=C][C][Ring1][=Branch1]": 11132,
  "[C][=C][C][Ring1][=Branch1][=C][Ring1][#Branch2]": 2919,
  "[C][=C][C][Ring1][=Branch1][=N]": 1676,
  "[C][=C][C][Ring1][=Branch1][=N][Ring1][#Branch2]": 646,
  "[C][=C][C][Ring1][=Branch1][=O]": 574,
  "[C][=C][C][Ring1][=Branch2]": 4786,
  "[C][=C][C][Ring1][=Branch2][=Ring1][Branch1]": 1167,
  "[C][=C][C][Ring1][Branch1]": 1002,
  "[C][=C][C][Ring1][Branch1][=C][Ring1][=Branch2]": 2889,
  "[C][=C][C][Ring1][Branch2]": 795,
  "[C][=C][C][Ring1][P]": 719,
  "[C][=C][C][Ring2][Ring1]": 1113,
  "[C][=C][N+1]": 1727,
  "[C][=C][N+1][=Branch2]": 586,
  "[C][=C][NH1]": 28639,
  "[C][=C][NH1][C][=N]": 3030,
  "[C][=C][NH1][C][=N][Ring1][Branch1]": 2746,
  "[C][=C][NH1][N][=C][Ring1][Branch1]": 635,
  "[C][=C][NH1][Ring1][Branch1]": 1349,
  "[C][=C][N]": 1726,
  "[C][=C][N][=C]": 61217,
  "[C][=C][N][=C][Branch1]": 8610,
  "[C][=C][N][=C][Branch1][#Branch2]": 641,
  "[C][=C][N][=C][Branch1][=Branch2]": 1446,
  "[C][=C][N][=C][Branch1][C][Cl]": 563,
  "[C][=C][N][=C][Branch1][C][N]": 749,
  "[C][=C][N][=C][Branch2][Ring1]": 1849,
  "[C][=C][N][=C][Branch2][Ring1][Ring2]": 631,
  "[C][=C][N][=C][C]": 1705,
  "[C][=C][N][=C][C][=C][Ring1][=Branch1]": 2229,
  "[C][=C][N][=C][C][=N][Ring1][=Branch1]": 3741,
  "[C][=C][N][=C][C][Branch2][Ring1]": 619,
  "[C][=C][N][=C][NH1]": 2986,
  "[C][=C][N][=C][N][=C][Ring1][=Branch1]": 2650,
  "[C][=C][N][=C][O][Ring1][Branch1]": 666,
  "[C][=C][N][=C][Ring1]": 618,
  "[C][=C][N][=C][Ring1][=Branch1]": 3916,
  "[C][=C][N][=C][S][Ring1][Branch1]": 582,
  "[C][=C][N][Branch1]": 16660,
  "[C][=C][N][Branch1][#Branch2][C]": 1178,
  "[C][=C][N][Branch1][#C]": 882,
  "[C][=C][N][Branch1][=Branch2]": 1732,
  "[C][=C][N][Branch1][C][C]": 2903,
  "[C][=C][N][Branch1][P]": 623,
  "[C][=C][N][Branch2][Ring1]": 4978,
  "[C][=C][N][Branch2][Ring1][Ring1]": 615,
  "[C][=C][N][Branch2][Ring2]": 1325,
  "[C][=C][N][C]": 1796,
  "[C][=C][N][N][=C][Branch1]": 611,
  "[C][=C][N][Ring1]": 1566,
  "[C][=C][N][Ring1][Branch1]": 1577,
  "[C][=C][N][Ring1][Branch1][C]": 1879,
  "[C][=C][N][Ring1][Branch1][C][C]": 1243,
  "[C][=C][N][Ring2][Ring1]": 657,
  "[C][=C][O]": 1308,
  "[C][=C][O][C]": 1271,
  "[C][=C][O][C][=Ring1][Branch1]": 647,
  "[C][=C][O][C][Branch1]": 562,
  "[C][=C][Ring1]": 1891398,
  "[C][=C][Ring1][#Branch1]": 363726,
  "[C][=C][Ring1][#Branch1][N][=C]": 589,
  "[C][=C][Ring1][#Branch2]": 81477,
  "[C][=C][Ring1][#Branch2][=C]": 858,
  "[C][=C][Ring1][#Branch2][=N]": 1200,
  "[C][=C][Ring1][#Branch2][C]": 4160,
  "[C][=C][Ring1][#Branch2][C][=Branch1][C][=O]": 972,
  "[C][=C][Ring1][#Branch2][C][=C][C][=C]": 995,
  "[C][=C][Ring1][#Branch2][C][=C][Ring1][S]": 1023,
  "[C][=C][Ring1][#Branch2][C][Ring1][=C]": 590,
  "[C][=C][Ring1][#Branch2][Cl]": 2591,
  "[C][=C][Ring1][#Branch2][F]": 1283,
  "[C][=C][Ring1][#Branch2][NH1][Ring1][=N]": 792,
  "[C][=C][Ring1][#Branch2][O]": 1167,
  "[C][=C][Ring1][#Branch2][O][C]": 1069,
  "[C][=C][Ring1][#Branch2][O][C][C]": 578,
  "[C][=C][Ring1][#Branch2][Ring1][#Branch1]": 4696,
  "[C][=C][Ring1][#Branch2][Ring1][=Branch1]": 1299,
  "[C][=C][Ring1][#C]": 39619,
  "[C][=C][Ring1][#C][Cl]": 920,
  "[C][=C][Ring1][#C][O][C]": 810,
  "[C][=C][Ring1][=Branch1]": 68105,
  "[C][=C][Ring1][=Branch1][C]": 10641,
  "[C][=C][Ring1][=Branch1][C][=Branch1][C][=O]": 2530,
  "[C][=C][Ring1][=Branch1][C][=N]": 1959,
  "[C][=C][Ring1][=Branch1][C][Branch1]": 1325,
  "[C][=C][Ring1][=Branch1][C][Ring1][=Branch2]": 694,
  "[C][=C][Ring1][=Branch1][NH1]": 548,
  "[C][=C][Ring1][=Branch1][N][=C][N][Ring1]": 736,
  "[C][=C][Ring1][=Branch1][O][C]": 983,
  "[C][=C][Ring1][=Branch2]": 63000,
  "[C][=C][Ring1][=Branch2][=N]": 720,
  "[C][=C][Ring1][=Branch2][C]": 4792,
  "[C][=C][Ring1][=Branch2][C][=Branch1][C][=O]": 1017,
  "[C][=C][Ring1][=Branch2][C][C][Ring1][#C]": 619,
  "[C][=C][Ring1][=Branch2][Cl]": 1250,
  "[C][=C][Ring1][=Branch2][F]": 570,
  "[C][=C][Ring1][=Branch2][O]": 686,
  "[C][=C][Ring1][=Branch2][O][C]": 714,
  "[C][=C][Ring1][=Branch2][O][Ring1][=C]": 630,
  "[C][=C][Ring1][=C]": 31200,
  "[C][=C][Ring1][=C][C]": 1274,
  "[C][=C][Ring1][=C][Cl]": 1045,
  "[C][=C][Ring1][=C][F]": 619,
  "[C][=C][Ring1][=C][O][C]": 575,
  "[C][=C][Ring1][=C][Ring1][#Branch2]": 1006,
  "[C][=C][Ring1][=N]": 33912,
  "[C][=C][Ring1][=N][C]": 952,
  "[C][=C][Ring1][=N][Cl]": 980,
  "[C][=C][Ring1][=N][O][C]": 553,
  "[C][=C][Ring1][Branch1]": 3999,
  "[C][=C][Ring1][Branch1][C]": 2466,
  "[C][=C][Ring1][Branch1][C][=Branch1][C][=O]": 1783,
  "[C][=C][Ring1][Branch1][C][C]": 758,
  "[C][=C][Ring1][Branch2]": 74440,
  "[C][=C][Ring1][Branch2][C]": 604,
  "[C][=C][Ring1][Branch2][C][=C][N][Branch1]": 779,
  "[C][=C][Ring1][Branch2][Cl]": 1476,
  "[C][=C][Ring1][Branch2][F]": 2049,
  "[C][=C][Ring1][Branch2][O]": 974,
  "[C][=C][Ring1][Branch2][O][C]": 1100,
  "[C][=C][Ring1][N]": 30621,
  "[C][=C][Ring1][N][=C]": 2617,
  "[C][=C][Ring1][N][=N]": 1427,
  "[C][=C][Ring1][N][C]": 3823,
  "[C][=C][Ring1][N][C][=Branch1][C][=O]": 1869,
  "[C][=C][Ring1][N][C][=C][C][=C]": 585,
  "[C][=C][Ring1][N][C][C]": 2248,
  "[C][=C][Ring1][N][Cl]": 652,
  "[C][=C][Ring1][N][O][C]": 678,
  "[C][=C][Ring1][N][Ring1][#Branch1]": 557,
  "[C][=C][Ring1][N][Ring1][Branch2]": 744,
  "[C][=C][Ring1][O]": 33309,
  "[C][=C][Ring1][O][=C]": 2284,
  "[C][=C][Ring1][O][C]": 3995,
  "[C][=C][Ring1][O][C][=Branch1][C][=O]": 1205,
  "[C][=C][Ring1][O][C][=C][C][=C]": 716,
  "[C][=C][Ring1][O][C][C]": 2153,
  "[C][=C][Ring1][O][Cl]": 1136,
  "[C][=C][Ring1][O][Ring1][#Branch1]": 5699,
  "[C][=C][Ring1][O][Ring1][Branch2]": 833,
  "[C][=C][Ring1][P]": 36450,
  "[C][=C][Ring1][P][Cl]": 1094,
  "[C][=C][Ring1][P][F]": 547,
  "[C][=C][Ring1][P][O][C]": 1110,
  "[C][=C][Ring1][S]": 36141,
  "[C][=C][Ring1][S][C]": 1175,
  "[C][=C][Ring1][S][Cl]": 979,
  "[C][=C][Ring1][S][F]": 697,
  "[C][=C][Ring1][S][O]": 583,
  "[C][=C][Ring1][S][O][C]": 816,
  "[C][=C][Ring2][Branch1]": 2423,
  "[C][=C][Ring2][Ring1]": 420823,
  "[C][=C][Ring2][Ring1][#Branch1]": 25760,
  "[C][=C][Ring2][Ring1][#Branch1][Cl]": 737,
  "[C][=C][Ring2][Ring1][#Branch1][O]": 550,
  "[C][=C][Ring2][Ring1][#Branch1][O][C]": 2640,
  "[C][=C][Ring2][Ring1][#Branch1][Ring1][=Branch1]": 716,
  "[C][=C][Ring2][Ring1][#Branch2]": 23692,
  "[C][=C][Ring2][Ring1][#Branch2][C]": 928,
  "[C][=C][Ring2][Ring1][#Branch2][Cl]": 701,
  "[C][=C][Ring2][Ring1][#Branch2][O][C]": 2496,
  "[C][=C][Ring2][Ring1][#C]": 14429,
  "[C][=C][Ring2][Ring1][#C][O][C]": 1363,
  "[C][=C][Ring2][Ring1][=Branch1]": 29460,
  "[C][=C][Ring2][Ring1][=Branch1][C]": 1514,
  "[C][=C][Ring2][Ring1][=Branch1][Cl]": 853,
  "[C][=C][Ring2][Ring1][=Branch1][F]": 647,
  "[C][=C][Ring2][Ring1][=Branch1][O][C]": 2564,
  "[C][=C][Ring2][Ring1][=Branch1][Ring1][=Branch1]": 705,
  "[C][=C][Ring2][Ring1][=Branch2]": 26698,
  "[C][=C][Ring2][Ring1][=Branch2][C]": 1125,
  "[C][=C][Ring2][Ring1][=Branch2][Cl]": 735,
  "[C][=C][Ring2][Ring1][=Branch2][O][C]": 2558,
  "[C][=C][Ring2][Ring1][=C]": 14754,
  "[C][=C][Ring2][Ring1][=C][C]": 679,
  "[C][=C][Ring2][Ring1][=C][O][C]": 1632,
  "[C][=C][Ring2][Ring1][=N]": 17243,
  "[C][=C][Ring2][Ring1][=N][C]": 687,
  "[C][=C][Ring2][Ring1][=N][O][C]": 1887,
  "[C][=C][Ring2][Ring1][Branch1]": 26287,
  "[C][=C][Ring2][Ring1][Branch1][C]": 1753,
  "[C][=C][Ring2][Ring1][Branch1][C][C]": 679,
  "[C][=C][Ring2][Ring1][Branch1][Cl]": 835,
  "[C][=C][Ring2][Ring1][Branch1][F]": 575,
  "[C][=C][Ring2][Ring1][Branch1][O]": 561,
  "[C][=C][Ring2][Ring1][Branch1][O][C]": 2346,
  "[C][=C][Ring2][Ring1][Branch1][Ring1][=Branch1]": 718,
  "[C][=C][Ring2][Ring1][Branch2]": 27951,
  "[C][=C][Ring2][Ring1][Branch2][C]": 691,
  "[C][=C][Ring2][Ring1][Branch2][Cl]": 811,
  "[C][=C][Ring2][Ring1][Branch2][F]": 563,
  "[C][=C][Ring2][Ring1][Branch2][O][C]": 2676,
  "[C][=C][Ring2][Ring1][C]": 16045,
  "[C][=C][Ring2][Ring1][C][C]": 1947,
  "[C][=C][Ring2][Ring1][C][Cl]": 882,
  "[C][=C][Ring2][Ring1][C][F]": 657,
  "[C][=C][Ring2][Ring1][C][N]": 901,
  "[C][=C][Ring2][Ring1][C][O]": 1295,
  "[C][=C][Ring2][Ring1][C][O][C]": 1290,
  "[C][=C][Ring2][Ring1][C][Ring1][=Branch1]": 575,
  "[C][=C][Ring2][Ring1][N]": 18507,
  "[C][=C][Ring2][Ring1][N][C]": 698,
  "[C][=C][Ring2][Ring1][N][Cl]": 595,
  "[C][=C][Ring2][Ring1][N][O][C]": 2124,
  "[C][=C][Ring2][Ring1][O]": 20783,
  "[C][=C][Ring2][Ring1][O][C]": 985,
  "[C][=C][Ring2][Ring1][O][O][C]": 2209,
  "[C][=C][Ring2][Ring1][P]": 9774,
  "[C][=C][Ring2][Ring1][P][O][C]": 837,
  "[C][=C][Ring2][Ring1][Ring1]": 25663,
  "[C][=C][Ring2][Ring1][Ring1][=C]": 542,
  "[C][=C][Ring2][Ring1][Ring1][C]": 1274,
  "[C][=C][Ring2][Ring1][Ring1][Cl]": 873,
  "[C][=C][Ring2][Ring1][Ring1][F]": 693,
  "[C][=C][Ring2][Ring1][Ring1][N]": 615,
  "[C][=C][Ring2][Ring1][Ring1][O]": 1257,
  "[C][=C][Ring2][Ring1][Ring1][O][C]": 1975,
  "[C][=C][Ring2][Ring1][Ring1][O][C][C]": 832,
  "[C][=C][Ring2][Ring1][Ring1][Ring1][=Branch1]": 1527,
  "[C][=C][Ring2][Ring1][Ring2]": 27263,
  "[C][=C][Ring2][Ring1][Ring2][C]": 550,
  "[C][=C][Ring2][Ring1][Ring2][Cl]": 738,
  "[C][=C][Ring2][Ring1][Ring2][F]": 563,
  "[C][=C][Ring2][Ring1][Ring2][O]": 592,
  "[C][=C][Ring2][Ring1][Ring2][O][C]": 2231,
  "[C][=C][Ring2][Ring1][Ring2][Ring1][=Branch1]": 590,
  "[C][=C][Ring2][Ring1][S]": 11439,
  "[C][=C][Ring2][Ring1][S][O][C]": 1109,
  "[C][=C][Ring2][Ring2]": 40710,
  "[C][=C][Ring2][Ring2][#Branch1]": 2964,
  "[C][=C][Ring2][Ring2][#Branch2]": 1509,
  "[C][=C][Ring2][Ring2][#C]": 807,
  "[C][=C][Ring2][Ring2][=Branch1]": 3852,
  "[C][=C][Ring2][Ring2][=Branch2]": 2439,
  "[C][=C][Ring2][Ring2][=C]": 803,
  "[C][=C][Ring2][Ring2][=N]": 981,
  "[C][=C][Ring2][Ring2][Branch1]": 4163,
  "[C][=C][Ring2][Ring2][Branch2]": 2415,
  "[C][=C][Ring2][Ring2][C]": 5506,
  "[C][=C][Ring2][Ring2][C][O][C]": 781,
  "[C][=C][Ring2][Ring2][N]": 806,
  "[C][=C][Ring2][Ring2][O]": 976,
  "[C][=C][Ring2][Ring2][P]": 606,
  "[C][=C][Ring2][Ring2][Ring1]": 6345,
  "[C][=C][Ring2][Ring2][Ring1][O][C]": 649,
  "[C][=C][Ring2][Ring2][Ring2]": 5152,
  "[C][=C][Ring2][Ring2][Ring2][O][C]": 542,
  "[C][=C][Ring2][Ring2][S]": 794,
  "[C][=C][S]": 17145,
  "[C][=C][S][C]": 2490,
  "[C][=C][S][C][=N]": 1660,
  "[C][=C][S][C][=N][Ring1][Branch1]": 765,
  "[C][=C][S][C][=Ring1][Branch1]": 1228,
  "[C][=C][S][C][Branch1][=Branch2]": 754,
  "[C][=C][S][C][Branch2][Ring1]": 845,
  "[C][=C][S][C][Ring1][Branch1]": 703,
  "[C][=C][S][N][=N][Ring1][Branch1]": 653,
  "[C][=C][S][Ring1][Branch1]": 7224,
  "[C][=C][S][Ring1][Branch1][C]": 1208,
  "[C][=N+1]": 758,
  "[C][=N]": 612434,
  "[C][=N][C][=C]": 2586,
  "[C][=N][C][=C][Branch1]": 1902,
  "[C][=N][C][=C][Branch1][=Branch2][C]": 540,
  "[C][=N][C][=C][C][=C]": 1864,
  "[C][=N][C][=C][C][=C][Ring1][=Branch1]": 2602,
  "[C][=N][C][=C][C][=N][Ring1][=Branch1]": 2933,
  "[C][=N][C][=C][C][Branch1]": 562,
  "[C][=N][C][=C][C][Branch1][=Branch2][C]": 560,
  "[C][=N][C][=C][N][=C][Ring1][=Branch1]": 657,
  "[C][=N][C][=C][Ring1][#Branch1]": 1089,
  "[C][=N][C][=C][Ring1][#Branch1][Cl]": 853,
  "[C][=N][C][=C][Ring1][=Branch1]": 2637,
  "[C][=N][C][=C][S][Ring1][Branch1]": 1451,
  "[C][=N][C][=N]": 7248,
  "[C][=N][C][=N][C][=C][Ring1][=Branch1]": 1036,
  "[C][=N][C][Branch1]": 27529,
  "[C][=N][C][Branch1][#Branch2]": 1507,
  "[C][=N][C][Branch1][#C]": 1288,
  "[C][=N][C][Branch1][=Branch2]": 3391,
  "[C][=N][C][Branch1][=Branch2][C]": 536,
  "[C][=N][C][Branch1][=C]": 1394,
  "[C][=N][C][Branch1][C]": 3154,
  "[C][=N][C][Branch1][P]": 1140,
  "[C][=N][C][Branch1][S]": 1198,
  "[C][=N][C][Branch2][Ring1]": 3173,
  "[C][=N][C][Branch2][Ring1][Ring1]": 574,
  "[C][=N][C][Branch2][Ring1][Ring2]": 754,
  "[C][=N][C][C][N][Ring1][Branch1]": 1196,
  "[C][=N][NH1]": 3123,
  "[C][=N][N][=C]": 2542,
  "[C][=N][N][=C][Branch1]": 3474,
  "[C][=N][N][=C][Branch2][Ring1]": 780,
  "[C][=N][N][=N][NH1][Ring1][Branch1]": 703,
  "[C][=N][N][Branch1][=Branch2]": 1271,
  "[C][=N][N][C][Branch1]": 541,
  "[C][=N][N][Ring1][Branch1]": 544,
  "[C][=N][N][Ring1][Branch1][C]": 883,
  "[C][=N][O]": 2923,
  "[C][=N][O][C]": 798,
  "[C][=N][O][C][Branch1]": 1350,
  "[C][=N][O][N][=C][Ring1][Branch1]": 977,
  "[C][=N][Ring1][#Branch1]": 6917,
  "[C][=N][Ring1][#Branch2]": 2748,
  "[C][=N][Ring1][#C]": 788,
  "[C][=N][Ring1][=Branch1]": 32571,
  "[C][=N][Ring1][=Branch1][C]": 2247,
  "[C][=N][Ring1][=Branch2]": 1409,
  "[C][=N][Ring1][=C]": 746,
  "[C][=N][Ring1][=N]": 840,
  "[C][=N][Ring1][Branch1]": 7898,
  "[C][=N][Ring1][Branch2]": 1171,
  "[C][=N][Ring1][P]": 603,
  "[C][=N][Ring1][S]": 1092,
  "[C][=N][Ring2][Ring1][#Branch1]": 1473,
  "[C][=N][Ring2][Ring1][#Branch2]": 680,
  "[C][=N][Ring2][Ring1][=Branch1]": 1205,
  "[C][=N][Ring2][Ring1][=Branch2]": 1155,
  "[C][=N][Ring2][Ring1][=N]": 624,
  "[C][=N][Ring2][Ring1][Branch1]": 866,
  "[C][=N][Ring2][Ring1][Branch2]": 1053,
  "[C][=N][Ring2][Ring1][N]": 651,
  "[C][=N][Ring2][Ring1][O]": 556,
  "[C][=N][Ring2][Ring1][Ring1]": 710,
  "[C][=N][Ring2][Ring1][Ring2]": 1051,
  "[C][=Ring1]": 42060,
  "[C][=Ring1][#Branch1]": 1316,
  "[C][=Ring1][#Branch2]": 3186,
  "[C][=Ring1][#C]": 980,
  "[C][=Ring1][=Branch2]": 2037,
  "[C][=Ring1][=C]": 1031,
  "[C][=Ring1][=N]": 1576,
  "[C][=Ring1][Branch1]": 2458,
  "[C][=Ring1][Branch1][C]": 2221,
  "[C][=Ring1][Branch1][C][=Branch1][C][=O]": 1602,
  "[C][=Ring1][Branch1][C][C]": 629,
  "[C][=Ring1][Branch2]": 1890,
  "[C][=Ring1][N]": 1076,
  "[C][=Ring1][O]": 768,
  "[C][=Ring1][P]": 979,
  "[C][=Ring1][S]": 643,
  "[C][=Ring2]": 13607,
  "[C][=Ring2][Ring1]": 737,
  "[C][=Ring2][Ring1][#Branch1]": 947,
  "[C][=Ring2][Ring1][Branch1]": 624,
  "[C][=Ring2][Ring1][Branch2]": 944,
  "[C][=Ring2][Ring1][Ring1]": 791,
  "[C][=Ring2][Ring1][Ring2]": 1178,
  "[C][Branch1]": 675015,
  "[C][Branch1][#Branch1]": 7361,
  "[C][Branch1][#Branch1][C][=Branch1][C][=O][O]": 633,
  "[C][Branch1][#Branch1][C][C][=Branch1][C][=O]": 891,
  "[C][Branch1][#Branch1][C][C][Branch1][C][C]": 1176,
  "[C][Branch1][#Branch1][C][C][C][C]": 848,
  "[C][Branch1][#Branch2]": 17670,
  "[C][Branch1][#Branch2][C]": 4567,
  "[C][Branch1][#Branch2][C][N][C][C]": 632,
  "[C][Branch1][#Branch2][N]": 2368,
  "[C][Branch1][#Branch2][N][C][C][C][C]": 937,
  "[C][Branch1][#Branch2][O]": 963,
  "[C][Branch1][#C]": 17534,
  "[C][Branch1][#C][C][=C][C][=C]": 1015,
  "[C][Branch1][#C][C][C][=C][NH1]": 582,
  "[C][Branch1][#C][N][C][=Branch1][C][=O]": 660,
  "[C][Branch1][=Branch1]": 1082,
  "[C][Branch1][=Branch1][C][=Branch1][C][=O][O]": 2285,
  "[C][Branch1][=Branch1][C][Branch1][C][C]": 1188,
  "[C][Branch1][=Branch1][C][Branch1][C][C][=O]": 559,
  "[C][Branch1][=Branch1][C][Branch1][C][N][=O]": 2416,
  "[C][Branch1][=Branch1][N+1][=Branch1][C][=O][O-1]": 6612,
  "[C][Branch1][=Branch1][N][Branch1][C][C]": 797,
  "[C][Branch1][=Branch2]": 63693,
  "[C][Branch1][=Branch2][C]": 16625,
  "[C][Branch1][=C]": 15097,
  "[C][Branch1][=C][C][=Branch1][C][=O][N]": 1824,
  "[C][Branch1][=C][C][=C][C][=C]": 592,
  "[C][Branch1][=C][C][=C][NH1]": 743,
  "[C][Branch1][=C][C][=N]": 636,
  "[C][Branch1][=C][N][C][=Branch1][C][=O]": 1604,
  "[C][Branch1][=N]": 20938,
  "[C][Branch1][=N][C][=Branch1][C][=O]": 1213,
  "[C][Branch1][=N][C][=Branch1][C][=O][N]": 768,
  "[C][Branch1][=N][C][=C][C][=C]": 1450,
  "[C][Branch1][=N][C][=C][C][=C][Branch1]": 1921,
  "[C][Branch1][=N][C][C][=C][C][=C]": 1422,
  "[C][Branch1][=N][N][C][=Branch1][C][=O]": 883,
  "[C][Branch1][=N][N][C][=C][C][=C]": 1931,
  "[C][Branch1][Branch1][C][C]": 729,
  "[C][Branch1][Branch1][C][C][Ring1][=Branch1]": 1638,
  "[C][Branch1][Branch1][C][C][Ring1][=Branch1][C]": 917,
  "[C][Branch1][Branch2]": 19486,
  "[C][Branch1][Branch2][N][C][C][C][C]": 606,
  "[C][Branch1][C]": 33472,
  "[C][Branch1][C][2H]": 719,
  "[C][Branch1][C][Br]": 3941,
  "[C][Branch1][C][Br][=C][Ring1][Branch2]": 659,
  "[C][Branch1][C][C]": 28798,
  "[C][Branch1][C][C][=C]": 759,
  "[C][Branch1][C][C][=C][Ring1][#Branch1]": 1404,
  "[C][Branch1][C][C][=C][Ring1][Branch2]": 1039,
  "[C][Branch1][C][C][=N]": 3147,
  "[C][Branch1][C][C][=O]": 1222,
  "[C][Branch1][C][C][Branch1][C][C]": 14546,
  "[C][Branch1][C][C][Branch1][C][C][C]": 3642,
  "[C][Branch1][C][C][Branch1][C][C][O]": 624,
  "[C][Branch1][C][C][C]": 5914,
  "[C][Branch1][C][C][C][C]": 1979,
  "[C][Branch1][C][C][C][C][Ring1][#Branch1]": 1811,
  "[C][Branch1][C][Cl]": 35733,
  "[C][Branch1][C][Cl][=C]": 1256,
  "[C][Branch1][C][Cl][=C][Branch1]": 812,
  "[C][Branch1][C][Cl][=C][Branch1][C][Cl]": 785,
  "[C][Branch1][C][Cl][=C][Ring1][#Branch1]": 1385,
  "[C][Branch1][C][Cl][=C][Ring1][=Branch2]": 609,
  "[C][Branch1][C][Cl][=C][Ring1][Branch2]": 20395,
  "[C][Branch1][C][Cl][=C][Ring1][S]": 659,
  "[C][Branch1][C][Cl][=N]": 971,
  "[C][Branch1][C][F]": 22661,
  "[C][Branch1][C][F][=C]": 829,
  "[C][Branch1][C][F][=C][Ring1][#Branch1]": 1157,
  "[C][Branch1][C][F][=C][Ring1][Branch2]": 7536,
  "[C][Branch1][C][F][=C][Ring1][Branch2][F]": 571,
  "[C][Branch1][C][F][=C][Ring1][N]": 598,
  "[C][Branch1][C][F][Branch1][C][F]": 9269,
  "[C][Branch1][C][F][Branch1][C][F][F]": 12775,
  "[C][Branch1][C][F][F]": 910,
  "[C][Branch1][C][I]": 624,
  "[C][Branch1][C][N]": 4446,
  "[C][Branch1][C][N][=C]": 1068,
  "[C][Branch1][C][N][=C][Ring1][#Branch1]": 960,
  "[C][Branch1][C][N][=N]": 5100,
  "[C][Branch1][C][N][=N][C][Branch1][C]": 1288,
  "[C][Branch1][C][N][=N][Ring1][#Branch1]": 698,
  "[C][Branch1][C][N][=O]": 3358,
  "[C][Branch1][C][N][=S]": 824,
  "[C][Branch1][C][O]": 24467,
  "[C][Branch1][C][O][=C]": 2720,
  "[C][Branch1][C][O][=C][Branch1]": 1229,
  "[C][Branch1][C][O][=C][Ring1][Branch2]": 854,
  "[C][Branch1][C][O][=N]": 1169,
  "[C][Branch1][C][O][Branch1][=Branch2]": 1433,
  "[C][Branch1][C][O][Branch1][=Branch2][C]": 1108,
  "[C][Branch1][C][O][C]": 1997,
  "[C][Branch1][C][O][C][C][Ring1][#Branch1]": 1086,
  "[C][Branch1][C][S]": 1271,
  "[C][Branch1][C][S][=N]": 772,
  "[C][Branch1][N]": 1248,
  "[C][Branch1][N][C][=C][C][=C]": 14664,
  "[C][Branch1][N][C][=C][C][=C][C]": 2285,
  "[C][Branch1][N][N][C][C]": 1384,
  "[C][Branch1][O]": 1073,
  "[C][Branch1][O][C][C]": 7593,
  "[C][Branch1][O][N][C]": 715,
  "[C][Branch1][O][O][C]": 670,
  "[C][Branch1][P]": 15681,
  "[C][Branch1][P][C][=Branch1][C][=O][N]": 1046,
  "[C][Branch1][P][N][C][=Branch1][C][=O]": 1418,
  "[C][Branch1][Ring1]": 1370,
  "[C][Branch1][Ring1][C][#N]": 5327,
  "[C][Branch1][Ring1][C][#N][=C]": 965,
  "[C][Branch1][Ring1][C][#N][=C][Ring1][Branch2]": 1090,
  "[C][Branch1][Ring1][C][O]": 2269,
  "[C][Branch1][Ring1][O]": 15561,
  "[C][Branch1][Ring1][O][C]": 945,
  "[C][Branch1][Ring1][O][C][=C][Ring1][Branch2]": 3121,
  "[C][Branch1][Ring2]": 5414,
  "[C][Branch1][S]": 16635,
  "[C][Branch1][S][C][=C][C][=C][Branch1]": 1533,
  "[C][Branch1][S][C][=C][C][=C][C]": 834,
  "[C][Branch2][Branch1]": 1077,
  "[C][Branch2][Ring1]": 122152,
  "[C][Branch2][Ring1][#Branch1]": 8742,
  "[C][Branch2][Ring1][#Branch2]": 6030,
  "[C][Branch2][Ring1][#C]": 3698,
  "[C][Branch2][Ring1][=Branch1]": 7475,
  "[C][Branch2][Ring1][=Branch2]": 6622,
  "[C][Branch2][Ring1][=C]": 2622,
  "[C][Branch2][Ring1][=N]": 2773,
  "[C][Branch2][Ring1][Branch1]": 6403,
  "[C][Branch2][Ring1][Branch2]": 8010,
  "[C][Branch2][Ring1][C][N]": 1076,
  "[C][Branch2][Ring1][N]": 1355,
  "[C][Branch2][Ring1][O]": 1427,
  "[C][Branch2][Ring1][P]": 2558,
  "[C][Branch2][Ring1][Ring1]": 11083,
  "[C][Branch2][Ring1][Ring2]": 12674,
  "[C][Branch2][Ring1][S]": 2309,
  "[C][Branch2][Ring2]": 16969,
  "[C][Branch2][Ring2][#Branch1]": 1164,
  "[C][Branch2][Ring2][#Branch2]": 719,
  "[C][Branch2][Ring2][=Branch1]": 933,
  "[C][Branch2][Ring2][=Branch2]": 1053,
  "[C][Branch2][Ring2][Branch1]": 769,
  "[C][Branch2][Ring2][Branch2]": 1012,
  "[C][Branch2][Ring2][Ring1]": 1394,
  "[C][Branch2][Ring2][Ring2]": 1360,
  "[C][C@@H1]": 66183,
  "[C][C@@H1][Branch1]": 9992,
  "[C][C@@H1][Branch1][=Branch2]": 574,
  "[C][C@@H1][Branch1][Branch2]": 559,
  "[C][C@@H1][Branch1][C][C]": 1401,
  "[C][C@@H1][Branch1][C][N]": 854,
  "[C][C@@H1][Branch1][C][O]": 2807,
  "[C][C@@H1][Branch1][C][O][C@@H1]": 586,
  "[C][C@@H1][Branch1][C][O][C@H1]": 1833,
  "[C][C@@H1][Branch1][C][O][C]": 1520,
  "[C][C@@H1][Branch2][Ring1]": 1218,
  "[C][C@@H1][Branch2][Ring2]": 625,
  "[C][C@@H1][C][C][C@H1]": 1006,
  "[C][C@@H1][C][N]": 636,
  "[C][C@@H1][O][C@@H1]": 708,
  "[C][C@@H1][Ring1][=C]": 658,
  "[C][C@@H1][Ring1][Ring1]": 1812,
  "[C][C@@H1][Ring2][Ring1]": 751,
  "[C][C@@]": 10135,
  "[C][C@@][Branch1][C][C]": 3170,
  "[C][C@@][Branch1][C][O]": 1426,
  "[C][C@@][Ring1][#C]": 770,
  "[C][C@@][Ring1][Ring1]": 585,
  "[C][C@H1]": 68571,
  "[C][C@H1][Branch1]": 13932,
  "[C][C@H1][Branch1][#C]": 540,
  "[C][C@H1][Branch1][=Branch2]": 811,
  "[C][C@H1][Branch1][C][C]": 1283,
  "[C][C@H1][Branch1][C][N]": 951,
  "[C][C@H1][Branch1][C][O]": 5804,
  "[C][C@H1][Branch1][C][O][C@@H1]": 667,
  "[C][C@H1][Branch1][C][O][C]": 1237,
  "[C][C@H1][Branch1][Ring1][C][O]": 1831,
  "[C][C@H1][Branch2][Ring1]": 1677,
  "[C][C@H1][Branch2][Ring2]": 860,
  "[C][C@H1][C][C][C@H1]": 668,
  "[C][C@H1][O][C@@H1]": 569,
  "[C][C@H1][Ring1][Branch1][C]": 1086,
  "[C][C@H1][Ring1][Branch1][C][=Branch1][C][=O]": 1690,
  "[C][C@H1][Ring1][Ring1]": 971,
  "[C][C@]": 12591,
  "[C][C@][Branch1][C][C]": 1813,
  "[C][C@][Branch1][C][O]": 966,
  "[C][C@][C][C][C@@H1]": 972,
  "[C][C@][C][C][C@H1]": 1149,
  "[C][C@][Ring1]": 832,
  "[C][C@][Ring1][Ring1]": 592,
  "[C][C@][Ring1][Ring1][Branch2]": 595,
  "[C][C]": 7392336,
  "[C][C][#C]": 2888,
  "[C][C][#N]": 801,
  "[C][C][/C][=C][Branch1][C][\\C]": 1057,
  "[C][C][=Branch1][C][=O]": 211700,
  "[C][C][=Branch1][C][=O][C][=N]": 633,
  "[C][C][=Branch1][C][=O][NH1]": 2138,
  "[C][C][=Branch1][C][=O][N]": 45503,
  "[C][C][=Branch1][C][=O][N][Branch1]": 852,
  "[C][C][=Branch1][C][=O][N][Branch1][=Branch2]": 594,
  "[C][C][=Branch1][C][=O][N][Branch2][Ring1]": 672,
  "[C][C][=Branch1][C][=O][N][C@@H1]": 904,
  "[C][C][=Branch1][C][=O][N][C@@H1][Branch1]": 2940,
  "[C][C][=Branch1][C][=O][N][C@H1]": 1944,
  "[C][C][=Branch1][C][=O][N][C]": 14754,
  "[C][C][=Branch1][C][=O][N][C][=N]": 2356,
  "[C][C][=Branch1][C][=O][N][C][C@H1]": 747,
  "[C][C][=Branch1][C][=O][N][C][C]": 19197,
  "[C][C][=Branch1][C][=O][N][O]": 662,
  "[C][C][=Branch1][C][=O][N][Ring1][#Branch1]": 547,
  "[C][C][=Branch1][C][=O][O-1]": 862,
  "[C][C][=Branch1][C][=O][O]": 18495,
  "[C][C][=Branch1][C][=O][O][C@@H1]": 2350,
  "[C][C][=Branch1][C][=O][O][C@H1]": 3633,
  "[C][C][=Branch1][C][=O][O][C]": 8779,
  "[C][C][=Branch1][C][=O][O][C][C]": 3126,
  "[C][C][=Branch2]": 752,
  "[C][C][=C]": 109763,
  "[C][C][=C][Branch1]": 16936,
  "[C][C][=C][Branch1][#C]": 948,
  "[C][C][=C][Branch1][=Branch2]": 1714,
  "[C][C][=C][Branch1][=C]": 855,
  "[C][C][=C][Branch1][C][C]": 5916,
  "[C][C][=C][Branch1][C][C][C]": 1057,
  "[C][C][=C][Branch1][C][Cl]": 3236,
  "[C][C][=C][Branch1][C][F]": 2985,
  "[C][C][=C][Branch1][C][O]": 1975,
  "[C][C][=C][Branch1][N][NH1]": 988,
  "[C][C][=C][Branch1][P]": 896,
  "[C][C][=C][Branch2][Ring1]": 4152,
  "[C][C][=C][Branch2][Ring1][#Branch1]": 693,
  "[C][C][=C][Branch2][Ring1][=Branch2]": 653,
  "[C][C][=C][Branch2][Ring1][Branch2]": 791,
  "[C][C][=C][Branch2][Ring1][Ring1]": 1037,
  "[C][C][=C][Branch2][Ring1][Ring2]": 860,
  "[C][C][=C][Branch2][Ring2]": 681,
  "[C][C][=C][C@@H1]": 953,
  "[C][C][=C][C]": 30672,
  "[C][C][=C][C][=Branch1][C][=O]": 2343,
  "[C][C][=C][C][=Branch1][C][=O][N]": 906,
  "[C][C][=C][C][=Branch1][C][=O][O]": 1803,
  "[C][C][=C][C][=C]": 116607,
  "[C][C][=C][C][=C][Branch1]": 21196,
  "[C][C][=C][C][=C][Branch1][#C]": 665,
  "[C][C][=C][C][=C][Branch1][=Branch2]": 4170,
  "[C][C][=C][C][=C][Branch1][=Branch2][C]": 1955,
  "[C][C][=C][C][=C][Branch1][=N]": 572,
  "[C][C][=C][C][=C][Branch1][Branch2]": 2691,
  "[C][C][=C][C][=C][Branch1][C][C]": 609,
  "[C][C][=C][C][=C][Branch1][C][Cl]": 1737,
  "[C][C][=C][C][=C][Branch1][C][F]": 1201,
  "[C][C][=C][C][=C][Branch1][P]": 831,
  "[C][C][=C][C][=C][Branch1][S]": 592,
  "[C][C][=C][C][=C][Branch2][Branch1]": 1775,
  "[C][C][=C][C][=C][Branch2][Ring1]": 35237,
  "[C][C][=C][C][=C][Branch2][Ring1][#Branch1]": 2674,
  "[C][C][=C][C][=C][Branch2][Ring1][#Branch2]": 1934,
  "[C][C][=C][C][=C][Branch2][Ring1][#C]": 1401,
  "[C][C][=C][C][=C][Branch2][Ring1][=Branch1]": 1502,
  "[C][C][=C][C][=C][Branch2][Ring1][=Branch2]": 1798,
  "[C][C][=C][C][=C][Branch2][Ring1][=C]": 1277,
  "[C][C][=C][C][=C][Branch2][Ring1][=N]": 1189,
  "[C][C][=C][C][=C][Branch2][Ring1][Branch1]": 621,
  "[C][C][=C][C][=C][Branch2][Ring1][Branch2]": 1261,
  "[C][C][=C][C][=C][Branch2][Ring1][P]": 1250,
  "[C][C][=C][C][=C][Branch2][Ring1][Ring1]": 1299,
  "[C][C][=C][C][=C][Branch2][Ring1][Ring2]": 1796,
  "[C][C][=C][C][=C][Branch2][Ring1][S]": 1138,
  "[C][C][=C][C][=C][Branch2][Ring2]": 19381,
  "[C][C][=C][C][=C][Branch2][Ring2][#Branch1]": 1109,
  "[C][C][=C][C][=C][Branch2][Ring2][#Branch2]": 694,
  "[C][C][=C][C][=C][Branch2][Ring2][#C]": 574,
  "[C][C][=C][C][=C][Branch2][Ring2][=Branch1]": 768,
  "[C][C][=C][C][=C][Branch2][Ring2][=Branch2]": 898,
  "[C][C][=C][C][=C][Branch2][Ring2][=C]": 547,
  "[C][C][=C][C][=C][Branch2][Ring2][=N]": 601,
  "[C][C][=C][C][=C][Branch2][Ring2][Branch1]": 622,
  "[C][C][=C][C][=C][Branch2][Ring2][Branch2]": 973,
  "[C][C][=C][C][=C][Branch2][Ring2][Ring1]": 1695,
  "[C][C][=C][C][=C][Branch2][Ring2][Ring2]": 1982,
  "[C][C][=C][C][=C][C]": 23230,
  "[C][C][=C][C][=C][C][=C][Ring1]": 10437,
  "[C][C][=C][C][=C][C][Branch1]": 1479,
  "[C][C][=C][C][=C][C][Branch1][=Branch2]": 609,
  "[C][C][=C][C][=C][C][Branch1][Branch2]": 1118,
  "[C][C][=C][C][=C][C][Branch2][Ring1]": 9691,
  "[C][C][=C][C][=C][C][Branch2][Ring2]": 2180,
  "[C][C][=C][C][=C][NH1]": 1194,
  "[C][C][=C][C][=C][N][=C]": 1081,
  "[C][C][=C][C][=C][O][Ring1][Branch1]": 691,
  "[C][C][=C][C][=C][S][Ring1][Branch1]": 974,
  "[C][C][=C][C][=N]": 9254,
  "[C][C][=C][C][=N][C][Branch1]": 683,
  "[C][C][=C][C][Branch1]": 9785,
  "[C][C][=C][C][Branch1][=Branch2]": 1372,
  "[C][C][=C][C][Branch1][=Branch2][C]": 599,
  "[C][C][=C][C][Branch1][C]": 7868,
  "[C][C][=C][C][Branch1][C][Br]": 940,
  "[C][C][=C][C][Branch1][C][C]": 993,
  "[C][C][=C][C][Branch1][C][C][=C]": 2057,
  "[C][C][=C][C][Branch1][C][C][=N]": 1182,
  "[C][C][=C][C][Branch1][C][Cl]": 2148,
  "[C][C][=C][C][Branch1][C][Cl][=C]": 844,
  "[C][C][=C][C][Branch1][C][F]": 2389,
  "[C][C][=C][C][Branch1][C][O]": 2598,
  "[C][C][=C][C][Branch1][C][O][=C]": 734,
  "[C][C][=C][C][Branch1][Ring1][O]": 607,
  "[C][C][=C][C][Branch2][Ring1]": 10563,
  "[C][C][=C][C][Branch2][Ring1][Ring2]": 1358,
  "[C][C][=C][C][Branch2][Ring2]": 1793,
  "[C][C][=C][C][C@@H1][Branch1][C][O]": 566,
  "[C][C][=C][NH1]": 11855,
  "[C][C][=C][NH1][C][=N][Ring1][Branch1]": 873,
  "[C][C][=C][NH1][N][=Ring1][Branch1]": 637,
  "[C][C][=C][N][=C]": 4481,
  "[C][C][=C][N][=C][Branch1][C][N]": 612,
  "[C][C][=C][N][=C][Branch2][Ring1]": 890,
  "[C][C][=C][N][Branch1]": 713,
  "[C][C][=C][N][Branch2][Ring1]": 998,
  "[C][C][=C][N][Branch2][Ring2]": 841,
  "[C][C][=C][O][C][=Ring1][Branch1]": 1335,
  "[C][C][=C][S]": 4219,
  "[C][C][=C][S][C]": 735,
  "[C][C][=C][S][C][=Ring1][Branch1]": 2558,
  "[C][C][=C][S][C][=Ring1][Branch1][C]": 541,
  "[C][C][=C][S][C][Branch1][=Branch2]": 544,
  "[C][C][=N]": 74226,
  "[C][C][=N][C][=C][Branch1]": 1182,
  "[C][C][=N][C][Branch1][=Branch2]": 2248,
  "[C][C][=N][C][Branch1][C]": 1648,
  "[C][C][=N][C][Branch2][Ring1]": 969,
  "[C][C][=N][C][Branch2][Ring2]": 573,
  "[C][C][=N][NH1]": 2430,
  "[C][C][=N][NH1][C][=Branch1][C][=O]": 1278,
  "[C][C][=N][NH1][C][=Ring1]": 2221,
  "[C][C][=N][NH1][C][=Ring1][Branch1]": 1346,
  "[C][C][=N][N][=C]": 1658,
  "[C][C][=N][N][=C][Branch1]": 722,
  "[C][C][=N][N][=C][Branch1][=Branch2]": 825,
  "[C][C][=N][N][=C][Branch2][Ring1]": 1645,
  "[C][C][=N][N][Branch1]": 974,
  "[C][C][=N][N][Branch1][=Branch2]": 2241,
  "[C][C][=N][N][Branch1][C][C]": 998,
  "[C][C][=N][N][Branch1][C][C][C]": 1100,
  "[C][C][=N][N][Branch2][Ring1]": 1204,
  "[C][C][=N][O][C]": 1511,
  "[C][C][=N][O][C][Branch1][C]": 2779,
  "[C][C][Branch1]": 35857,
  "[C][C][Branch1][#Branch2]": 1366,
  "[C][C][Branch1][#Branch2][C]": 681,
  "[C][C][Branch1][#C]": 1112,
  "[C][C][Branch1][=Branch2]": 5221,
  "[C][C][Branch1][=C]": 876,
  "[C][C][Branch1][Branch2]": 1122,
  "[C][C][Branch1][C]": 3135,
  "[C][C][Branch1][C][C]": 147672,
  "[C][C][Branch1][C][C][=C]": 5112,
  "[C][C][Branch1][C][C][=C][C]": 1323,
  "[C][C][Branch1][C][C][=C][C][C]": 1829,
  "[C][C][Branch1][C][C][=N]": 2390,
  "[C][C][Branch1][C][C][Branch1][C][C]": 33713,
  "[C][C][Branch1][C][C][Branch1][C][O]": 1224,
  "[C][C][Branch1][C][C][C@@H1]": 1661,
  "[C][C][Branch1][C][C][C@H1]": 2291,
  "[C][C][Branch1][C][C][C@H1][Branch2][Ring1]": 771,
  "[C][C][Branch1][C][C][C]": 17626,
  "[C][C][Branch1][C][C][C][=N]": 1745,
  "[C][C][Branch1][C][C][C][C@@H1]": 1160,
  "[C][C][Branch1][C][C][C][C@H1]": 2326,
  "[C][C][Branch1][C][C][C][C]": 2160,
  "[C][C][Branch1][C][C][C][C][Branch1]": 560,
  "[C][C][Branch1][C][C][C][C][C@]": 710,
  "[C][C][Branch1][C][C][C][C][C]": 2345,
  "[C][C][Branch1][C][C][C][N]": 1591,
  "[C][C][Branch1][C][C][C][O]": 551,
  "[C][C][Branch1][C][C][C][Ring1][Branch2]": 574,
  "[C][C][Branch1][C][C][N]": 631,
  "[C][C][Branch1][C][C][N][C]": 567,
  "[C][C][Branch1][C][C][N][C][=N]": 1241,
  "[C][C][Branch1][C][C][N][C][C]": 829,
  "[C][C][Branch1][C][C][O]": 3169,
  "[C][C][Branch1][C][Cl]": 750,
  "[C][C][Branch1][C][F][Branch1][C][F]": 630,
  "[C][C][Branch1][C][N][=O]": 1571,
  "[C][C][Branch1][C][O]": 6338,
  "[C][C][Branch1][C][O][C]": 3728,
  "[C][C][Branch1][N][C][=C][C][=C]": 1843,
  "[C][C][Branch1][O][C][C]": 692,
  "[C][C][Branch1][P]": 1067,
  "[C][C][Branch1][Ring1][C][O]": 903,
  "[C][C][Branch1][Ring1][O]": 600,
  "[C][C][Branch1][Ring2]": 1555,
  "[C][C][Branch1][S]": 1101,
  "[C][C][Branch2][Ring1]": 14299,
  "[C][C][Branch2][Ring1][#Branch1]": 1148,
  "[C][C][Branch2][Ring1][#Branch2]": 749,
  "[C][C][Branch2][Ring1][=Branch1]": 706,
  "[C][C][Branch2][Ring1][=Branch2]": 843,
  "[C][C][Branch2][Ring1][Branch2]": 648,
  "[C][C][Branch2][Ring1][Ring1]": 962,
  "[C][C][Branch2][Ring1][Ring2]": 1217,
  "[C][C][Branch2][Ring2]": 1053,
  "[C][C][C@@H1]": 26352,
  "[C][C][C@@H1][Branch1]": 5639,
  "[C][C][C@@H1][Branch1][C][C]": 2397,
  "[C][C][C@@H1][Branch1][C][O]": 664,
  "[C][C][C@@H1][Branch1][Ring2]": 1468,
  "[C][C][C@@H1][Branch2][Ring1]": 1805,
  "[C][C][C@@H1][C@@H1][Ring1][#Branch1]": 571,
  "[C][C][C@@H1][Ring1]": 660,
  "[C][C][C@@H1][Ring1][=Branch1]": 724,
  "[C][C][C@@H1][Ring1][O][Ring1][#Branch1]": 1262,
  "[C][C][C@@]": 12422,
  "[C][C][C@@][Branch1]": 658,
  "[C][C][C@@][Branch1][C][C]": 3756,
  "[C][C][C@@][Branch1][C][O]": 1271,
  "[C][C][C@@][Ring1][#Branch1]": 777,
  "[C][C][C@@][Ring1][=Branch1]": 882,
  "[C][C][C@@][Ring1][=C]": 569,
  "[C][C][C@H1]": 43993,
  "[C][C][C@H1][Branch1]": 6768,
  "[C][C][C@H1][Branch1][C][C]": 2328,
  "[C][C][C@H1][Branch1][C][C][C@@H1]": 819,
  "[C][C][C@H1][Branch1][C][C][C@H1]": 1564,
  "[C][C][C@H1][C@@H1][C][C]": 592,
  "[C][C][C@H1][O][C][=Branch1][C][=O]": 2084,
  "[C][C][C@H1][Ring1][#Branch1]": 626,
  "[C][C][C@H1][Ring1][O]": 583,
  "[C][C][C@]": 31683,
  "[C][C][C@][Branch1]": 2105,
  "[C][C][C@][Branch1][C][C]": 5818,
  "[C][C][C@][Branch1][C][C][C@@H1][Branch1]": 792,
  "[C][C][C@][Branch1][C][C][C@H1]": 2098,
  "[C][C][C@][Branch1][C][C][C][=Branch2]": 571,
  "[C][C][C@][Branch1][C][O]": 572,
  "[C][C][C@][Ring1]": 1699,
  "[C][C][C@][Ring1][#Branch1]": 2869,
  "[C][C][C@][Ring1][=Branch1]": 831,
  "[C][C][C@][Ring1][=Branch2]": 591,
  "[C][C][C@][Ring1][P]": 636,
  "[C][C][C@][Ring2][Ring1]": 1759,
  "[C][C][C@][Ring2][Ring1][#Branch1]": 645,
  "[C][C][C@][Ring2][Ring1][Branch1]": 641,
  "[C][C][C]": 92387,
  "[C][C][C][=Branch1][C][=O]": 7304,
  "[C][C][C][=Branch1][C][=O][N]": 10059,
  "[C][C][C][=Branch1][C][=O][N][Branch1]": 1172,
  "[C][C][C][=Branch1][C][=O][N][C]": 1454,
  "[C][C][C][=Branch1][C][=O][O]": 3206,
  "[C][C][C][=Branch1][C][=O][O][C]": 1313,
  "[C][C][C][=C]": 9798,
  "[C][C][C][=C][Branch1]": 1006,
  "[C][C][C][=C][Branch1][C][C]": 4121,
  "[C][C][C][=C][Branch1][C][C][C]": 702,
  "[C][C][C][=C][Branch2][Ring1]": 958,
  "[C][C][C][=C][C][=C]": 6161,
  "[C][C][C][=C][C][=C][Branch1]": 1554,
  "[C][C][C][=C][C][=C][Branch1][Branch2]": 600,
  "[C][C][C][=C][C][=C][Branch2][Ring1]": 1410,
  "[C][C][C][=C][C][=C][Branch2][Ring2]": 1399,
  "[C][C][C][=C][C][=C][C]": 2705,
  "[C][C][C][=C][C][=C][C][Branch1]": 703,
  "[C][C][C][=C][C][=N]": 751,
  "[C][C][C][=C][C][Branch1]": 686,
  "[C][C][C][=C][NH1]": 1056,
  "[C][C][C][=C][N][=C]": 588,
  "[C][C][C][=C][S][C][=Ring1][Branch1]": 838,
  "[C][C][C][=N]": 13388,
  "[C][C][C][=N][N][=C]": 645,
  "[C][C][C][=N][N][Branch1][=Branch2]": 587,
  "[C][C][C][Branch1]": 8207,
  "[C][C][C][Branch1][=Branch2]": 1304,
  "[C][C][C][Branch1][C][C]": 7467,
  "[C][C][C][Branch1][C][C][=N]": 665,
  "[C][C][C][Branch1][C][C][C]": 1025,
  "[C][C][C][Branch1][C][N][=O]": 683,
  "[C][C][C][Branch1][C][O]": 1701,
  "[C][C][C][Branch1][C][O][C]": 737,
  "[C][C][C][Branch1][Ring1]": 1075,
  "[C][C][C][Branch1][Ring1][C][C]": 2038,
  "[C][C][C][Branch1][Ring2]": 720,
  "[C][C][C][Branch2][Ring1]": 1254,
  "[C][C][C][C@@H1]": 3869,
  "[C][C][C][C@@H1][Ring1][Branch1]": 677,
  "[C][C][C][C@@]": 1693,
  "[C][C][C][C@@][Branch1][C][C]": 1159,
  "[C][C][C][C@H1]": 3988,
  "[C][C][C][C@]": 2986,
  "[C][C][C][C@][Branch1][C][C]": 1535,
  "[C][C][C][C]": 757843,
  "[C][C][C][C][=Branch1][C][=O]": 15813,
  "[C][C][C][C][=Branch1][C][=O][N]": 2321,
  "[C][C][C][C][=Branch1][C][=O][O]": 917,
  "[C][C][C][C][=C]": 3304,
  "[C][C][C][C][=C][C][=C]": 861,
  "[C][C][C][C][=C][C][=C][C]": 665,
  "[C][C][C][C][=N]": 2686,
  "[C][C][C][C][Branch1]": 2562,
  "[C][C][C][C][Branch1][=Branch2]": 559,
  "[C][C][C][C][Branch1][C][C]": 3041,
  "[C][C][C][C][Branch1][Ring2]": 870,
  "[C][C][C][C][Branch2][Ring1]": 602,
  "[C][C][C][C][C@@H1]": 985,
  "[C][C][C][C][C@@H1][Ring1][=Branch1]": 923,
  "[C][C][C][C][C@H1]": 864,
  "[C][C][C][C][C@H1][Ring1][=Branch1]": 1025,
  "[C][C][C][C][C]": 3748,
  "[C][C][C][C][C][=Branch1][C][=O]": 557,
  "[C][C][C][C][C][=N]": 2742,
  "[C][C][C][C][C][Branch1]": 1000,
  "[C][C][C][C][C][Branch1][Ring2]": 1806,
  "[C][C][C][C][C][C]": 67620,
  "[C][C][C][C][C][C][C]": 3300,
  "[C][C][C][C][C][C][C][C]": 52477,
  "[C][C][C][C][C][C][C][N]": 2000,
  "[C][C][C][C][C][C][N]": 584,
  "[C][C][C][C][C][C][O]": 892,
  "[C][C][C][C][C][C][Ring1]": 6734,
  "[C][C][C][C][C][C][Ring1][#Branch1]": 1021,
  "[C][C][C][C][C][C][Ring1][=Branch1]": 18880,
  "[C][C][C][C][C][C][Ring1][Branch1]": 921,
  "[C][C][C][C][C][N]": 4852,
  "[C][C][C][C][C][N][Branch1]": 879,
  "[C][C][C][C][C][N][Branch2][Ring1]": 676,
  "[C][C][C][C][C][O]": 2195,
  "[C][C][C][C][C][O][Ring1][Branch1]": 1492,
  "[C][C][C][C][C][Ring1]": 889,
  "[C][C][C][C][C][Ring1][#Branch1]": 1557,
  "[C][C][C][C][C][Ring1][=Branch1]": 4868,
  "[C][C][C][C][C][Ring1][=Branch1][C]": 1478,
  "[C][C][C][C][C][Ring1][Branch1]": 5044,
  "[C][C][C][C][C][Ring1][Branch1][C]": 652,
  "[C][C][C][C][N]": 3354,
  "[C][C][C][C][N][Branch1]": 4323,
  "[C][C][C][C][N][Branch1][=Branch2]": 621,
  "[C][C][C][C][N][Branch2][Ring1]": 4562,
  "[C][C][C][C][N][Branch2][Ring2]": 1459,
  "[C][C][C][C][N][C]": 689,
  "[C][C][C][C][N][C][=N]": 668,
  "[C][C][C][C][N][C][C]": 1179,
  "[C][C][C][C][N][Ring1][=Branch1]": 562,
  "[C][C][C][C][N][Ring1][Branch1]": 694,
  "[C][C][C][C][O]": 2505,
  "[C][C][C][C][O][C]": 719,
  "[C][C][C][C][O][Ring1][Branch1]": 645,
  "[C][C][C][C][Ring1][#Branch1]": 2400,
  "[C][C][C][C][Ring1][#Branch2]": 562,
  "[C][C][C][C][Ring1][=Branch1]": 6260,
  "[C][C][C][C][Ring1][=Branch2]": 1297,
  "[C][C][C][C][Ring1][=C]": 642,
  "[C][C][C][C][Ring1][=N]": 1495,
  "[C][C][C][C][Ring1][Branch1]": 1937,
  "[C][C][C][C][Ring1][Branch2]": 1229,
  "[C][C][C][C][Ring1][O]": 543,
  "[C][C][C][C][Ring1][Ring1]": 3158,
  "[C][C][C][C][Ring1][Ring2]": 2087,
  "[C][C][C][N]": 111456,
  "[C][C][C][N][=C]": 978,
  "[C][C][C][N][=C][Branch1][C][N]": 638,
  "[C][C][C][N][Branch1]": 14970,
  "[C][C][C][N][Branch1][#Branch2][C]": 1203,
  "[C][C][C][N][Branch1][=Branch2]": 1676,
  "[C][C][C][N][Branch1][C][C]": 1554,
  "[C][C][C][N][Branch1][C][C][C]": 683,
  "[C][C][C][N][Branch1][Ring2]": 2826,
  "[C][C][C][N][Branch2][Ring1]": 4626,
  "[C][C][C][N][Branch2][Ring1][#Branch1]": 906,
  "[C][C][C][N][Branch2][Ring1][Branch2]": 823,
  "[C][C][C][N][Branch2][Ring1][Ring1]": 1255,
  "[C][C][C][N][Branch2][Ring1][Ring2]": 890,
  "[C][C][C][N][Branch2][Ring2]": 1398,
  "[C][C][C][N][C][=Branch1][C][=O]": 9716,
  "[C][C][C][N][C][=C][C][=N]": 633,
  "[C][C][C][N][C][=N]": 1158,
  "[C][C][C][N][C][C]": 3027,
  "[C][C][C][N][C][C][C][C]": 537,
  "[C][C][C][N][C][C][N][Branch1]": 817,
  "[C][C][C][N][C][C][Ring1][=Branch1]": 2257,
  "[C][C][C][N][Ring1][#Branch1]": 906,
  "[C][C][C][N][Ring1][=Branch1]": 1189,
  "[C][C][C][N][Ring1][Branch1]": 1167,
  "[C][C][C][N][Ring1][Branch1][C]": 981,
  "[C][C][C][N][Ring1][Branch1][C][C]": 857,
  "[C][C][C][O]": 9830,
  "[C][C][C][O][C]": 1321,
  "[C][C][C][O][C][=Branch1][C][=O]": 1180,
  "[C][C][C][O][C][=C][C][=C]": 849,
  "[C][C][C][O][C][C][Ring1][=Branch1]": 1992,
  "[C][C][C][O][Ring1][Branch1]": 664,
  "[C][C][C][Ring1]": 47523,
  "[C][C][C][Ring1][#Branch1]": 3042,
  "[C][C][C][Ring1][#Branch2]": 659,
  "[C][C][C][Ring1][#C]": 786,
  "[C][C][C][Ring1][=Branch1]": 1370,
  "[C][C][C][Ring1][=Branch2]": 538,
  "[C][C][C][Ring1][=C]": 1205,
  "[C][C][C][Ring1][=N]": 598,
  "[C][C][C][Ring1][Branch1]": 2132,
  "[C][C][C][Ring1][Branch2]": 1137,
  "[C][C][C][Ring1][P]": 957,
  "[C][C][C][Ring1][Ring1]": 20756,
  "[C][C][C][Ring1][Ring1][=C]": 963,
  "[C][C][C][Ring1][Ring1][=N]": 592,
  "[C][C][C][Ring1][Ring1][C]": 739,
  "[C][C][C][Ring1][S]": 720,
  "[C][C][C][Ring2][Ring1]": 707,
  "[C][C][C][Ring2][Ring1][Branch2]": 632,
  "[C][C][C][S]": 1875,
  "[C][C][C][S][C][=N]": 885,
  "[C][C][N+1]": 1641,
  "[C][C][NH1]": 2045,
  "[C][C][N]": 32088,
  "[C][C][N][=C]": 3124,
  "[C][C][N][=C][Branch1]": 548,
  "[C][C][N][=N]": 587,
  "[C][C][N][Branch1]": 38303,
  "[C][C][N][Branch1][#Branch2]": 677,
  "[C][C][N][Branch1][#Branch2][C]": 2144,
  "[C][C][N][Branch1][#C]": 898,
  "[C][C][N][Branch1][=Branch2]": 2325,
  "[C][C][N][Branch1][C][C]": 2419,
  "[C][C][N][Branch1][C][C][C]": 740,
  "[C][C][N][Branch1][C][C][C][C]": 1171,
  "[C][C][N][Branch1][P]": 773,
  "[C][C][N][Branch1][Ring1]": 1161,
  "[C][C][N][Branch1][Ring1][C][C]": 8209,
  "[C][C][N][Branch1][Ring1][C][C][C]": 953,
  "[C][C][N][Branch2][Ring1]": 12322,
  "[C][C][N][Branch2][Ring1][#Branch1]": 645,
  "[C][C][N][Branch2][Ring1][Ring1]": 1499,
  "[C][C][N][Branch2][Ring1][Ring2]": 1204,
  "[C][C][N][Branch2][Ring2]": 1681,
  "[C][C][N][C]": 7563,
  "[C][C][N][C][=Branch1][C][=O]": 27978,
  "[C][C][N][C][=C]": 1240,
  "[C][C][N][C][=C][Branch2][Ring1]": 586,
  "[C][C][N][C][=C][C][=N]": 539,
  "[C][C][N][C][=N]": 3793,
  "[C][C][N][C][C]": 17117,
  "[C][C][N][C][C][C][C]": 1797,
  "[C][C][N][C][C][N][Branch1]": 961,
  "[C][C][N][C][C][N][Branch2][Ring1]": 1577,
  "[C][C][N][C][C][N][Branch2][Ring2]": 1172,
  "[C][C][N][C][Ring1][Branch1]": 785,
  "[C][C][N][C][Ring1][Branch1][=O]": 885,
  "[C][C][N][N][=C]": 1118,
  "[C][C][N][N][=N]": 706,
  "[C][C][N][Ring1]": 3233,
  "[C][C][N][Ring1][=N]": 670,
  "[C][C][N][Ring1][Branch1]": 3439,
  "[C][C][N][Ring1][Branch1][C]": 893,
  "[C][C][N][Ring2][Ring1]": 1391,
  "[C][C][O]": 54419,
  "[C][C][O][C@@H1]": 1083,
  "[C][C][O][C]": 8530,
  "[C][C][O][C][=Branch1][C][=O]": 46185,
  "[C][C][O][C][=Branch1][C][=O][N]": 1644,
  "[C][C][O][C][=C][C][=C]": 2502,
  "[C][C][O][C][=C][C][=C][Branch1]": 1368,
  "[C][C][O][C][=C][C][=C][C]": 1510,
  "[C][C][O][C][=C][C][Branch1]": 635,
  "[C][C][O][C][=N]": 1522,
  "[C][C][O][C][Branch1]": 1250,
  "[C][C][O][C][Branch1][=Branch2]": 813,
  "[C][C][O][C][C]": 5242,
  "[C][C][O][C][Ring1][Branch1]": 819,
  "[C][C][O][C][Ring1][Ring2]": 631,
  "[C][C][O][N][=C][Branch1][=Branch2]": 544,
  "[C][C][O][P][=Branch1][C][=O]": 2530,
  "[C][C][O][Ring1][=Branch1]": 985,
  "[C][C][Ring1]": 176763,
  "[C][C][Ring1][#Branch1]": 31359,
  "[C][C][Ring1][#Branch1][C][=C][Ring1][S]": 613,
  "[C][C][Ring1][#Branch2]": 6057,
  "[C][C][Ring1][#C]": 15366,
  "[C][C][Ring1][=Branch1]": 18629,
  "[C][C][Ring1][=Branch1][C]": 3246,
  "[C][C][Ring1][=Branch2]": 6978,
  "[C][C][Ring1][=Branch2][=O]": 652,
  "[C][C][Ring1][=Branch2][C][Ring1][#Branch1]": 1094,
  "[C][C][Ring1][=C]": 13185,
  "[C][C][Ring1][=N]": 22046,
  "[C][C][Ring1][Branch1]": 1324,
  "[C][C][Ring1][Branch2]": 7764,
  "[C][C][Ring1][Branch2][=O]": 727,
  "[C][C][Ring1][N]": 10624,
  "[C][C][Ring1][N][=C]": 1384,
  "[C][C][Ring1][N][=N]": 677,
  "[C][C][Ring1][N][C]": 1010,
  "[C][C][Ring1][N][C][=C][C][=C]": 671,
  "[C][C][Ring1][N][C][C]": 689,
  "[C][C][Ring1][O]": 2676,
  "[C][C][Ring1][P]": 10912,
  "[C][C][Ring1][Ring1]": 905,
  "[C][C][Ring1][Ring2]": 1153,
  "[C][C][Ring1][S]": 16219,
  "[C][C][Ring1][S][=O]": 577,
  "[C][C][Ring2][Ring1]": 96455,
  "[C][C][Ring2][Ring1][#Branch1]": 8498,
  "[C][C][Ring2][Ring1][#Branch1][=O]": 547,
  "[C][C][Ring2][Ring1][#Branch2]": 4549,
  "[C][C][Ring2][Ring1][#C]": 3308,
  "[C][C][Ring2][Ring1][=Branch1]": 8698,
  "[C][C][Ring2][Ring1][=Branch1][=O]": 583,
  "[C][C][Ring2][Ring1][=Branch2]": 5734,
  "[C][C][Ring2][Ring1][=C]": 3559,
  "[C][C][Ring2][Ring1][=N]": 3950,
  "[C][C][Ring2][Ring1][Branch1]": 7692,
  "[C][C][Ring2][Ring1][Branch2]": 7128,
  "[C][C][Ring2][Ring1][C]": 5133,
  "[C][C][Ring2][Ring1][N]": 3500,
  "[C][C][Ring2][Ring1][O]": 3541,
  "[C][C][Ring2][Ring1][P]": 2039,
  "[C][C][Ring2][Ring1][Ring1]": 8022,
  "[C][C][Ring2][Ring1][Ring2]": 8339,
  "[C][C][Ring2][Ring1][S]": 2631,
  "[C][C][Ring2][Ring2][#Branch1]": 919,
  "[C][C][Ring2][Ring2][=Branch1]": 896,
  "[C][C][Ring2][Ring2][Branch1]": 968,
  "[C][C][Ring2][Ring2][C]": 939,
  "[C][C][Ring2][Ring2][Ring1]": 1305,
  "[C][C][Ring2][Ring2][Ring2]": 1171,
  "[C][C][S]": 6939,
  "[C][C][S][C]": 579,
  "[C][C][S][C][=N]": 1990,
  "[C][C][S][Ring1][Branch1]": 668,
  "[C][Cl]": 2230,
  "[C][F]": 1444,
  "[C][N+1]": 9976,
  "[C][N+1][=C]": 2736,
  "[C][N+1][Branch1][C][C]": 953,
  "[C][N+1][Branch1][C][C][Branch1][C][C]": 1183,
  "[C][NH1]": 15390,
  "[C][NH1][C][=C][C][Ring1][=Branch2]": 2250,
  "[C][NH1][C][=N]": 1822,
  "[C][NH1][N][=C]": 910,
  "[C][N]": 663153,
  "[C][N][=C]": 19220,
  "[C][N][=C][Branch1]": 6005,
  "[C][N][=C][Branch1][=Branch2]": 1758,
  "[C][N][=C][Branch1][C][C]": 627,
  "[C][N][=C][Branch1][C][N]": 1158,
  "[C][N][=C][Branch1][C][S]": 665,
  "[C][N][=C][NH1]": 1013,
  "[C][N][=C][NH1][N][=Ring1][Branch1]": 738,
  "[C][N][=N]": 3335,
  "[C][N][=N][NH1]": 1664,
  "[C][N][=N][NH1][N][=Ring1][Branch1]": 1363,
  "[C][N][Branch1]": 44499,
  "[C][N][Branch1][#Branch1]": 3022,
  "[C][N][Branch1][#Branch1][C@@H1][Branch1][C][C]": 1571,
  "[C][N][Branch1][#Branch1][C@H1][Branch1][C][C]": 919,
  "[C][N][Branch1][#Branch2]": 1038,
  "[C][N][Branch1][#Branch2][C]": 5011,
  "[C][N][Branch1][#C]": 1283,
  "[C][N][Branch1][=Branch2]": 4168,
  "[C][N][Branch1][=Branch2][C]": 1252,
  "[C][N][Branch1][=C]": 745,
  "[C][N][Branch1][=N][C][=Branch1][C][=O]": 1301,
  "[C][N][Branch1][C][C]": 36369,
  "[C][N][Branch1][C][C][C@@H1]": 578,
  "[C][N][Branch1][C][C][C]": 8241,
  "[C][N][Branch1][C][C][C][=N]": 1000,
  "[C][N][Branch1][C][C][C][C]": 10551,
  "[C][N][Branch1][N][C][=Branch1][C][=O]": 639,
  "[C][N][Branch1][N][C][=C][C][=C]": 659,
  "[C][N][Branch1][O][C][C]": 1405,
  "[C][N][Branch1][P]": 1782,
  "[C][N][Branch1][Ring2]": 1071,
  "[C][N][Branch1][Ring2][C][C]": 557,
  "[C][N][Branch2][Branch1]": 584,
  "[C][N][Branch2][Ring1]": 24656,
  "[C][N][Branch2][Ring1][#Branch1]": 863,
  "[C][N][Branch2][Ring1][#C]": 554,
  "[C][N][Branch2][Ring1][=Branch1]": 720,
  "[C][N][Branch2][Ring1][=Branch1][C]": 874,
  "[C][N][Branch2][Ring1][=Branch2]": 771,
  "[C][N][Branch2][Ring1][Branch2]": 800,
  "[C][N][Branch2][Ring1][Ring1]": 2665,
  "[C][N][Branch2][Ring1][Ring2]": 2400,
  "[C][N][Branch2][Ring2]": 2636,
  "[C][N][C@@H1]": 670,
  "[C][N][C@@H1][Branch1][C][C]": 1066,
  "[C][N][C@H1]": 781,
  "[C][N][C]": 11509,
  "[C][N][C][=Branch1][C][=N]": 1094,
  "[C][N][C][=Branch1][C][=N][N]": 560,
  "[C][N][C][=Branch1][C][=O]": 82914,
  "[C][N][C][=Branch1][C][=O][C@@H1]": 1576,
  "[C][N][C][=Branch1][C][=O][C@H1]": 697,
  "[C][N][C][=Branch1][C][=O][C@H1][Branch1]": 1774,
  "[C][N][C][=Branch1][C][=O][C][=N]": 744,
  "[C][N][C][=Branch1][C][=O][C][C]": 2062,
  "[C][N][C][=Branch1][C][=O][C][N]": 781,
  "[C][N][C][=Branch1][C][=O][C][S]": 801,
  "[C][N][C][=Branch1][C][=O][N]": 7674,
  "[C][N][C][=Branch1][C][=O][O]": 656,
  "[C][N][C][=Branch1][C][=O][O][C]": 1760,
  "[C][N][C][=Branch1][C][=S]": 2509,
  "[C][N][C][=C]": 9024,
  "[C][N][C][=C][Branch1]": 2268,
  "[C][N][C][=C][Branch1][=Branch2]": 814,
  "[C][N][C][=C][Branch2][Ring1]": 3849,
  "[C][N][C][=C][Branch2][Ring2]": 2325,
  "[C][N][C][=C][C][=C]": 3828,
  "[C][N][C][=C][C][=C][Branch1]": 794,
  "[C][N][C][=C][C][=C][Branch2][Ring1]": 598,
  "[C][N][C][=C][C][=C][C]": 853,
  "[C][N][C][=C][C][=N]": 1461,
  "[C][N][C][=C][C][=N][Ring1][Branch1]": 581,
  "[C][N][C][=C][N][=C][Ring1]": 962,
  "[C][N][C][=C][N][=C][Ring1][Branch1]": 4437,
  "[C][N][C][=N]": 20888,
  "[C][N][C][=N][C][=N]": 1604,
  "[C][N][C][=N][C][=N][Ring1][Branch1]": 3047,
  "[C][N][C][=N][C][Branch1]": 2207,
  "[C][N][C][=N][C][Branch1][=Branch2]": 734,
  "[C][N][C][Branch1]": 1681,
  "[C][N][C][Branch1][=Branch2]": 1197,
  "[C][N][C][Branch1][C][C]": 601,
  "[C][N][C][Branch1][C][C][=O]": 850,
  "[C][N][C][Branch2][Ring1]": 871,
  "[C][N][C][C@@H1]": 1967,
  "[C][N][C][C@H1]": 1832,
  "[C][N][C][C@H1][Branch1]": 603,
  "[C][N][C][C]": 73216,
  "[C][N][C][C][=C]": 752,
  "[C][N][C][C][=C][C][=C]": 943,
  "[C][N][C][C][=C][C][=C][C]": 626,
  "[C][N][C][C][C]": 6763,
  "[C][N][C][C][C][Branch1][=Branch2]": 753,
  "[C][N][C][C][C][Branch2][Ring1]": 982,
  "[C][N][C][C][C][C@H1]": 679,
  "[C][N][C][C][C][C]": 21212,
  "[C][N][C][C][C][C][Ring1][Branch1]": 5633,
  "[C][N][C][C][C][N]": 2788,
  "[C][N][C][C][C][N][Branch1]": 578,
  "[C][N][C][C][N]": 2013,
  "[C][N][C][C][N][Branch1]": 2837,
  "[C][N][C][C][N][Branch1][=Branch2]": 1839,
  "[C][N][C][C][N][Branch2][Branch1]": 1951,
  "[C][N][C][C][N][Branch2][Ring1]": 7326,
  "[C][N][C][C][N][Branch2][Ring1][Ring1]": 661,
  "[C][N][C][C][N][Branch2][Ring1][Ring2]": 608,
  "[C][N][C][C][N][Branch2][Ring2]": 3836,
  "[C][N][N][=C]": 5237,
  "[C][N][N][=C][Branch1]": 1152,
  "[C][N][N][=C][Branch1][=Branch2]": 562,
  "[C][N][N][=C][Branch1][=Branch2][C]": 681,
  "[C][N][N][=N]": 3581,
  "[C][N][N][=N][N][=C][Ring1][Branch1]": 676,
  "[C][N][Ring1][#Branch1]": 653,
  "[C][N][Ring1][=N]": 892,
  "[C][N][Ring1][Branch1][C][=Branch1][C][=O]": 866,
  "[C][N][Ring2][Ring1]": 778,
  "[C][O]": 549621,
  "[C][O][/N][=C]": 1067,
  "[C][O][=C][Branch1][C][O][C]": 579,
  "[C][O][C@@H1]": 5833,
  "[C][O][C@@H1][Ring1][Branch2]": 667,
  "[C][O][C@@]": 1009,
  "[C][O][C@H1]": 5486,
  "[C][O][C@H1][Branch1][Ring1][C][O]": 686,
  "[C][O][C]": 34445,
  "[C][O][C][=Branch1][C][=O]": 71212,
  "[C][O][C][=Branch1][C][=O][C@@H1]": 1710,
  "[C][O][C][=Branch1][C][=O][C@H1]": 1580,
  "[C][O][C][=Branch1][C][=O][C@]": 550,
  "[C][O][C][=Branch1][C][=O][C][=C]": 743,
  "[C][O][C][=Branch1][C][=O][C][C]": 1724,
  "[C][O][C][=Branch1][C][=O][C][S]": 746,
  "[C][O][C][=Branch1][C][=O][N]": 3237,
  "[C][O][C][=Branch1][C][=O][N][C@H1]": 1103,
  "[C][O][C][=C]": 2864,
  "[C][O][C][=C][Branch1]": 1091,
  "[C][O][C][=C][Branch1][C][C]": 1184,
  "[C][O][C][=C][Branch1][C][Cl]": 635,
  "[C][O][C][=C][Branch1][C][F]": 666,
  "[C][O][C][=C][Branch1][C][O]": 674,
  "[C][O][C][=C][C]": 8156,
  "[C][O][C][=C][C][=C]": 86926,
  "[C][O][C][=C][C][=C][Branch1]": 27794,
  "[C][O][C][=C][C][=C][Branch1][#C]": 1059,
  "[C][O][C][=C][C][=C][Branch1][=Branch2]": 836,
  "[C][O][C][=C][C][=C][Branch1][=C]": 748,
  "[C][O][C][=C][C][=C][Branch1][=N]": 615,
  "[C][O][C][=C][C][=C][Branch1][Branch2]": 685,
  "[C][O][C][=C][C][=C][Branch1][P]": 1335,
  "[C][O][C][=C][C][=C][Branch1][S]": 1393,
  "[C][O][C][=C][C][=C][Branch2][=Branch1]": 1794,
  "[C][O][C][=C][C][=C][Branch2][Branch1]": 8154,
  "[C][O][C][=C][C][=C][Branch2][Ring1]": 52480,
  "[C][O][C][=C][C][=C][Branch2][Ring2]": 35839,
  "[C][O][C][=C][C][=C][C]": 24795,
  "[C][O][C][=C][C][=C][NH1]": 2295,
  "[C][O][C][=C][C][=C][N][=C]": 2511,
  "[C][O][C][=C][C][=N]": 4677,
  "[C][O][C][=C][C][Branch1]": 10317,
  "[C][O][C][=C][C][Branch1][=Branch2]": 726,
  "[C][O][C][=C][C][Branch1][=C]": 638,
  "[C][O][C][=C][C][Branch1][C]": 1299,
  "[C][O][C][=C][C][Branch1][C][Cl]": 604,
  "[C][O][C][=C][C][Branch1][C][F]": 648,
  "[C][O][C][=C][C][Branch1][C][O]": 2035,
  "[C][O][C][=C][C][Branch1][P]": 737,
  "[C][O][C][=C][C][Branch1][Ring1][O]": 5737,
  "[C][O][C][=C][C][Branch1][S]": 607,
  "[C][O][C][=C][C][Branch2][Branch1]": 590,
  "[C][O][C][=C][C][Branch2][Ring1]": 18150,
  "[C][O][C][=C][C][Branch2][Ring1][#Branch1]": 824,
  "[C][O][C][=C][C][Branch2][Ring1][#Branch2]": 928,
  "[C][O][C][=C][C][Branch2][Ring1][#C]": 868,
  "[C][O][C][=C][C][Branch2][Ring1][=Branch1]": 686,
  "[C][O][C][=C][C][Branch2][Ring1][=Branch2]": 1097,
  "[C][O][C][=C][C][Branch2][Ring1][=C]": 672,
  "[C][O][C][=C][C][Branch2][Ring1][=N]": 622,
  "[C][O][C][=C][C][Branch2][Ring1][Branch1]": 603,
  "[C][O][C][=C][C][Branch2][Ring1][Branch2]": 988,
  "[C][O][C][=C][C][Branch2][Ring1][P]": 709,
  "[C][O][C][=C][C][Branch2][Ring1][Ring1]": 728,
  "[C][O][C][=C][C][Branch2][Ring1][Ring2]": 867,
  "[C][O][C][=C][C][Branch2][Ring2]": 7313,
  "[C][O][C][=C][C][Branch2][Ring2][Ring1]": 735,
  "[C][O][C][=C][C][Branch2][Ring2][Ring2]": 694,
  "[C][O][C][=C][N][=C]": 1440,
  "[C][O][C][=N]": 5368,
  "[C][O][C][Branch1][C][C][=O]": 2553,
  "[C][O][C][Branch1][C][N][=O]": 596,
  "[C][O][C][C@H1]": 797,
  "[C][O][C][C]": 11124,
  "[C][O][C][C][=Branch1][C][=O]": 710,
  "[C][O][C][C][=N]": 662,
  "[C][O][C][C][C]": 601,
  "[C][O][C][C][C][C]": 1132,
  "[C][O][C][C][C][N]": 1779,
  "[C][O][C][C][N]": 1891,
  "[C][O][C][C][N][Branch1]": 754,
  "[C][O][C][C][N][C][C]": 980,
  "[C][O][C][C][O]": 1997,
  "[C][O][C][C][Ring1][=Branch1]": 949,
  "[C][O][C][O]": 618,
  "[C][O][C][Ring1][Branch1][=O]": 707,
  "[C][O][P][=Branch1][C][=O]": 1486,
  "[C][O][Ring1][Branch1]": 4456,
  "[C][Ring1]": 502634,
  "[C][Ring1][#Branch1]": 43605,
  "[C][Ring1][#Branch1][=C][Ring1]": 632,
  "[C][Ring1][#Branch1][=C][Ring1][O]": 1056,
  "[C][Ring1][#Branch1][=N]": 1437,
  "[C][Ring1][#Branch1][=O]": 8176,
  "[C][Ring1][#Branch1][=O][C][Ring1][=C][=O]": 840,
  "[C][Ring1][#Branch1][N][Ring1][=Branch1]": 1019,
  "[C][Ring1][#Branch2]": 24323,
  "[C][Ring1][#Branch2][=C][Ring1][=C]": 1134,
  "[C][Ring1][#Branch2][=O]": 3385,
  "[C][Ring1][#Branch2][=Ring1][=Branch1]": 837,
  "[C][Ring1][#C]": 21557,
  "[C][Ring1][#C][=C][Ring2][Ring1][Ring1]": 2114,
  "[C][Ring1][#C][=O]": 5938,
  "[C][Ring1][=Branch1]": 117530,
  "[C][Ring1][=Branch1][=C]": 782,
  "[C][Ring1][=Branch1][=C][Ring1][#Branch2]": 4830,
  "[C][Ring1][=Branch1][=N]": 2350,
  "[C][Ring1][=Branch1][=N][Ring1][=Branch2]": 717,
  "[C][Ring1][=Branch1][=O]": 7331,
  "[C][Ring1][=Branch1][=O][=C][Ring1][=N]": 740,
  "[C][Ring1][=Branch1][=O][C][=C][Ring1][=C]": 837,
  "[C][Ring1][=Branch1][C]": 16622,
  "[C][Ring1][=Branch1][C][=Branch1][C][=O]": 1496,
  "[C][Ring1][=Branch1][C][=C][C][=C]": 571,
  "[C][Ring1][=Branch1][C][=C][Ring1][=N]": 603,
  "[C][Ring1][=Branch1][C][C][Ring1][=Branch1]": 1486,
  "[C][Ring1][=Branch1][C][Ring1][=Branch2]": 7535,
  "[C][Ring1][=Branch1][N][C][=Branch1][C][=O]": 895,
  "[C][Ring1][=Branch2]": 19607,
  "[C][Ring1][=Branch2][=C][Ring1][=N]": 850,
  "[C][Ring1][=Branch2][=O]": 1533,
  "[C][Ring1][=Branch2][=Ring1][Branch1]": 2067,
  "[C][Ring1][=Branch2][C]": 557,
  "[C][Ring1][=C]": 21799,
  "[C][Ring1][=C][=C][Ring2][Ring1]": 1292,
  "[C][Ring1][=C][=C][Ring2][Ring1][C]": 1778,
  "[C][Ring1][=C][=O]": 5905,
  "[C][Ring1][=N]": 21943,
  "[C][Ring1][=N][=C][Ring1][P]": 3347,
  "[C][Ring1][=N][=O]": 5903,
  "[C][Ring1][Branch1]": 36211,
  "[C][Ring1][Branch1][=C][Ring1][=Branch2]": 9781,
  "[C][Ring1][Branch1][=O]": 1936,
  "[C][Ring1][Branch1][C]": 5264,
  "[C][Ring1][Branch1][C][=Branch1][C][=O]": 1135,
  "[C][Ring1][Branch1][C][C]": 2104,
  "[C][Ring1][Branch1][C][Ring1][#Branch1]": 873,
  "[C][Ring1][Branch2]": 22739,
  "[C][Ring1][Branch2][=C][Ring1][N]": 1328,
  "[C][Ring1][Branch2][=O]": 5240,
  "[C][Ring1][Branch2][Branch1][C][C][C]": 613,
  "[C][Ring1][N]": 10347,
  "[C][Ring1][N][=C][Ring1][S]": 2874,
  "[C][Ring1][N][=O]": 4543,
  "[C][Ring1][O]": 13399,
  "[C][Ring1][O][=C]": 852,
  "[C][Ring1][O][=C][Ring1][#C]": 1949,
  "[C][Ring1][O][=O]": 4077,
  "[C][Ring1][P]": 19549,
  "[C][Ring1][P][=C][Ring2][Ring1][Branch1]": 2367,
  "[C][Ring1][P][=O]": 4890,
  "[C][Ring1][Ring1]": 3573,
  "[C][Ring1][Ring2]": 3821,
  "[C][Ring1][S]": 19372,
  "[C][Ring1][S][=C][Ring2][Ring1][Ring2]": 2625,
  "[C][Ring1][S][=O]": 4561,
  "[C][Ring2][Branch1]": 962,
  "[C][Ring2][Ring1]": 126575,
  "[C][Ring2][Ring1][#Branch1]": 10036,
  "[C][Ring2][Ring1][#Branch1][=C][Ring2][Ring1][O]": 1231,
  "[C][Ring2][Ring1][#Branch1][=O]": 2181,
  "[C][Ring2][Ring1][#Branch2]": 6577,
  "[C][Ring2][Ring1][#Branch2][=C][Ring2][Ring1][=C]": 852,
  "[C][Ring2][Ring1][#Branch2][=O]": 1467,
  "[C][Ring2][Ring1][#C]": 3743,
  "[C][Ring2][Ring1][#C][=O]": 778,
  "[C][Ring2][Ring1][=Branch1]": 10147,
  "[C][Ring2][Ring1][=Branch1][=C][Ring2][Ring1][#Branch2]": 1361,
  "[C][Ring2][Ring1][=Branch1][=O]": 2493,
  "[C][Ring2][Ring1][=Branch2]": 7670,
  "[C][Ring2][Ring1][=Branch2][=C][Ring2][Ring1][=N]": 995,
  "[C][Ring2][Ring1][=Branch2][=O]": 1720,
  "[C][Ring2][Ring1][=C]": 4408,
  "[C][Ring2][Ring1][=C][=O]": 1028,
  "[C][Ring2][Ring1][=N]": 4680,
  "[C][Ring2][Ring1][=N][=C][Ring2][Ring1][P]": 601,
  "[C][Ring2][Ring1][=N][=O]": 945,
  "[C][Ring2][Ring1][Branch1]": 10903,
  "[C][Ring2][Ring1][Branch1][=C][Ring2][Ring1][=Branch2]": 1565,
  "[C][Ring2][Ring1][Branch1][=O]": 2501,
  "[C][Ring2][Ring1][Branch2]": 9489,
  "[C][Ring2][Ring1][Branch2][=C][Ring2][Ring1][N]": 996,
  "[C][Ring2][Ring1][Branch2][=O]": 2129,
  "[C][Ring2][Ring1][C]": 7327,
  "[C][Ring2][Ring1][C][=C][Ring2][Ring1][=Branch1]": 1816,
  "[C][Ring2][Ring1][C][=O]": 3327,
  "[C][Ring2][Ring1][N]": 3553,
  "[C][Ring2][Ring1][N][=C][Ring2][Ring1][S]": 749,
  "[C][Ring2][Ring1][N][=O]": 1213,
  "[C][Ring2][Ring1][O]": 4886,
  "[C][Ring2][Ring1][O][=C][Ring2][Ring1][#C]": 806,
  "[C][Ring2][Ring1][O][=O]": 1501,
  "[C][Ring2][Ring1][P]": 2689,
  "[C][Ring2][Ring1][P][=O]": 743,
  "[C][Ring2][Ring1][Ring1]": 11388,
  "[C][Ring2][Ring1][Ring1][=C][Ring2][Ring1][#Branch1]": 1588,
  "[C][Ring2][Ring1][Ring1][=N]": 582,
  "[C][Ring2][Ring1][Ring1][=O]": 3180,
  "[C][Ring2][Ring1][Ring2]": 11828,
  "[C][Ring2][Ring1][Ring2][=C][Ring2][Ring1][Branch2]": 1759,
  "[C][Ring2][Ring1][Ring2][=O]": 3178,
  "[C][Ring2][Ring1][S]": 2538,
  "[C][Ring2][Ring1][S][=O]": 698,
  "[C][Ring2][Ring2]": 713,
  "[C][Ring2][Ring2][Ring1]": 753,
  "[C][S+1][Branch1][C][O-1]": 1144,
  "[C][S]": 61957,
  "[C][S][=Branch1][C][=O][=Branch1][C][=O]": 21097,
  "[C][S][C]": 5256,
  "[C][S][C][=Branch1][C][=S]": 704,
  "[C][S][C][=C][Branch1]": 1432,
  "[C][S][C][=C][C][=C]": 1307,
  "[C][S][C][=C][C][=Ring1][Branch1]": 1770,
  "[C][S][C][=C][C][=Ring1][Branch1][C]": 582,
  "[C][S][C][=N]": 17393,
  "[C][S][C][=N][C][Branch1]": 1260,
  "[C][S][C][=N][C][Branch1][C]": 776,
  "[C][S][C][=N][N][=C]": 570,
  "[C][S][C][=N][N][=C][Branch1]": 1327,
  "[C][S][C][=N][N][=C][Branch1][=Branch2]": 970,
  "[C][S][C][Branch1][=Branch2]": 702,
  "[C][S][C][C]": 725,
  "[C][S][C][C][=Branch1][C][=O]": 774,
  "[C][S][C][C][C@H1]": 1001,
  "[Ca+2]": 140,
  "[Ca]": 2,
  "[Cl+1]": 6,
  "[Cl+2]": 3,
  "[Cl+3]": 602,
  "[Cl+3][Branch1][C][O-1][Branch1][C][O-1]": 602,
  "[Cl-1]": 5189,
  "[Cl-1][Cl-1]": 576,
  "[ClH0]": 15,
  "[Cl]": 502388,
  "[Cl][=N]": 1675,
  "[Cl][C][=C][C][=C]": 767,
  "[Cl][C][=C][C][=C][Branch2][Ring1]": 954,
  "[Cl][C][=C][C][=C][C]": 1080,
  "[Cl][C][=C][C][=C][C][=C][Ring1]": 683,
  "[Cl][C][C]": 2157,
  "[Cl][C][C][Cl]": 1701,
  "[Cl][C][C][Cl][C][=C][Ring1][=N]": 811,
  "[Cl][C][C][Ring1][=N]": 677,
  "[Cl][Cl]": 7939,
  "[Cl][N][=C][Branch1][C][N]": 657,
  "[Cl][N][C][C]": 591,
  "[Cl][O]": 613,
  "[Cl][O][=C]": 694,
  "[Cs+1]": 5,
  "[F-1]": 4,
  "[FH0]": 12,
  "[F]": 857741,
  "[F][=C]": 900,
  "[F][=N]": 1104,
  "[F][C][=C][C][=C][Branch2][Ring1]": 654,
  "[F][C][=C][C][=C][Branch2][Ring2]": 625,
  "[F][C][=C][C][=C][C]": 1023,
  "[F][C][=C][C][=C][C][=C][Ring1]": 569,
  "[F][C][=C][N][=C]": 793,
  "[F][C][=N]": 770,
  "[F][C][Branch1][C][F]": 836,
  "[F][C][Branch1][C][F][Branch1][C][F]": 4637,
  "[F][C][C][Ring1][=N]": 1442,
  "[H+1]": 7,
  "[H-1]": 2,
  "[He]": 1,
  "[I+1]": 81,
  "[I+2]": 1,
  "[I+3]": 2,
  "[I-1]": 4619,
  "[IH0]": 1,
  "[I]": 12792,
  "[K+1]": 1403,
  "[KH1]": 2,
  "[K]": 1,
  "[Kr]": 1,
  "[Li+1]": 520,
  "[LiH1]": 1,
  "[Li]": 4,
  "[Mg+1]": 1,
  "[Mg+2]": 87,
  "[MgH2]": 6,
  "[Mg]": 4,
  "[N+1]": 109222,
  "[N+1][=Branch1][C][=O][O-1]": 72781,
  "[N+1][=C]": 5188,
  "[N+1][=C][C][=C][C][=C][Ring1][=Branch1]": 901,
  "[N+1][Branch1][C]": 616,
  "[N+1][Branch1][C][C]": 679,
  "[N+1][Branch1][C][C][Branch1][C][C]": 2076,
  "[N+1][Branch1][C][C][Branch1][C][C][C]": 1574,
  "[N+1][Branch1][C][O-1]": 2991,
  "[N+1][Branch1][C][O-1][=C]": 610,
  "[N+1][Branch1][C][O-1][=C][Ring1][=Branch1]": 664,
  "[N-1]": 1899,
  "[N-1][=N+1]": 1061,
  "[N-1][=N+1][=N]": 694,
  "[N@+1]": 213,
  "[N@@+1]": 136,
  "[N@@]": 49,
  "[N@H1+1]": 1,
  "[N@]": 40,
  "[NH0]": 3,
  "[NH1+1]": 34,
  "[NH1-1]": 28,
  "[NH1]": 249287,
  "[NH1][C][=Branch1][C][=O]": 6756,
  "[NH1][C][=Branch1][C][=O][NH1]": 656,
  "[NH1][C][=Branch1][C][=S]": 682,
  "[NH1][C][=C][C][=C]": 1559,
  "[NH1][C][=C][C][=C][Branch1][C][Cl]": 710,
  "[NH1][C][=C][C][=C][C][=C][Ring1]": 5016,
  "[NH1][C][=N]": 3934,
  "[NH1][C][=Ring1]": 6567,
  "[NH1][C][=Ring2]": 1255,
  "[NH1][C][Ring1][Branch1]": 619,
  "[NH1][C][Ring1][Branch1][=C][Ring1][=Branch2]": 910,
  "[NH1][N][=C]": 3770,
  "[NH1][N][=Ring1]": 2794,
  "[NH1][N][=Ring1][Branch2]": 647,
  "[NH1][Ring1][#Branch1]": 790,
  "[NH1][Ring1][#Branch2]": 3504,
  "[NH1][Ring1][#C]": 917,
  "[NH1][Ring1][=Branch1]": 878,
  "[NH1][Ring1][=Branch2]": 9780,
  "[NH1][Ring1][=Branch2][C][=C][Ring1][#C]": 613,
  "[NH1][Ring1][=C]": 756,
  "[NH1][Ring1][=N]": 1511,
  "[NH1][Ring1][Branch1]": 1606,
  "[NH1][Ring1][Branch2]": 580,
  "[NH1][Ring1][N]": 1038,
  "[NH1][Ring1][O]": 1459,
  "[NH1][Ring1][P]": 1113,
  "[NH1][Ring1][S]": 804,
  "[NH1][Ring2][Ring1][#Branch1]": 545,
  "[NH1][Ring2][Ring1][=Branch1]": 769,
  "[NH1][Ring2][Ring1][Branch1]": 818,
  "[NH1][Ring2][Ring1][Ring1]": 537,
  "[NH1][Ring2][Ring1][Ring2]": 603,
  "[NH2+1]": 37,
  "[NH3+1]": 2,
  "[NH4+1]": 1,
  "[N]": 5000830,
  "[N][#C]": 31115,
  "[N][#C][C][=C][Branch1][C][N]": 1201,
  "[N][#C][C][=C][C][=C]": 596,
  "[N][#C][C][=C][C][=C][Branch2][Ring1]": 667,
  "[N][#C][C][=C][C][=C][Branch2][Ring2]": 964,
  "[N][#C][C][=C][C][=C][C]": 1045,
  "[N][#C][C][=C][C][Branch1]": 550,
  "[N][/N][=C]": 2876,
  "[N][/N][=C][/C][=C]": 6975,
  "[N][/N][=C][/C][=C][C][=C]": 1078,
  "[N][=C]": 405736,
  "[N][=C][Branch1]": 90517,
  "[N][=C][Branch1][#Branch2]": 4002,
  "[N][=C][Branch1][#C]": 2849,
  "[N][=C][Branch1][=Branch2]": 18644,
  "[N][=C][Branch1][=Branch2][C]": 2465,
  "[N][=C][Branch1][=C]": 2631,
  "[N][=C][Branch1][=N]": 3136,
  "[N][=C][Branch1][Branch2]": 1833,
  "[N][=C][Branch1][C][C]": 7890,
  "[N][=C][Branch1][C][C][C]": 1725,
  "[N][=C][Branch1][C][C][N][Ring1][=Branch1]": 635,
  "[N][=C][Branch1][C][Cl]": 919,
  "[N][=C][Branch1][C][N]": 19558,
  "[N][=C][Branch1][C][N][C][Ring1][Branch2]": 740,
  "[N][=C][Branch1][C][N][N]": 1045,
  "[N][=C][Branch1][C][N][N][=C][Ring1]": 768,
  "[N][=C][Branch1][C][N][N][C][C]": 615,
  "[N][=C][Branch1][C][O]": 1331,
  "[N][=C][Branch1][C][S]": 3751,
  "[N][=C][Branch1][C][S][N][Ring1][=Branch1]": 540,
  "[N][=C][Branch1][N][C][=C][C][=C]": 4264,
  "[N][=C][Branch1][N][N][C][C]": 911,
  "[N][=C][Branch1][P]": 2482,
  "[N][=C][Branch1][Ring1][C][#N]": 1519,
  "[N][=C][Branch1][S]": 1648,
  "[N][=C][Branch2][Ring1]": 30410,
  "[N][=C][Branch2][Ring1][#Branch1]": 1353,
  "[N][=C][Branch2][Ring1][#Branch2]": 1102,
  "[N][=C][Branch2][Ring1][#C]": 573,
  "[N][=C][Branch2][Ring1][=Branch1]": 1298,
  "[N][=C][Branch2][Ring1][=Branch2]": 1209,
  "[N][=C][Branch2][Ring1][Branch1]": 1174,
  "[N][=C][Branch2][Ring1][Branch2]": 1198,
  "[N][=C][Branch2][Ring1][Ring1]": 1867,
  "[N][=C][Branch2][Ring1][Ring2]": 2946,
  "[N][=C][C][=C][C][=C]": 1877,
  "[N][=C][C][Branch1][Ring1][O]": 632,
  "[N][=C][N][=C]": 2000,
  "[N][=C][N][=C][Ring1]": 2139,
  "[N][=C][N][=C][Ring1][#Branch1]": 6298,
  "[N][=C][N][=C][Ring1][#Branch1][Ring1][#Branch2]": 3145,
  "[N][=C][N][=C][Ring1][#C]": 1520,
  "[N][=C][N][=C][Ring1][S]": 653,
  "[N][=C][N][Ring1]": 3220,
  "[N][=C][N][Ring1][Branch1]": 5519,
  "[N][=C][N][Ring1][Branch1][C@@H1][O][C@H1]": 841,
  "[N][=C][N][Ring1][Branch1][C]": 1462,
  "[N][=C][N][Ring1][Branch1][C][C]": 2097,
  "[N][=C][Ring1]": 183697,
  "[N][=C][Ring1][#Branch1]": 20670,
  "[N][=C][Ring1][#Branch2]": 8571,
  "[N][=C][Ring1][#Branch2][C]": 649,
  "[N][=C][Ring1][#Branch2][Ring1][=Branch1]": 812,
  "[N][=C][Ring1][#C]": 6242,
  "[N][=C][Ring1][=Branch1]": 50673,
  "[N][=C][Ring1][=Branch1][C]": 3321,
  "[N][=C][Ring1][=Branch1][C][=Branch1][C][=O]": 1048,
  "[N][=C][Ring1][=Branch2]": 5114,
  "[N][=C][Ring1][=C]": 2581,
  "[N][=C][Ring1][=N]": 3998,
  "[N][=C][Ring1][Branch1]": 19102,
  "[N][=C][Ring1][Branch1][C]": 4587,
  "[N][=C][Ring1][Branch1][C][=Ring1][=Branch2]": 779,
  "[N][=C][Ring1][Branch1][C][C]": 731,
  "[N][=C][Ring1][Branch2]": 5758,
  "[N][=C][Ring1][N]": 2988,
  "[N][=C][Ring1][O]": 2631,
  "[N][=C][Ring1][O][C][=C][C][=C]": 886,
  "[N][=C][Ring1][P]": 4964,
  "[N][=C][Ring1][S]": 8505,
  "[N][=C][Ring2][Ring1]": 9404,
  "[N][=C][Ring2][Ring1][#Branch1]": 2865,
  "[N][=C][Ring2][Ring1][#Branch2]": 1730,
  "[N][=C][Ring2][Ring1][#C]": 625,
  "[N][=C][Ring2][Ring1][=Branch1]": 3052,
  "[N][=C][Ring2][Ring1][=Branch2]": 1846,
  "[N][=C][Ring2][Ring1][=N]": 732,
  "[N][=C][Ring2][Ring1][Branch1]": 3364,
  "[N][=C][Ring2][Ring1][Branch2]": 1791,
  "[N][=C][Ring2][Ring1][C]": 731,
  "[N][=C][Ring2][Ring1][N]": 616,
  "[N][=C][Ring2][Ring1][O]": 1210,
  "[N][=C][Ring2][Ring1][Ring1]": 3538,
  "[N][=C][Ring2][Ring1][Ring2]": 3332,
  "[N][=C][Ring2][Ring1][S]": 1598,
  "[N][=C][Ring2][Ring2]": 557,
  "[N][=C][S]": 3574,
  "[N][=N+1][=N-1]": 1835,
  "[N][=N]": 61338,
  "[N][=N][NH1]": 5238,
  "[N][=N][NH1][N][=Ring1][Branch1]": 2010,
  "[N][=N][NH1][Ring1][Branch1]": 2419,
  "[N][=N][N][Ring1][Branch1]": 2504,
  "[N][=N][N][Ring1][Branch1][C]": 1896,
  "[N][=N][N][Ring1][Branch1][C][C]": 1395,
  "[N][=N][Ring1][#Branch1]": 1047,
  "[N][=N][Ring1][#C]": 1815,
  "[N][=N][Ring1][=Branch1]": 879,
  "[N][=N][Ring1][=Branch2]": 576,
  "[N][=N][Ring1][=C]": 1636,
  "[N][=N][Ring1][=N]": 2207,
  "[N][=N][Ring1][Branch1]": 3705,
  "[N][=N][Ring1][Branch1][C]": 584,
  "[N][=N][Ring1][N]": 1812,
  "[N][=N][Ring1][O]": 1307,
  "[N][=N][Ring1][P]": 1615,
  "[N][=N][Ring1][S]": 1656,
  "[N][=N][Ring2][Ring1]": 1136,
  "[N][=N][Ring2][Ring1][=Branch1]": 693,
  "[N][=N][Ring2][Ring1][Branch1]": 601,
  "[N][=N][Ring2][Ring1][Ring1]": 789,
  "[N][=N][Ring2][Ring1][Ring2]": 664,
  "[N][=O]": 876,
  "[N][=Ring1]": 19561,
  "[N][=Ring1][#Branch1]": 630,
  "[N][=Ring1][#C]": 934,
  "[N][=Ring1][=Branch1]": 1032,
  "[N][=Ring1][=Branch2]": 1317,
  "[N][=Ring1][=N]": 618,
  "[N][=Ring1][Branch1]": 5734,
  "[N][=Ring1][Branch2]": 791,
  "[N][=Ring1][O]": 536,
  "[N][=Ring1][P]": 842,
  "[N][=Ring1][S]": 880,
  "[N][=Ring2]": 15767,
  "[N][=Ring2][Ring1][#Branch1]": 1085,
  "[N][=Ring2][Ring1][#Branch2]": 570,
  "[N][=Ring2][Ring1][=Branch1]": 962,
  "[N][=Ring2][Ring1][=Branch2]": 766,
  "[N][=Ring2][Ring1][=N]": 659,
  "[N][=Ring2][Ring1][Branch1]": 1397,
  "[N][=Ring2][Ring1][Branch2]": 1211,
  "[N][=Ring2][Ring1][C]": 894,
  "[N][=Ring2][Ring1][N]": 691,
  "[N][=Ring2][Ring1][Ring1]": 1139,
  "[N][=Ring2][Ring1][Ring2]": 1274,
  "[N][Branch1]": 288603,
  "[N][Branch1][#Branch1]": 5734,
  "[N][Branch1][#Branch1][C@H1][Branch1][C][C][C]": 556,
  "[N][Branch1][#Branch1][C][C][=Branch1][C][=O]": 560,
  "[N][Branch1][#Branch1][C][C][Branch1][C][C]": 1494,
  "[N][Branch1][#Branch2]": 9788,
  "[N][Branch1][#Branch2][C]": 11916,
  "[N][Branch1][#Branch2][C][=Branch1][C][=O]": 620,
  "[N][Branch1][#Branch2][C][C]": 1013,
  "[N][Branch1][#Branch2][C][C][=C][C][=C]": 1772,
  "[N][Branch1][#C]": 6625,
  "[N][Branch1][#C][C][C][=Branch1][C][=O]": 586,
  "[N][Branch1][=Branch1][C][Branch1][C][C]": 1236,
  "[N][Branch1][=Branch1][C][Branch1][C][C][=O]": 1591,
  "[N][Branch1][=Branch1][C][C][C][Ring1][Ring1]": 1758,
  "[N][Branch1][=Branch2]": 42839,
  "[N][Branch1][=Branch2][C]": 3115,
  "[N][Branch1][=C]": 5735,
  "[N][Branch1][=C][C][=Branch1][C][=O]": 636,
  "[N][Branch1][=C][C][C][=Branch1][C][=O]": 655,
  "[N][Branch1][=C][C][C][=C][C][=C]": 846,
  "[N][Branch1][=N]": 5353,
  "[N][Branch1][=N][C][=Branch1][C][=O]": 2353,
  "[N][Branch1][=N][C][=C][C][=C]": 1370,
  "[N][Branch1][=N][C][=C][C][=C][Branch1]": 631,
  "[N][Branch1][=N][C][C][=C][C][=C]": 3998,
  "[N][Branch1][Branch1][C][C]": 1056,
  "[N][Branch1][Branch2]": 1480,
  "[N][Branch1][Branch2][C][C][C][C]": 1854,
  "[N][Branch1][C][C]": 69150,
  "[N][Branch1][C][C][C@H1]": 975,
  "[N][Branch1][C][C][C]": 35613,
  "[N][Branch1][C][C][C][=Branch1][C][=O]": 8479,
  "[N][Branch1][C][C][C][=C][C][=C]": 912,
  "[N][Branch1][C][C][C][=N]": 1419,
  "[N][Branch1][C][C][C][=Ring1]": 1498,
  "[N][Branch1][C][C][C][=Ring1][#Branch1]": 821,
  "[N][Branch1][C][C][C][=Ring1][=Branch1]": 4481,
  "[N][Branch1][C][C][C][C]": 5393,
  "[N][Branch1][C][C][C][C][Ring1][#Branch1]": 11807,
  "[N][Branch1][C][C][N][Branch1][=Branch2]": 892,
  "[N][Branch1][C][O][C]": 783,
  "[N][Branch1][N][C][=Branch1][C][=O]": 1664,
  "[N][Branch1][N][C][=C][C][=C]": 6946,
  "[N][Branch1][N][C][=C][C][=C][C]": 2031,
  "[N][Branch1][N][C][C]": 1715,
  "[N][Branch1][N][C][C][N][Ring1][=N]": 647,
  "[N][Branch1][O][C]": 2092,
  "[N][Branch1][O][C][=Branch1][C][=O]": 551,
  "[N][Branch1][O][C][C]": 3717,
  "[N][Branch1][P]": 6948,
  "[N][Branch1][P][C][=Branch1][C][=O]": 675,
  "[N][Branch1][Ring1][C][C]": 1393,
  "[N][Branch1][Ring1][C][C][C][C]": 1769,
  "[N][Branch1][Ring2]": 3379,
  "[N][Branch1][Ring2][C][C]": 4973,
  "[N][Branch1][Ring2][C][C][C][C]": 1042,
  "[N][Branch1][Ring2][C][C][O][C][C]": 545,
  "[N][Branch1][Ring2][N][=Ring1]": 722,
  "[N][Branch1][S]": 3724,
  "[N][Branch1][S][C][=C][C][=C][Branch1]": 1205,
  "[N][Branch1][S][C][C][=C][C][=C]": 1681,
  "[N][Branch2][Branch1]": 7035,
  "[N][Branch2][Ring1]": 107131,
  "[N][Branch2][Ring1][#Branch1]": 2905,
  "[N][Branch2][Ring1][#Branch2]": 1381,
  "[N][Branch2][Ring1][#C]": 1353,
  "[N][Branch2][Ring1][=Branch1]": 1616,
  "[N][Branch2][Ring1][=Branch2]": 1820,
  "[N][Branch2][Ring1][=Branch2][C]": 583,
  "[N][Branch2][Ring1][=C]": 616,
  "[N][Branch2][Ring1][=N]": 546,
  "[N][Branch2][Ring1][Branch1]": 568,
  "[N][Branch2][Ring1][Branch1][C]": 817,
  "[N][Branch2][Ring1][Branch2]": 1995,
  "[N][Branch2][Ring1][C][C]": 828,
  "[N][Branch2][Ring1][C][C][=Branch1][C][=O]": 553,
  "[N][Branch2][Ring1][P]": 869,
  "[N][Branch2][Ring1][Ring1]": 8080,
  "[N][Branch2][Ring1][Ring1][C][=Branch1][C][=O]": 599,
  "[N][Branch2][Ring1][Ring2]": 6585,
  "[N][Branch2][Ring1][Ring2][C][=Branch1][C][=O]": 556,
  "[N][Branch2][Ring2]": 21224,
  "[N][Branch2][Ring2][#Branch1]": 588,
  "[N][Branch2][Ring2][Ring1]": 779,
  "[N][Branch2][Ring2][Ring2]": 1040,
  "[N][C@@H1]": 11554,
  "[N][C@@H1][Branch1]": 15134,
  "[N][C@@H1][Branch1][#Branch2][C]": 3772,
  "[N][C@@H1][Branch1][#C][C][C][=C][NH1]": 581,
  "[N][C@@H1][Branch1][C][C]": 2427,
  "[N][C@@H1][Branch2][Ring1]": 2139,
  "[N][C@@H1][C][C][C@H1]": 857,
  "[N][C@H1]": 14053,
  "[N][C@H1][Branch1]": 5891,
  "[N][C@H1][Branch1][C][C]": 944,
  "[N][C@H1][Branch1][Ring1][C][O]": 586,
  "[N][C@H1][Branch2][Ring1]": 730,
  "[N][C@H1][C][C][C@H1]": 2034,
  "[N][C]": 270021,
  "[N][C][/C][=C][/C][=C]": 888,
  "[N][C][=Branch1]": 1626,
  "[N][C][=Branch1][C][=N]": 3642,
  "[N][C][=Branch1][C][=N][N]": 1299,
  "[N][C][=Branch1][C][=O]": 430521,
  "[N][C][=Branch1][C][=O][C@@H1]": 12816,
  "[N][C][=Branch1][C][=O][C@@H1][Branch1]": 2518,
  "[N][C][=Branch1][C][=O][C@@H1][Branch2][Ring1]": 1382,
  "[N][C][=Branch1][C][=O][C@@H1][C][C@@H1]": 765,
  "[N][C][=Branch1][C][=O][C@H1]": 3030,
  "[N][C][=Branch1][C][=O][C@H1][Branch1]": 15564,
  "[N][C][=Branch1][C][=O][C]": 2720,
  "[N][C][=Branch1][C][=O][C][=C]": 676,
  "[N][C][=Branch1][C][=O][C][=N]": 2375,
  "[N][C][=Branch1][C][=O][C][Branch1][=Branch2]": 1013,
  "[N][C][=Branch1][C][=O][C][C]": 11889,
  "[N][C][=Branch1][C][=O][C][C][=C]": 957,
  "[N][C][=Branch1][C][=O][C][C][=N]": 1290,
  "[N][C][=Branch1][C][=O][C][C][Branch1]": 599,
  "[N][C][=Branch1][C][=O][C][N]": 2404,
  "[N][C][=Branch1][C][=O][C][O]": 2343,
  "[N][C][=Branch1][C][=O][C][Ring1][#Branch1]": 783,
  "[N][C][=Branch1][C][=O][C][S]": 2797,
  "[N][C][=Branch1][C][=O][NH1]": 572,
  "[N][C][=Branch1][C][=O][N]": 22692,
  "[N][C][=Branch1][C][=O][N][C@@H1]": 546,
  "[N][C][=Branch1][C][=O][N][C@@H1][Branch1]": 1971,
  "[N][C][=Branch1][C][=O][N][C]": 3821,
  "[N][C][=Branch1][C][=O][N][C][C]": 4207,
  "[N][C][=Branch1][C][=O][O]": 1463,
  "[N][C][=Branch1][C][=O][O][C]": 13347,
  "[N][C][=Branch1][C][=O][O][C][C]": 1395,
  "[N][C][=Branch1][C][=S]": 12935,
  "[N][C][=Branch1][C][=S][N]": 1661,
  "[N][C][=Branch1][C][=S][N][/N][=C]": 561,
  "[N][C][=Branch2]": 653,
  "[N][C][=C]": 12180,
  "[N][C][=C][Branch1]": 14214,
  "[N][C][=C][Branch1][=Branch2]": 1280,
  "[N][C][=C][Branch1][C][Br]": 580,
  "[N][C][=C][Branch1][C][C]": 2113,
  "[N][C][=C][Branch1][C][Cl]": 2073,
  "[N][C][=C][Branch1][C][F]": 1223,
  "[N][C][=C][Branch1][P]": 578,
  "[N][C][=C][Branch1][Ring1][C][#N]": 751,
  "[N][C][=C][Branch2][Ring1]": 4884,
  "[N][C][=C][Branch2][Ring2]": 1149,
  "[N][C][=C][C][=Branch1][C][=O]": 787,
  "[N][C][=C][C][=C]": 158537,
  "[N][C][=C][C][=C][Branch1]": 33464,
  "[N][C][=C][C][=C][Branch1][#Branch2]": 1099,
  "[N][C][=C][C][=C][Branch1][#Branch2][O]": 810,
  "[N][C][=C][C][=C][Branch1][#C]": 1195,
  "[N][C][=C][C][=C][Branch1][=Branch2]": 5214,
  "[N][C][=C][C][=C][Branch1][=Branch2][C]": 2780,
  "[N][C][=C][C][=C][Branch1][=C]": 1192,
  "[N][C][=C][C][=C][Branch1][Branch2]": 565,
  "[N][C][=C][C][=C][Branch1][C][Br]": 591,
  "[N][C][=C][C][=C][Branch1][C][Cl]": 5077,
  "[N][C][=C][C][=C][Branch1][C][F]": 4900,
  "[N][C][=C][C][=C][Branch1][P]": 1856,
  "[N][C][=C][C][=C][Branch1][S]": 722,
  "[N][C][=C][C][=C][Branch2][Ring1]": 12274,
  "[N][C][=C][C][=C][Branch2][Ring1][#Branch1]": 727,
  "[N][C][=C][C][=C][Branch2][Ring1][=Branch1]": 747,
  "[N][C][=C][C][=C][Branch2][Ring1][Ring1]": 674,
  "[N][C][=C][C][=C][Branch2][Ring1][Ring2]": 1054,
  "[N][C][=C][C][=C][Branch2][Ring2]": 1783,
  "[N][C][=C][C][=C][C]": 37365,
  "[N][C][=C][C][=C][C][=C][Ring1]": 5727,
  "[N][C][=C][C][=C][C][Branch1]": 3407,
  "[N][C][=C][C][=C][C][Branch1][#C]": 742,
  "[N][C][=C][C][=C][C][Branch1][=Branch2]": 975,
  "[N][C][=C][C][=C][C][Branch1][P]": 545,
  "[N][C][=C][C][=C][C][Branch1][S]": 724,
  "[N][C][=C][C][=C][C][Branch2][Ring1]": 3708,
  "[N][C][=C][C][=C][C][Ring1][=Branch1]": 753,
  "[N][C][=C][C][=C][NH1]": 1287,
  "[N][C][=C][C][=C][NH1][N][=C]": 554,
  "[N][C][=C][C][=C][N][=C]": 1415,
  "[N][C][=C][C][=C][Ring1][Branch1]": 2233,
  "[N][C][=C][C][=C][Ring1][Branch1][C]": 584,
  "[N][C][=C][C][=N]": 9545,
  "[N][C][=C][C][=N][C][=Ring1][=Branch2]": 985,
  "[N][C][=C][C][=N][Ring1][Branch1]": 1879,
  "[N][C][=C][C][Branch1]": 6448,
  "[N][C][=C][C][Branch1][=Branch2]": 1266,
  "[N][C][=C][C][Branch1][=Branch2][C]": 1445,
  "[N][C][=C][C][Branch1][C]": 608,
  "[N][C][=C][C][Branch1][C][Cl]": 2116,
  "[N][C][=C][C][Branch1][C][F]": 890,
  "[N][C][=C][C][Branch1][Ring1][O]": 675,
  "[N][C][=C][C][Branch2][Ring1]": 1477,
  "[N][C][=C][N][=C]": 6483,
  "[N][C][=C][N][=C][Ring1][Branch1]": 4507,
  "[N][C][=C][N][=C][Ring1][Branch1][C]": 934,
  "[N][C][=C][Ring1][S]": 664,
  "[N][C][=N]": 117420,
  "[N][C][=N][C][=Branch1][C][=O]": 551,
  "[N][C][=N][C][=C]": 1280,
  "[N][C][=N][C][=C][Branch1]": 2040,
  "[N][C][=N][C][=C][Branch1][=Branch2]": 773,
  "[N][C][=N][C][=C][Branch1][=Branch2][C]": 668,
  "[N][C][=N][C][=C][Branch1][=C]": 545,
  "[N][C][=N][C][=C][Branch1][C][Cl]": 1701,
  "[N][C][=N][C][=C][Branch1][C][F]": 976,
  "[N][C][=N][C][=C][Branch1][C][N]": 2700,
  "[N][C][=N][C][=C][Branch1][Ring2][S]": 640,
  "[N][C][=N][C][=C][Branch2][Ring1]": 997,
  "[N][C][=N][C][=C][C][=C]": 1441,
  "[N][C][=N][C][=C][C][Branch1]": 1178,
  "[N][C][=N][C][=C][C][Branch1][=Branch2]": 737,
  "[N][C][=N][C][=C][S][Ring1][Branch1]": 2603,
  "[N][C][=N][C][=N]": 14888,
  "[N][C][=N][C][=N][C][NH1]": 609,
  "[N][C][=N][C][=N][Ring1][Branch1]": 1641,
  "[N][C][=N][C][=N][S][Ring1][Branch1]": 641,
  "[N][C][=N][C][Branch1]": 3302,
  "[N][C][=N][C][Branch1][#C]": 707,
  "[N][C][=N][C][Branch1][=Branch2]": 3562,
  "[N][C][=N][C][Branch1][=C]": 649,
  "[N][C][=N][C][Branch1][Branch2]": 855,
  "[N][C][=N][C][Branch1][C]": 4039,
  "[N][C][=N][C][Branch1][C][N][=C]": 1081,
  "[N][C][=N][C][Branch1][C][N][=N]": 884,
  "[N][C][=N][C][Branch1][C][O]": 852,
  "[N][C][=N][C][Branch1][P]": 567,
  "[N][C][=N][C][Branch1][S]": 537,
  "[N][C][=N][C][Branch2][Ring1]": 931,
  "[N][C][=N][C][Branch2][Ring1][Ring2]": 596,
  "[N][C][=N][C][NH1]": 554,
  "[N][C][=N][NH1]": 1413,
  "[N][C][=N][N][=C]": 1004,
  "[N][C][=N][N][=C][Branch1]": 1134,
  "[N][C][=N][N][=C][Branch1][=Branch2]": 604,
  "[N][C][=N][N][=C][Branch2][Ring1]": 820,
  "[N][C][=N][N][=C][Ring1][Branch1]": 1075,
  "[N][C][=N][N][=N][Ring1][Branch1]": 1625,
  "[N][C][=O]": 794,
  "[N][C][=Ring1]": 1173,
  "[N][C][=Ring1][Branch1]": 836,
  "[N][C][Branch1]": 9368,
  "[N][C][Branch1][#Branch2]": 821,
  "[N][C][Branch1][#Branch2][C]": 957,
  "[N][C][Branch1][#C]": 797,
  "[N][C][Branch1][=Branch2]": 3982,
  "[N][C][Branch1][Branch2]": 1911,
  "[N][C][Branch1][C]": 4330,
  "[N][C][Branch1][C][C]": 5917,
  "[N][C][Branch1][C][C][=N]": 1469,
  "[N][C][Branch1][C][C][=O]": 9882,
  "[N][C][Branch1][C][C][Branch1][C][C]": 2178,
  "[N][C][Branch1][C][C][C]": 1422,
  "[N][C][Branch1][C][C][C][C]": 663,
  "[N][C][Branch1][C][N][=N]": 846,
  "[N][C][Branch1][C][N][=O]": 1405,
  "[N][C][Branch1][C][O]": 1917,
  "[N][C][Branch1][C][S]": 552,
  "[N][C][Branch1][C][S][=N]": 895,
  "[N][C][Branch1][N][C][=C][C][=C]": 856,
  "[N][C][Branch2][Ring1]": 2192,
  "[N][C][Branch2][Ring1][Ring1]": 820,
  "[N][C][Branch2][Ring1][Ring2]": 741,
  "[N][C][C@@H1]": 5469,
  "[N][C][C@@H1][Branch1][C][C]": 725,
  "[N][C][C@H1]": 5567,
  "[N][C][C@H1][Branch1][C][C]": 1241,
  "[N][C][C@H1][Branch1][C][O]": 1074,
  "[N][C][C]": 482669,
  "[N][C][C][=Branch1][C][=O]": 11941,
  "[N][C][C][=Branch1][C][=O][N]": 654,
  "[N][C][C][=Branch1][C][=O][O]": 1185,
  "[N][C][C][=C]": 4178,
  "[N][C][C][=C][Branch1]": 779,
  "[N][C][C][=C][C][=C]": 10854,
  "[N][C][C][=C][C][=C][Branch1]": 2022,
  "[N][C][C][=C][C][=C][Branch1][=Branch2]": 968,
  "[N][C][C][=C][C][=C][C]": 4940,
  "[N][C][C][=C][C][=C][C][Branch1]": 617,
  "[N][C][C][=C][C][=N]": 1075,
  "[N][C][C][=C][NH1]": 596,
  "[N][C][C][=C][N][=C]": 738,
  "[N][C][C][=C][N][Branch1]": 767,
  "[N][C][C][=N]": 3514,
  "[N][C][C][Branch1]": 1538,
  "[N][C][C][Branch1][=Branch2]": 1209,
  "[N][C][C][Branch1][C][C]": 1420,
  "[N][C][C][Branch1][C][C][=N]": 716,
  "[N][C][C][Branch1][C][O]": 1978,
  "[N][C][C][Branch1][C][O][C]": 1686,
  "[N][C][C][Branch2][Ring1]": 664,
  "[N][C][C][C@@H1]": 692,
  "[N][C][C][C@H1]": 1477,
  "[N][C][C][C]": 6890,
  "[N][C][C][C][=Branch1][C][=O]": 946,
  "[N][C][C][C][=Branch1][C][=O][N]": 757,
  "[N][C][C][C][=C][C][=C]": 1962,
  "[N][C][C][C][=C][NH1]": 1355,
  "[N][C][C][C][=N]": 1070,
  "[N][C][C][C][Branch1]": 9564,
  "[N][C][C][C][Branch1][#Branch2][C]": 964,
  "[N][C][C][C][Branch1][#C]": 554,
  "[N][C][C][C][Branch1][=Branch2]": 1716,
  "[N][C][C][C][Branch1][=C]": 550,
  "[N][C][C][C][Branch1][=N]": 646,
  "[N][C][C][C][Branch1][C][O]": 663,
  "[N][C][C][C][Branch1][P]": 725,
  "[N][C][C][C][Branch1][S]": 936,
  "[N][C][C][C][Branch2][Ring1]": 4328,
  "[N][C][C][C][Branch2][Ring1][#Branch1]": 556,
  "[N][C][C][C][Branch2][Ring1][Ring1]": 622,
  "[N][C][C][C][Branch2][Ring1][Ring2]": 621,
  "[N][C][C][C][Branch2][Ring2]": 1625,
  "[N][C][C][C][C@@H1]": 2253,
  "[N][C][C][C][C@H1]": 5892,
  "[N][C][C][C][C@H1][Ring1][Branch1][C]": 990,
  "[N][C][C][C][C]": 111841,
  "[N][C][C][C][C][=Branch1][C][=O]": 648,
  "[N][C][C][C][C][Branch2][Ring1]": 622,
  "[N][C][C][C][C][C][Branch1][Ring2]": 614,
  "[N][C][C][C][C][C][C]": 597,
  "[N][C][C][C][C][C][C][Ring1]": 555,
  "[N][C][C][C][C][C][N]": 618,
  "[N][C][C][C][C][C][Ring1][=Branch1]": 18390,
  "[N][C][C][C][C][C][Ring1][Branch1]": 3400,
  "[N][C][C][C][C][Ring1][Branch1]": 19209,
  "[N][C][C][C][C][Ring1][Branch1][=O]": 1623,
  "[N][C][C][C][C][Ring1][Branch1][C]": 3452,
  "[N][C][C][C][C][Ring1][Ring1]": 1415,
  "[N][C][C][C][C][Ring1][Ring2]": 835,
  "[N][C][C][C][N]": 5593,
  "[N][C][C][C][N][Branch1]": 2793,
  "[N][C][C][C][N][Branch1][#Branch2][C]": 554,
  "[N][C][C][C][N][Branch1][C][C]": 1852,
  "[N][C][C][C][N][Branch2][Ring1]": 1617,
  "[N][C][C][C][N][C][C]": 3860,
  "[N][C][C][C][O]": 2626,
  "[N][C][C][C][Ring1]": 8423,
  "[N][C][C][C][Ring1][Ring1]": 4119,
  "[N][C][C][C][Ring1][Ring2]": 1073,
  "[N][C][C][N]": 3627,
  "[N][C][C][N][Branch1]": 31703,
  "[N][C][C][N][Branch1][#Branch2]": 2309,
  "[N][C][C][N][Branch1][#Branch2][C]": 2183,
  "[N][C][C][N][Branch1][#C]": 1109,
  "[N][C][C][N][Branch1][=Branch2]": 5927,
  "[N][C][C][N][Branch1][=C]": 704,
  "[N][C][C][N][Branch1][=C][C][=N]": 652,
  "[N][C][C][N][Branch1][O]": 550,
  "[N][C][C][N][Branch1][O][C][C]": 571,
  "[N][C][C][N][Branch1][P]": 1819,
  "[N][C][C][N][Branch2][Branch1]": 1002,
  "[N][C][C][N][Branch2][Ring1]": 28711,
  "[N][C][C][N][Branch2][Ring1][#Branch1]": 1129,
  "[N][C][C][N][Branch2][Ring1][#Branch2]": 879,
  "[N][C][C][N][Branch2][Ring1][#C]": 559,
  "[N][C][C][N][Branch2][Ring1][=Branch2]": 1069,
  "[N][C][C][N][Branch2][Ring1][Branch1][C]": 574,
  "[N][C][C][N][Branch2][Ring1][Branch2]": 809,
  "[N][C][C][N][Branch2][Ring1][Ring1]": 3136,
  "[N][C][C][N][Branch2][Ring1][Ring2]": 2373,
  "[N][C][C][N][Branch2][Ring2]": 4262,
  "[N][C][C][N][Branch2][Ring2][Ring2]": 780,
  "[N][C][C][N][C][=Branch1][C][=O]": 2028,
  "[N][C][C][N][C][C]": 8861,
  "[N][C][C][N][C][C][Ring1][=Branch1]": 5226,
  "[N][C][C][O]": 2800,
  "[N][C][C][O][C][C@@H1]": 866,
  "[N][C][C][O][C][C]": 1334,
  "[N][C][C][O][C][C][Ring1][=Branch1]": 39568,
  "[N][C][C][Ring1][#Branch1]": 746,
  "[N][C][C][Ring1][=Branch1]": 2519,
  "[N][C][C][S]": 1832,
  "[N][C][C][S][C][C][Ring1][=Branch1]": 687,
  "[N][C][N]": 3184,
  "[N][C][N][=C]": 871,
  "[N][C][N][C][=Branch1][C][=O]": 903,
  "[N][C][N][C][C]": 1432,
  "[N][C][O]": 1554,
  "[N][C][O][C]": 2103,
  "[N][C][Ring1][#Branch2][=O]": 622,
  "[N][C][Ring1][=Branch1]": 879,
  "[N][C][S]": 2010,
  "[N][NH1]": 3991,
  "[N][N]": 3672,
  "[N][N][=C]": 14599,
  "[N][N][=C][Branch1]": 7371,
  "[N][N][=C][Branch1][=Branch2]": 1237,
  "[N][N][=C][Branch1][=Branch2][C]": 1121,
  "[N][N][=C][Branch1][C][C]": 1851,
  "[N][N][=C][Branch2][Ring1]": 2172,
  "[N][N][=C][C][=C][Ring1][Branch1]": 598,
  "[N][N][=C][C][=N][Ring1][Branch1]": 937,
  "[N][N][=C][N][=C][Ring1][Branch1]": 584,
  "[N][N][=N]": 5190,
  "[N][N][=N][N][=C][Ring1][Branch1]": 832,
  "[N][N][=N][N][=C][Ring1][Branch1][C]": 624,
  "[N][N][C]": 2603,
  "[N][N][C][=Branch1][C][=O]": 17723,
  "[N][N][C][=Branch1][C][=O][C][C]": 556,
  "[N][N][C][=N]": 1948,
  "[N][N][C][C]": 15398,
  "[N][N][C][C][C][C]": 680,
  "[N][O]": 8356,
  "[N][O][C]": 1443,
  "[N][O][C][=Branch1][C][=O]": 1879,
  "[N][O][C][C]": 5910,
  "[N][P][=Branch1][C][=O]": 1296,
  "[N][Ring1]": 216954,
  "[N][Ring1][#Branch1]": 10211,
  "[N][Ring1][#Branch1][C]": 690,
  "[N][Ring1][#Branch2]": 12088,
  "[N][Ring1][#Branch2][C]": 2036,
  "[N][Ring1][#C]": 10830,
  "[N][Ring1][#C][C]": 1035,
  "[N][Ring1][=Branch1]": 12168,
  "[N][Ring1][=Branch1][C]": 4297,
  "[N][Ring1][=Branch1][C][=Branch1][C][=O]": 2963,
  "[N][Ring1][=Branch1][C][=N]": 916,
  "[N][Ring1][=Branch2]": 13869,
  "[N][Ring1][=Branch2][C]": 4284,
  "[N][Ring1][=Branch2][C][=Branch1][C][=O]": 616,
  "[N][Ring1][=Branch2][C][C][=C][C][=C]": 648,
  "[N][Ring1][=Branch2][Ring1][=Branch1]": 1067,
  "[N][Ring1][=C]": 6162,
  "[N][Ring1][=C][C]": 1246,
  "[N][Ring1][=N]": 8522,
  "[N][Ring1][=N][C]": 968,
  "[N][Ring1][=N][C][C][C][Ring1][Ring1]": 833,
  "[N][Ring1][Branch1]": 21944,
  "[N][Ring1][Branch1][C]": 14370,
  "[N][Ring1][Branch1][C][=Branch1][C][=O]": 2783,
  "[N][Ring1][Branch1][C][=C][C][=C]": 1226,
  "[N][Ring1][Branch1][C][C]": 9906,
  "[N][Ring1][Branch1][C][C][C][C]": 1023,
  "[N][Ring1][Branch2]": 8360,
  "[N][Ring1][Branch2][C]": 554,
  "[N][Ring1][N]": 1724,
  "[N][Ring1][N][C]": 1466,
  "[N][Ring1][O]": 1668,
  "[N][Ring1][O][C]": 2200,
  "[N][Ring1][O][C][C]": 889,
  "[N][Ring1][P]": 9436,
  "[N][Ring1][P][C]": 986,
  "[N][Ring1][S]": 7099,
  "[N][Ring1][S][C]": 1183,
  "[N][Ring2][Ring1]": 60947,
  "[N][Ring2][Ring1][#Branch1]": 3747,
  "[N][Ring2][Ring1][#Branch2]": 2045,
  "[N][Ring2][Ring1][#C]": 1189,
  "[N][Ring2][Ring1][=Branch1]": 2919,
  "[N][Ring2][Ring1][=Branch1][C]": 909,
  "[N][Ring2][Ring1][=Branch2]": 2794,
  "[N][Ring2][Ring1][=Branch2][C]": 852,
  "[N][Ring2][Ring1][=C]": 984,
  "[N][Ring2][Ring1][=N]": 915,
  "[N][Ring2][Ring1][Branch1]": 2694,
  "[N][Ring2][Ring1][Branch1][C]": 1026,
  "[N][Ring2][Ring1][Branch2]": 3491,
  "[N][Ring2][Ring1][C]": 1182,
  "[N][Ring2][Ring1][C][C]": 1275,
  "[N][Ring2][Ring1][N]": 660,
  "[N][Ring2][Ring1][O]": 814,
  "[N][Ring2][Ring1][O][C]": 583,
  "[N][Ring2][Ring1][P]": 964,
  "[N][Ring2][Ring1][Ring1]": 4177,
  "[N][Ring2][Ring1][Ring1][C]": 1173,
  "[N][Ring2][Ring1][Ring2]": 4787,
  "[N][Ring2][Ring1][Ring2][C]": 587,
  "[N][Ring2][Ring1][S]": 689,
  "[N][Ring2][Ring2]": 931,
  "[N][S]": 985,
  "[N][S][=Branch1][C][=O][=Branch1][C][=O]": 41816,
  "[Na+1]": 10661,
  "[Na+1][Na+1]": 2900,
  "[NaH1]": 39,
  "[Na]": 2,
  "[O+1]": 57,
  "[O-1]": 118102,
  "[O-1][Cl+3][Branch1][C][O-1][Branch1][C][O-1]": 596,
  "[O-2]": 2,
  "[OH0]": 462,
  "[OH1+1]": 2,
  "[OH1-1]": 79,
  "[OH1]": 27,
  "[O]": 3904021,
  "[O][/C][=C][/C][=C]": 4553,
  "[O][/N][=C]": 673,
  "[O][/N][=C][/C][=C]": 602,
  "[O][=C]": 347621,
  "[O][=C][Branch1]": 77087,
  "[O][=C][Branch1][#Branch2]": 6432,
  "[O][=C][Branch1][#Branch2][C]": 1901,
  "[O][=C][Branch1][#Branch2][N]": 2674,
  "[O][=C][Branch1][#Branch2][N][C]": 833,
  "[O][=C][Branch1][#C]": 5516,
  "[O][=C][Branch1][=Branch2]": 6032,
  "[O][=C][Branch1][=C]": 6842,
  "[O][=C][Branch1][=N]": 6308,
  "[O][=C][Branch1][Branch2]": 1292,
  "[O][=C][Branch1][C][O-1]": 1633,
  "[O][=C][Branch1][C][O]": 35137,
  "[O][=C][Branch1][C][O][C@H1]": 998,
  "[O][=C][Branch1][C][O][C]": 27724,
  "[O][=C][Branch1][C][O][C][C]": 2174,
  "[O][=C][Branch1][C][O][C][C][C]": 595,
  "[O][=C][Branch1][N]": 967,
  "[O][=C][Branch1][N][C][=C][C][=C]": 1394,
  "[O][=C][Branch1][N][N][C][C]": 2018,
  "[O][=C][Branch1][O]": 825,
  "[O][=C][Branch1][O][/C][=C][/C][=C]": 932,
  "[O][=C][Branch1][O][C][C]": 1327,
  "[O][=C][Branch1][O][C][O]": 586,
  "[O][=C][Branch1][O][N]": 1059,
  "[O][=C][Branch1][O][N][C]": 2260,
  "[O][=C][Branch1][O][N][C][C]": 615,
  "[O][=C][Branch1][P]": 5894,
  "[O][=C][Branch1][Ring1][C][Cl]": 544,
  "[O][=C][Branch1][Ring1][N]": 1869,
  "[O][=C][Branch1][S]": 4598,
  "[O][=C][Branch2][Branch1]": 848,
  "[O][=C][Branch2][Ring1]": 64010,
  "[O][=C][Branch2][Ring1][#Branch1]": 3533,
  "[O][=C][Branch2][Ring1][#Branch2]": 2839,
  "[O][=C][Branch2][Ring1][#C]": 2562,
  "[O][=C][Branch2][Ring1][=Branch1]": 3357,
  "[O][=C][Branch2][Ring1][=Branch1][C]": 772,
  "[O][=C][Branch2][Ring1][=Branch2]": 3664,
  "[O][=C][Branch2][Ring1][=C]": 2546,
  "[O][=C][Branch2][Ring1][=N]": 2460,
  "[O][=C][Branch2][Ring1][Branch1]": 3284,
  "[O][=C][Branch2][Ring1][Branch1][C]": 642,
  "[O][=C][Branch2][Ring1][Branch1][C][C]": 649,
  "[O][=C][Branch2][Ring1][Branch1][N][C][C]": 543,
  "[O][=C][Branch2][Ring1][Branch2]": 3705,
  "[O][=C][Branch2][Ring1][C][N]": 1732,
  "[O][=C][Branch2][Ring1][N]": 1810,
  "[O][=C][Branch2][Ring1][O]": 899,
  "[O][=C][Branch2][Ring1][O][C]": 622,
  "[O][=C][Branch2][Ring1][P]": 2009,
  "[O][=C][Branch2][Ring1][Ring1]": 2516,
  "[O][=C][Branch2][Ring1][Ring1][N]": 1193,
  "[O][=C][Branch2][Ring1][Ring2]": 6217,
  "[O][=C][Branch2][Ring1][S]": 2067,
  "[O][=C][Branch2][Ring2]": 15444,
  "[O][=C][Branch2][Ring2][#Branch1]": 1495,
  "[O][=C][Branch2][Ring2][#Branch2]": 716,
  "[O][=C][Branch2][Ring2][=Branch1]": 1465,
  "[O][=C][Branch2][Ring2][=Branch2]": 954,
  "[O][=C][Branch2][Ring2][=C]": 578,
  "[O][=C][Branch2][Ring2][=N]": 588,
  "[O][=C][Branch2][Ring2][Branch1]": 957,
  "[O][=C][Branch2][Ring2][Branch2]": 1252,
  "[O][=C][Branch2][Ring2][Ring1]": 2035,
  "[O][=C][Branch2][Ring2][Ring2]": 1962,
  "[O][=C][C][=C]": 875,
  "[O][=C][C][=C][Branch1]": 966,
  "[O][=C][C][=C][Branch1][=Branch2]": 1133,
  "[O][=C][C][=C][Branch1][C][O]": 538,
  "[O][=C][C][=C][C][=C]": 1417,
  "[O][=C][C][Branch1][Ring1][O]": 583,
  "[O][=C][C][C]": 2375,
  "[O][=C][C][C][Branch1]": 772,
  "[O][=C][C][C][C]": 813,
  "[O][=C][C][S]": 986,
  "[O][=C][NH1]": 5539,
  "[O][=C][N]": 2559,
  "[O][=C][N][=C]": 617,
  "[O][=C][N][C]": 561,
  "[O][=C][N][C][=Branch1][C][=O]": 3208,
  "[O][=C][N][C][=Branch1][C][=S]": 672,
  "[O][=C][N][C][=C][C][=C]": 742,
  "[O][=C][N][C][C]": 911,
  "[O][=C][O]": 1321,
  "[O][=C][O][C]": 786,
  "[O][=C][Ring2][Ring1][#C]": 1479,
  "[O][=N+1][Branch1][C][O-1]": 9895,
  "[O][=N]": 2383,
  "[O][=P]": 2016,
  "[O][=P][Branch1][C][O]": 1461,
  "[O][=S][=Branch1][C][=O]": 14365,
  "[O][=S][=Branch1][C][=O][Branch1]": 1623,
  "[O][=S][=Branch1][C][=O][Branch1][=Branch2]": 1671,
  "[O][=S][=Branch1][C][=O][Branch1][C][O-1]": 574,
  "[O][=S][=Branch1][C][=O][Branch2][Ring1]": 625,
  "[O][C@@H1]": 58640,
  "[O][C@@H1][Branch1]": 8822,
  "[O][C@@H1][Branch1][=N][N]": 657,
  "[O][C@@H1][Branch1][C][C]": 1638,
  "[O][C@@H1][Branch1][C][C][C@H1]": 979,
  "[O][C@@H1][Branch1][C][O][C@H1]": 3026,
  "[O][C@@H1][Branch1][P]": 904,
  "[O][C@@H1][Branch1][Ring1][C][O]": 1069,
  "[O][C@@H1][C][C@H1]": 708,
  "[O][C@@H1][O][C@@H1][Branch1][C][C][C@H1]": 620,
  "[O][C@@H1][O][C@H1]": 3146,
  "[O][C@@H1][O][C@H1][Branch1]": 941,
  "[O][C@@H1][O][C@H1][Branch1][Ring1][C][O]": 4647,
  "[O][C@@H1][Ring1][#Branch1]": 588,
  "[O][C@@H1][Ring1][Ring1]": 821,
  "[O][C@@]": 3103,
  "[O][C@@][Branch1][C][C]": 852,
  "[O][C@@][Branch1][C][C][C][C][C@H1]": 1243,
  "[O][C@H1]": 46805,
  "[O][C@H1][Branch1]": 19796,
  "[O][C@H1][Branch1][C][C]": 1588,
  "[O][C@H1][Branch1][C][O][C@@H1]": 622,
  "[O][C@H1][Branch1][C][O][C@H1]": 1719,
  "[O][C@H1][Branch1][Ring1][C][O]": 11622,
  "[O][C@H1][Branch2][Ring1]": 696,
  "[O][C@H1][C][C@@][Branch1][C][C]": 774,
  "[O][C@H1][C][C@H1]": 1129,
  "[O][C@H1][C][C][C@H1]": 804,
  "[O][C@H1][O][C@H1][Branch1][Ring1][C][O]": 1067,
  "[O][C@H1][Ring1][#Branch1]": 611,
  "[O][C@H1][Ring1][#Branch2]": 760,
  "[O][C@H1][Ring1][Branch2]": 729,
  "[O][C@H1][Ring1][Ring1]": 644,
  "[O][C@]": 4622,
  "[O][C@][Branch1][C][C]": 1683,
  "[O][C@][Ring1][Ring1]": 964,
  "[O][C]": 754059,
  "[O][C][#C]": 2484,
  "[O][C][=Branch1][C][=O]": 132517,
  "[O][C][=Branch1][C][=O][C][C]": 823,
  "[O][C][=Branch1][C][=O][NH1]": 2111,
  "[O][C][=Branch1][C][=O][N]": 9595,
  "[O][C][=Branch1][C][=O][N][C@@H1][Branch1]": 1415,
  "[O][C][=Branch1][C][=O][N][C]": 2314,
  "[O][C][=Branch1][C][=O][N][C][C]": 3319,
  "[O][C][=Branch1][C][=O][O]": 5053,
  "[O][C][=Branch1][C][=O][O][C]": 1456,
  "[O][C][=C]": 5311,
  "[O][C][=C][Branch1]": 1714,
  "[O][C][=C][Branch1][C][C]": 561,
  "[O][C][=C][Branch1][C][Cl]": 854,
  "[O][C][=C][Branch1][C][F]": 642,
  "[O][C][=C][C]": 709,
  "[O][C][=C][C][=C]": 34526,
  "[O][C][=C][C][=C][Branch1]": 17055,
  "[O][C][=C][C][=C][Branch1][#C]": 795,
  "[O][C][=C][C][=C][Branch1][=Branch2]": 1175,
  "[O][C][=C][C][=C][Branch1][=Branch2][C]": 2123,
  "[O][C][=C][C][=C][Branch1][=C]": 682,
  "[O][C][=C][C][=C][Branch1][Branch2]": 591,
  "[O][C][=C][C][=C][Branch1][C][Br]": 543,
  "[O][C][=C][C][=C][Branch1][C][Cl]": 1904,
  "[O][C][=C][C][=C][Branch1][C][F]": 753,
  "[O][C][=C][C][=C][Branch1][P]": 1629,
  "[O][C][=C][C][=C][Branch1][S]": 576,
  "[O][C][=C][C][=C][Branch2][Ring1]": 12359,
  "[O][C][=C][C][=C][Branch2][Ring1][#Branch1]": 653,
  "[O][C][=C][C][=C][Branch2][Ring1][#C]": 918,
  "[O][C][=C][C][=C][Branch2][Ring1][=Branch2]": 579,
  "[O][C][=C][C][=C][Branch2][Ring1][Branch2]": 630,
  "[O][C][=C][C][=C][Branch2][Ring1][Ring1]": 586,
  "[O][C][=C][C][=C][Branch2][Ring1][Ring2]": 869,
  "[O][C][=C][C][=C][Branch2][Ring2]": 1521,
  "[O][C][=C][C][=C][C]": 7368,
  "[O][C][=C][C][=C][C][=C][Ring1]": 6465,
  "[O][C][=C][C][=C][C][Branch1]": 3132,
  "[O][C][=C][C][=C][C][Branch2][Ring1]": 574,
  "[O][C][=C][C][=C][NH1]": 877,
  "[O][C][=C][C][=N]": 1856,
  "[O][C][=C][C][Branch1]": 5179,
  "[O][C][=C][C][Branch1][C][Cl]": 704,
  "[O][C][=C][C][Branch1][C][O]": 3881,
  "[O][C][=C][N][=C]": 1322,
  "[O][C][=N]": 21068,
  "[O][C][=N][C]": 1041,
  "[O][C][=N][C][=N]": 1072,
  "[O][C][=N][C][Branch1][=Branch2]": 540,
  "[O][C][=Ring1]": 11930,
  "[O][C][=Ring1][#C]": 592,
  "[O][C][=Ring1][=Branch1]": 1190,
  "[O][C][=Ring1][=Branch1][C]": 1108,
  "[O][C][=Ring1][Branch1]": 4202,
  "[O][C][=Ring1][Branch1][C]": 1489,
  "[O][C][=Ring1][Branch1][C][=Branch1][C][=O]": 575,
  "[O][C][Branch1]": 29154,
  "[O][C][Branch1][#Branch2]": 1003,
  "[O][C][Branch1][#C]": 724,
  "[O][C][Branch1][=Branch2]": 5271,
  "[O][C][Branch1][=Branch2][C]": 986,
  "[O][C][Branch1][=C]": 714,
  "[O][C][Branch1][C]": 5134,
  "[O][C][Branch1][C][C]": 4234,
  "[O][C][Branch1][C][C][=O]": 6011,
  "[O][C][Branch1][C][C][Branch1][C][C]": 6955,
  "[O][C][Branch1][C][C][C]": 1863,
  "[O][C][Branch1][C][C][C][Ring1][Branch2]": 566,
  "[O][C][Branch1][C][N][=O]": 564,
  "[O][C][Branch1][C][O]": 1411,
  "[O][C][Branch1][N][C][=C][C][=C]": 2540,
  "[O][C][Branch1][P]": 1061,
  "[O][C][Branch1][Ring1][C][O]": 596,
  "[O][C][Branch1][Ring1][C][O][C]": 1151,
  "[O][C][Branch1][Ring1][O]": 1574,
  "[O][C][Branch1][S]": 630,
  "[O][C][Branch2][Ring1]": 3314,
  "[O][C][Branch2][Ring1][Ring1]": 990,
  "[O][C][Branch2][Ring1][Ring2]": 1137,
  "[O][C][C@@H1]": 7747,
  "[O][C][C@@H1][Branch1][C][O][C@H1]": 873,
  "[O][C][C@@H1][Branch1][C][O][C]": 648,
  "[O][C][C@@]": 991,
  "[O][C][C@H1]": 15612,
  "[O][C][C@H1][Branch1][C][C]": 543,
  "[O][C][C@H1][Branch1][C][O][C]": 649,
  "[O][C][C@H1][O][C@@H1]": 3095,
  "[O][C][C@H1][O][C@@H1][Branch1]": 1943,
  "[O][C][C@H1][O][C@@H1][Branch1][=N][N]": 580,
  "[O][C][C@H1][O][C@@H1][Branch1][P]": 644,
  "[O][C][C]": 332728,
  "[O][C][C][=Branch1][C][=O]": 26769,
  "[O][C][C][=Branch1][C][=O][N]": 1174,
  "[O][C][C][=Branch1][C][=O][N][C]": 855,
  "[O][C][C][=Branch1][C][=O][O]": 2317,
  "[O][C][C][=Branch1][C][=O][O][C]": 769,
  "[O][C][C][=C]": 987,
  "[O][C][C][=C][C][=C]": 6224,
  "[O][C][C][=C][C][=C][Branch1]": 2251,
  "[O][C][C][=C][C][=C][Branch1][S]": 693,
  "[O][C][C][=C][C][=C][C]": 2541,
  "[O][C][C][=C][C][=C][C][Branch1]": 570,
  "[O][C][C][=N]": 4946,
  "[O][C][C][Branch1][C][C]": 644,
  "[O][C][C][Branch1][C][C][C]": 1126,
  "[O][C][C][Branch1][C][O][C]": 3771,
  "[O][C][C][C@@H1]": 606,
  "[O][C][C][C]": 976,
  "[O][C][C][C][Branch1][C][C]": 554,
  "[O][C][C][C][C]": 22913,
  "[O][C][C][C][C][=Branch1][C][=O]": 1110,
  "[O][C][C][C][C][C][C]": 2756,
  "[O][C][C][C][C][C][Ring1][Branch1]": 1604,
  "[O][C][C][C][C][Ring1][Ring1]": 1609,
  "[O][C][C][C][N]": 1866,
  "[O][C][C][C][N][Branch1]": 1559,
  "[O][C][C][C][N][C][C]": 2542,
  "[O][C][C][C][O]": 3069,
  "[O][C][C][C][O][C]": 572,
  "[O][C][C][C][O][Ring1][Branch2]": 686,
  "[O][C][C][C][Ring1][=C]": 649,
  "[O][C][C][N]": 714,
  "[O][C][C][N][Branch1][C][C][C]": 643,
  "[O][C][C][N][C][=Branch1][C][=O]": 1271,
  "[O][C][C][N][C][C]": 2102,
  "[O][C][C][N][C][C][C][C]": 545,
  "[O][C][C][O]": 16115,
  "[O][C][C][O][C]": 1219,
  "[O][C][C][O][C][C]": 6712,
  "[O][C][C][O][Ring1][#Branch1]": 7659,
  "[O][C][C][O][Ring1][=Branch1]": 896,
  "[O][C][C][Ring1][#Branch2]": 602,
  "[O][C][C][Ring1][=Branch1]": 53653,
  "[O][C][C][Ring1][=Branch1][C]": 7088,
  "[O][C][C][Ring2][Ring1][P]": 705,
  "[O][C][N]": 1095,
  "[O][C][N][C][=Branch1][C][=O]": 1565,
  "[O][C][N][C][C][C][C]": 872,
  "[O][C][O]": 40543,
  "[O][C][O][C][=Branch1][C][=O]": 1055,
  "[O][C][O][Ring1][#Branch1]": 2108,
  "[O][C][O][Ring1][#Branch2]": 648,
  "[O][C][O][Ring1][=Branch2]": 764,
  "[O][C][O][Ring1][Branch1]": 876,
  "[O][C][O][Ring1][Branch2]": 1628,
  "[O][C][Ring1][#Branch1]": 1443,
  "[O][C][Ring1][#Branch2]": 995,
  "[O][C][Ring1][#Branch2][=O]": 580,
  "[O][C][Ring1][#C]": 3226,
  "[O][C][Ring1][#C][=O]": 847,
  "[O][C][Ring1][=Branch1]": 1029,
  "[O][C][Ring1][=Branch1][=O]": 874,
  "[O][C][Ring1][=Branch2]": 614,
  "[O][C][Ring1][=C]": 1717,
  "[O][C][Ring1][=N]": 1953,
  "[O][C][Ring1][=N][=C][Ring1][P]": 548,
  "[O][C][Ring1][Branch1]": 2870,
  "[O][C][Ring1][Branch1][=O]": 1214,
  "[O][C][Ring1][N]": 565,
  "[O][C][Ring1][N][=O]": 816,
  "[O][C][Ring1][O]": 1205,
  "[O][C][Ring1][O][=O]": 1348,
  "[O][C][Ring1][P]": 1127,
  "[O][C][Ring1][S]": 951,
  "[O][C][Ring2][Ring1]": 1006,
  "[O][C][Ring2][Ring1][Ring1]": 546,
  "[O][C][Ring2][Ring1][Ring2]": 572,
  "[O][C][S]": 1481,
  "[O][N]": 8090,
  "[O][N][=C][Ring1][Branch1]": 836,
  "[O][N][=Ring1]": 4939,
  "[O][N][=Ring1][#C]": 760,
  "[O][N][=Ring1][Branch1]": 1295,
  "[O][N][=Ring2]": 1744,
  "[O][N][C]": 9334,
  "[O][N][C][=Branch1][C][=O]": 10669,
  "[O][N][C][=N]": 1869,
  "[O][N][C][C]": 5418,
  "[O][N][C][C][C][C]": 2326,
  "[O][O]": 15780,
  "[O][O][C]": 15170,
  "[O][O][C][=Branch1][C][=O]": 1172,
  "[O][O][C][C]": 4598,
  "[O][O][C][C][C][C][C][C]": 726,
  "[O][O][Ring1][#C]": 962,
  "[O][O][Ring1][=N]": 1117,
  "[O][O][Ring1][Branch2]": 639,
  "[O][Ring1][#Branch1]": 3636,
  "[O][Ring1][#Branch2]": 5930,
  "[O][Ring1][#C]": 4689,
  "[O][Ring1][=Branch1]": 8278,
  "[O][Ring1][=Branch1][C]": 753,
  "[O][Ring1][=Branch2]": 7332,
  "[O][Ring1][=C]": 5612,
  "[O][Ring1][=N]": 4745,
  "[O][Ring1][Branch1]": 7171,
  "[O][Ring1][Branch1][C]": 1423,
  "[O][Ring1][Branch1][C][=Branch1][C][=O]": 546,
  "[O][Ring1][Branch2]": 6232,
  "[O][Ring1][N]": 4799,
  "[O][Ring1][O]": 4375,
  "[O][Ring1][P]": 4064,
  "[O][Ring1][S]": 3824,
  "[O][Ring2][Ring1]": 1611,
  "[O][Ring2][Ring1][#Branch1]": 1820,
  "[O][Ring2][Ring1][#Branch2]": 1409,
  "[O][Ring2][Ring1][=Branch1]": 2096,
  "[O][Ring2][Ring1][=Branch2]": 1658,
  "[O][Ring2][Ring1][=C]": 944,
  "[O][Ring2][Ring1][=N]": 968,
  "[O][Ring2][Ring1][Branch1]": 2125,
  "[O][Ring2][Ring1][Branch2]": 1836,
  "[O][Ring2][Ring1][C]": 2206,
  "[O][Ring2][Ring1][N]": 1154,
  "[O][Ring2][Ring1][O]": 1142,
  "[O][Ring2][Ring1][Ring1]": 2892,
  "[O][Ring2][Ring1][Ring2]": 2811,
  "[O][Ring2][Ring1][S]": 539,
  "[O][S]": 846,
  "[O][S][=Branch1][C][=O][=Branch1][C][=O]": 6181,
  "[O][S][C]": 1495,
  "[P+1]": 1543,
  "[P+1][Branch1][=Branch2]": 908,
  "[P-1]": 209,
  "[P@+1]": 11,
  "[P@@+1]": 7,
  "[P@@]": 397,
  "[P@]": 390,
  "[PH1]": 222,
  "[PH2+1]": 1,
  "[P]": 410582,
  "[P][=Branch1][C][=O]": 31665,
  "[P][=Branch1][C][=O][Branch1]": 1060,
  "[P][=Branch1][C][=O][Branch1][C][O-1]": 3078,
  "[P][=Branch1][C][=O][Branch1][C][O-1][O-1]": 826,
  "[P][=Branch1][C][=O][Branch1][C][O-1][O]": 666,
  "[P][=Branch1][C][=O][Branch1][C][O]": 17664,
  "[P][=Branch1][C][=O][Branch1][C][O][C]": 923,
  "[P][=Branch1][C][=O][Branch1][C][O][O]": 9745,
  "[P][=Branch1][C][=S]": 700,
  "[P][C][=Branch1][C][=O]": 3691,
  "[P][C][=Branch1][C][=O][N]": 3834,
  "[P][C][=C][C][=C][Branch1]": 1707,
  "[P][C][=N]": 4587,
  "[P][N][C][=Branch1][C][=O]": 9555,
  "[P][Ring1][=Branch1]": 2088,
  "[P][S][=Branch1][C][=O][=Branch1][C][=O]": 4385,
  "[Ra]": 2,
  "[Rb+1]": 9,
  "[Rb]": 1,
  "[Ring1]": 8459733,
  "[Ring1][#Branch1]": 130280,
  "[Ring1][#Branch1][=C]": 595,
  "[Ring1][#Branch1][=O]": 660,
  "[Ring1][#Branch2]": 120015,
  "[Ring1][#Branch2][=O]": 3700,
  "[Ring1][#Branch2][C]": 591,
  "[Ring1][#Branch2][C][C][Ring1][S]": 982,
  "[Ring1][#Branch2][O]": 565,
  "[Ring1][#C]": 69107,
  "[Ring1][#C][=O]": 967,
  "[Ring1][=Branch1]": 372031,
  "[Ring1][=Branch1][=C]": 1588,
  "[Ring1][=Branch1][=N]": 2105,
  "[Ring1][=Branch1][=O]": 3316,
  "[Ring1][=Branch1][C@@]": 594,
  "[Ring1][=Branch1][C]": 53381,
  "[Ring1][=Branch1][C][=Branch1][C][=O]": 17434,
  "[Ring1][=Branch1][C][=Branch1][C][=O][N]": 987,
  "[Ring1][=Branch1][C][=Branch1][C][=O][O]": 2165,
  "[Ring1][=Branch1][C][=C][C][=C]": 648,
  "[Ring1][=Branch1][C][=N]": 1715,
  "[Ring1][=Branch1][C][C]": 739,
  "[Ring1][=Branch1][C][C][Ring1][#C]": 1378,
  "[Ring1][=Branch1][C][C][Ring1][S]": 1538,
  "[Ring1][=Branch1][C][Ring1][=N]": 727,
  "[Ring1][=Branch1][C][Ring1][Branch1]": 699,
  "[Ring1][=Branch1][N][C][=Branch1][C][=O]": 1434,
  "[Ring1][=Branch1][O]": 1013,
  "[Ring1][=Branch1][O][C][O]": 795,
  "[Ring1][=Branch2]": 101615,
  "[Ring1][=Branch2][=O]": 1625,
  "[Ring1][=Branch2][C]": 6605,
  "[Ring1][=Branch2][C][=C][Ring1][#C]": 878,
  "[Ring1][=Branch2][O]": 813,
  "[Ring1][=Branch2][O][O][Ring1][#C]": 784,
  "[Ring1][=C]": 72634,
  "[Ring1][=C][=O]": 3338,
  "[Ring1][=C][C]": 585,
  "[Ring1][=C][O]": 1043,
  "[Ring1][=N]": 87865,
  "[Ring1][=N][=O]": 1030,
  "[Ring1][Branch1]": 160462,
  "[Ring1][Branch1][=C]": 572,
  "[Ring1][Branch1][=O]": 1301,
  "[Ring1][Branch1][C]": 55972,
  "[Ring1][Branch1][C][=Branch1][C][=O]": 21338,
  "[Ring1][Branch1][C][=Branch1][C][=O][O]": 1059,
  "[Ring1][Branch1][C][=N]": 1334,
  "[Ring1][Branch1][C][C]": 20649,
  "[Ring1][Branch1][C][C][=Branch1][C][=O]": 552,
  "[Ring1][Branch1][C][C][C]": 587,
  "[Ring1][Branch1][C][C][C][C]": 939,
  "[Ring1][Branch1][C][C][Ring1][#Branch2]": 651,
  "[Ring1][Branch1][C][C][Ring1][#C]": 910,
  "[Ring1][Branch1][C][C][Ring1][=C]": 1021,
  "[Ring1][Branch1][C][C][Ring1][=N]": 2853,
  "[Ring1][Branch1][C][C][Ring1][N]": 878,
  "[Ring1][Branch1][C][C][Ring1][O]": 760,
  "[Ring1][Branch1][C][N]": 1568,
  "[Ring1][Branch1][C][O]": 1653,
  "[Ring1][Branch2]": 69963,
  "[Ring1][Branch2][=O]": 963,
  "[Ring1][Branch2][O]": 3716,
  "[Ring1][C]": 92504,
  "[Ring1][C][#N]": 47635,
  "[Ring1][C][#N][=C]": 7290,
  "[Ring1][C][#N][=C][Branch1][C][N]": 1714,
  "[Ring1][C][#N][=C][Ring1][Branch2]": 2256,
  "[Ring1][C][#N][C][=C][Ring1][Branch2]": 9724,
  "[Ring1][C][=N]": 1090,
  "[Ring1][C][=O]": 6693,
  "[Ring1][C][Br]": 661,
  "[Ring1][C][C]": 23872,
  "[Ring1][C][C][=C][C][=C][Branch1][Branch2]": 750,
  "[Ring1][C][C][C]": 2577,
  "[Ring1][C][C][C][=C][Ring1][Branch2]": 567,
  "[Ring1][C][C][C][C]": 13034,
  "[Ring1][C][Cl]": 2246,
  "[Ring1][C][F]": 1683,
  "[Ring1][C][N]": 5337,
  "[Ring1][C][N][C][=C][Ring1][Branch2]": 604,
  "[Ring1][C][O]": 45452,
  "[Ring1][C][O][C]": 6858,
  "[Ring1][C][O][C][=Branch1][C][=O]": 861,
  "[Ring1][C][O][C][=C][Ring1][Branch2]": 1253,
  "[Ring1][C][O][C][O]": 1031,
  "[Ring1][C][S]": 1015,
  "[Ring1][N]": 67362,
  "[Ring1][N][=C]": 6575,
  "[Ring1][N][=C][Ring1][S]": 563,
  "[Ring1][N][=O]": 4394,
  "[Ring1][N][C]": 6319,
  "[Ring1][N][C][=Branch1][C][=O]": 5028,
  "[Ring1][N][C][=C][C][=C]": 1397,
  "[Ring1][N][C][=C][C][=N]": 732,
  "[Ring1][N][C][=N]": 697,
  "[Ring1][N][C][C]": 9412,
  "[Ring1][N][C][C][N][Branch1][=Branch2]": 979,
  "[Ring1][N][N][=C]": 788,
  "[Ring1][N][N][=C][C][Branch1][=N]": 556,
  "[Ring1][N][O]": 1074,
  "[Ring1][O]": 161532,
  "[Ring1][O][=C]": 6488,
  "[Ring1][O][=O]": 6225,
  "[Ring1][O][C]": 59276,
  "[Ring1][O][C][=Branch1][C][=O]": 1858,
  "[Ring1][O][C][Branch1][C][C][=O]": 606,
  "[Ring1][O][C][C]": 42124,
  "[Ring1][O][C][C][=Branch1][C][=O]": 1241,
  "[Ring1][O][C][C][=C][Ring1][Branch2]": 19775,
  "[Ring1][O][C][C][Branch1][Ring1][O]": 16586,
  "[Ring1][O][C][C][Branch2][Ring1]": 756,
  "[Ring1][O][C][C][Ring1][P]": 1264,
  "[Ring1][O][Ring1][#Branch1]": 2022,
  "[Ring1][O][Ring1][=Branch1]": 1146,
  "[Ring1][P]": 55774,
  "[Ring1][P][=O]": 2605,
  "[Ring1][P][C][=C][Ring2][Ring1][#Branch1]": 559,
  "[Ring1][P][O]": 639,
  "[Ring1][Ring1]": 31796,
  "[Ring1][Ring1][=C]": 1361,
  "[Ring1][Ring1][=N]": 1594,
  "[Ring1][Ring1][C]": 2511,
  "[Ring1][Ring2]": 19753,
  "[Ring1][S]": 64455,
  "[Ring1][S][=O]": 2496,
  "[Ring1][S][C]": 4499,
  "[Ring1][S][C][=C][Ring2][Ring1][#Branch1]": 559,
  "[Ring1][S][C][=N]": 820,
  "[Ring1][S][C][C][=Branch1][C][=O]": 837,
  "[Ring1][S][C][C][=C][Ring1][Branch2]": 902,
  "[Ring1][S][C][C][Ring2][Ring1][=Branch1]": 576,
  "[Ring1][S][O]": 1696,
  "[Ring2]": 2750739,
  "[Ring2][=Branch1]": 800,
  "[Ring2][Branch1]": 18817,
  "[Ring2][Branch1][#Branch1]": 1414,
  "[Ring2][Branch1][#Branch2]": 733,
  "[Ring2][Branch1][#C]": 555,
  "[Ring2][Branch1][=Branch1]": 1307,
  "[Ring2][Branch1][=Branch2]": 1176,
  "[Ring2][Branch1][=N]": 631,
  "[Ring2][Branch1][Branch1]": 1282,
  "[Ring2][Branch1][Branch2]": 1105,
  "[Ring2][Branch1][C]": 1856,
  "[Ring2][Branch1][O]": 576,
  "[Ring2][Branch1][Ring1]": 1280,
  "[Ring2][Branch1][Ring2]": 1995,
  "[Ring2][C][C]": 14197,
  "[Ring2][C][C][#N]": 965,
  "[Ring2][C][C][O]": 621,
  "[Ring2][C][C][O][C][C]": 1569,
  "[Ring2][C][C][O][C][C][Ring1][=Branch2]": 1162,
  "[Ring2][O][C][C]": 823,
  "[Ring2][Ring1]": 1555363,
  "[Ring2][Ring1][#Branch1]": 38351,
  "[Ring2][Ring1][#Branch1][=O]": 2092,
  "[Ring2][Ring1][#Branch1][O]": 654,
  "[Ring2][Ring1][#Branch2]": 26210,
  "[Ring2][Ring1][#Branch2][=O]": 1940,
  "[Ring2][Ring1][#Branch2][C]": 659,
  "[Ring2][Ring1][#Branch2][O]": 786,
  "[Ring2][Ring1][#C]": 16500,
  "[Ring2][Ring1][#C][=O]": 1154,
  "[Ring2][Ring1][#C][C]": 604,
  "[Ring2][Ring1][#C][O]": 564,
  "[Ring2][Ring1][=Branch1]": 39264,
  "[Ring2][Ring1][=Branch1][=C][Ring2][Ring1][#Branch2]": 627,
  "[Ring2][Ring1][=Branch1][=O]": 2406,
  "[Ring2][Ring1][=Branch1][C]": 3062,
  "[Ring2][Ring1][=Branch1][O]": 657,
  "[Ring2][Ring1][=Branch2]": 27974,
  "[Ring2][Ring1][=Branch2][=O]": 1988,
  "[Ring2][Ring1][=Branch2][C]": 1157,
  "[Ring2][Ring1][=Branch2][O]": 903,
  "[Ring2][Ring1][=C]": 15442,
  "[Ring2][Ring1][=C][=O]": 1034,
  "[Ring2][Ring1][=C][O]": 766,
  "[Ring2][Ring1][=N]": 17202,
  "[Ring2][Ring1][=N][=O]": 1400,
  "[Ring2][Ring1][=N][O]": 568,
  "[Ring2][Ring1][Branch1]": 41149,
  "[Ring2][Ring1][Branch1][=C][Ring2][Ring1][=Branch2]": 760,
  "[Ring2][Ring1][Branch1][=O]": 2764,
  "[Ring2][Ring1][Branch1][C]": 3074,
  "[Ring2][Ring1][Branch1][C][=C][Ring2][Ring1][O]": 602,
  "[Ring2][Ring1][Branch1][C][C]": 877,
  "[Ring2][Ring1][Branch1][O]": 1578,
  "[Ring2][Ring1][Branch2]": 31045,
  "[Ring2][Ring1][Branch2][=O]": 2070,
  "[Ring2][Ring1][Branch2][O]": 1017,
  "[Ring2][Ring1][C]": 29817,
  "[Ring2][Ring1][C][=O]": 3910,
  "[Ring2][Ring1][C][C]": 3488,
  "[Ring2][Ring1][C][C][=C][Ring2][Ring1][Branch2]": 918,
  "[Ring2][Ring1][C][N]": 601,
  "[Ring2][Ring1][C][O]": 1518,
  "[Ring2][Ring1][N]": 16326,
  "[Ring2][Ring1][N][=O]": 1352,
  "[Ring2][Ring1][N][C]": 867,
  "[Ring2][Ring1][N][O]": 736,
  "[Ring2][Ring1][O]": 19046,
  "[Ring2][Ring1][O][=O]": 1565,
  "[Ring2][Ring1][O][C]": 1283,
  "[Ring2][Ring1][O][O]": 781,
  "[Ring2][Ring1][P]": 14508,
  "[Ring2][Ring1][P][=O]": 926,
  "[Ring2][Ring1][P][C]": 1318,
  "[Ring2][Ring1][Ring1]": 46035,
  "[Ring2][Ring1][Ring1][=C]": 884,
  "[Ring2][Ring1][Ring1][=C][Ring2][Ring1][#Branch1]": 914,
  "[Ring2][Ring1][Ring1][=N]": 685,
  "[Ring2][Ring1][Ring1][=O]": 3074,
  "[Ring2][Ring1][Ring1][C]": 2306,
  "[Ring2][Ring1][Ring1][C][=C][Ring2][Ring1][=Branch2]": 678,
  "[Ring2][Ring1][Ring1][O]": 1421,
  "[Ring2][Ring1][Ring2]": 48128,
  "[Ring2][Ring1][Ring2][=O]": 2862,
  "[Ring2][Ring1][Ring2][C]": 1335,
  "[Ring2][Ring1][Ring2][O]": 897,
  "[Ring2][Ring1][S]": 14380,
  "[Ring2][Ring1][S][=O]": 946,
  "[Ring2][Ring1][S][O]": 584,
  "[Ring2][Ring2]": 176649,
  "[Ring2][Ring2][#Branch1]": 7603,
  "[Ring2][Ring2][#Branch2]": 4075,
  "[Ring2][Ring2][#C]": 2652,
  "[Ring2][Ring2][=Branch1]": 7899,
  "[Ring2][Ring2][=Branch1][=O]": 612,
  "[Ring2][Ring2][=Branch2]": 5297,
  "[Ring2][Ring2][=C]": 2588,
  "[Ring2][Ring2][=N]": 2799,
  "[Ring2][Ring2][Branch1]": 9242,
  "[Ring2][Ring2][Branch1][=O]": 906,
  "[Ring2][Ring2][Branch2]": 6300,
  "[Ring2][Ring2][Branch2][=O]": 553,
  "[Ring2][Ring2][C]": 10570,
  "[Ring2][Ring2][C][=O]": 1420,
  "[Ring2][Ring2][N]": 2329,
  "[Ring2][Ring2][O]": 2534,
  "[Ring2][Ring2][P]": 2117,
  "[Ring2][Ring2][Ring1]": 23580,
  "[Ring2][Ring2][Ring1][=O]": 1216,
  "[Ring2][Ring2][Ring1][C]": 962,
  "[Ring2][Ring2][Ring2]": 11713,
  "[Ring2][Ring2][Ring2][=O]": 1108,
  "[Ring2][Ring2][Ring2][C]": 557,
  "[Ring2][Ring2][S]": 2188,
  "[Ring2][S][=Branch1][C][=O][=Branch1][C][=O]": 544,
  "[S+1]": 6641,
  "[S+1][Branch1][C][C]": 852,
  "[S+1][Branch1][C][C][O-1]": 738,
  "[S+1][Branch1][C][O-1]": 4313,
  "[S-1]": 347,
  "[S-2]": 1,
  "[S@+1]": 240,
  "[S@@+1]": 252,
  "[S@@]": 40,
  "[S@]": 24,
  "[SH0]": 4,
  "[SH1+1]": 10,
  "[SH1-1]": 1,
  "[SH1]": 21,
  "[SH2]": 1,
  "[S]": 1103704,
  "[S][/C]": 2102,
  "[S][=Branch1][C][=O][=Branch1][C][=O]": 217959,
  "[S][=Branch1][C][=O][=Branch1][C][=O][C]": 998,
  "[S][=Branch1][C][=O][=Branch1][C][=O][N]": 3053,
  "[S][=Branch1][C][=O][=Branch1][C][=O][O-1]": 3167,
  "[S][=Branch1][C][=O][=Branch1][C][=O][O]": 3070,
  "[S][=C]": 1253,
  "[S][=C][Branch1]": 1308,
  "[S][Branch1][C][C]": 22405,
  "[S][Branch1][C][C][=Branch1][C][=O][=O]": 21740,
  "[S][Branch1][C][N][=Branch1][C][=O][=O]": 10978,
  "[S][C@@H1]": 930,
  "[S][C]": 76902,
  "[S][C][=Branch1][C][=O]": 5451,
  "[S][C][=Branch1][C][=O][N]": 2526,
  "[S][C][=Branch1][C][=O][N][C][C]": 2106,
  "[S][C][=Branch1][C][=S]": 1943,
  "[S][C][=C][Branch1]": 899,
  "[S][C][=C][C][=C]": 5468,
  "[S][C][=C][C][=C][Branch1]": 9671,
  "[S][C][=C][C][=C][C]": 3142,
  "[S][C][=C][C][=C][C][=C][Ring1]": 3174,
  "[S][C][=C][C][=C][C][Branch1]": 2061,
  "[S][C][=C][C][=Ring1][Branch1]": 939,
  "[S][C][=C][C][Branch1]": 559,
  "[S][C][=N]": 24741,
  "[S][C][=N][C][Branch1]": 893,
  "[S][C][=N][C][Branch1][=Branch2]": 720,
  "[S][C][=N][N][=C]": 617,
  "[S][C][=N][N][=C][Branch1]": 1127,
  "[S][C][=N][N][=C][Branch1][=Branch2]": 573,
  "[S][C][=Ring1]": 12327,
  "[S][C][=Ring1][=Branch1]": 1184,
  "[S][C][=Ring1][Branch1]": 7510,
  "[S][C][=Ring1][Branch1][C]": 1651,
  "[S][C][=Ring1][Branch1][C][=Branch1][C][=O]": 1649,
  "[S][C][=Ring1][Branch1][C][C]": 871,
  "[S][C][=Ring2]": 2873,
  "[S][C][=Ring2][Ring1][Ring1]": 541,
  "[S][C][Branch1]": 910,
  "[S][C][Branch1][=Branch2]": 1073,
  "[S][C][Branch1][C]": 1469,
  "[S][C][Branch1][C][C]": 1040,
  "[S][C][Branch1][C][C][Branch1][C][C]": 1135,
  "[S][C][Branch1][C][F][Branch1][C][F]": 576,
  "[S][C][Branch2][Ring1]": 785,
  "[S][C][C@@H1]": 812,
  "[S][C][C@H1]": 1024,
  "[S][C][C]": 11559,
  "[S][C][C][=Branch1][C][=O]": 6841,
  "[S][C][C][=Branch1][C][=O][N]": 4303,
  "[S][C][C][=Branch1][C][=O][N][C]": 1337,
  "[S][C][C][=Branch1][C][=O][O]": 605,
  "[S][C][C][=C]": 580,
  "[S][C][C][=C][C][=C]": 8824,
  "[S][C][C][=C][C][=C][Branch1]": 659,
  "[S][C][C][=C][C][=C][C]": 780,
  "[S][C][C][=C][C][Branch1][C][F]": 947,
  "[S][C][C][=N]": 1487,
  "[S][C][C][C]": 760,
  "[S][C][C][C][=C][NH1]": 676,
  "[S][C][C][C][C]": 937,
  "[S][C][C][C][N]": 737,
  "[S][C][C][N][C][=Branch1][C][=O]": 540,
  "[S][C][C][Ring1][=Branch1]": 643,
  "[S][C][Ring1][#Branch1]": 747,
  "[S][C][Ring1][Branch1]": 1005,
  "[S][C][Ring1][Branch1][=C][Ring1][=Branch2]": 799,
  "[S][C][S][C][=N]": 1055,
  "[S][N][=C][Ring1][=Branch2]": 936,
  "[S][N][=C][Ring1][=Branch2][Ring1][Branch1]": 595,
  "[S][N][=C][Ring1][Branch1]": 571,
  "[S][N][C][=Branch1][C][=O]": 8175,
  "[S][N][C][=Branch1][C][=O][O][C]": 832,
  "[S][Ring1][#Branch1]": 1179,
  "[S][Ring1][#Branch2]": 5101,
  "[S][Ring1][#Branch2][=Branch1][C][=O][=O]": 678,
  "[S][Ring1][#C]": 3321,
  "[S][Ring1][=Branch1]": 10148,
  "[S][Ring1][=Branch1][C]": 836,
  "[S][Ring1][=Branch2]": 9994,
  "[S][Ring1][=Branch2][C]": 537,
  "[S][Ring1][=C]": 3409,
  "[S][Ring1][=N]": 3507,
  "[S][Ring1][Branch1]": 33903,
  "[S][Ring1][Branch1][C]": 726,
  "[S][Ring1][Branch1][C][C]": 680,
  "[S][Ring1][Branch2]": 2161,
  "[S][Ring1][N]": 2531,
  "[S][Ring1][O]": 2772,
  "[S][Ring1][P]": 2773,
  "[S][Ring1][S]": 3041,
  "[S][Ring2][Ring1]": 1218,
  "[S][Ring2][Ring1][#Branch1]": 1570,
  "[S][Ring2][Ring1][#Branch2]": 1196,
  "[S][Ring2][Ring1][=Branch1]": 1588,
  "[S][Ring2][Ring1][=Branch2]": 1336,
  "[S][Ring2][Ring1][=C]": 604,
  "[S][Ring2][Ring1][=N]": 615,
  "[S][Ring2][Ring1][Branch1]": 1635,
  "[S][Ring2][Ring1][Branch2]": 1409,
  "[S][Ring2][Ring1][C]": 1804,
  "[S][Ring2][Ring1][N]": 677,
  "[S][Ring2][Ring1][O]": 770,
  "[S][Ring2][Ring1][Ring1]": 1954,
  "[S][Ring2][Ring1][Ring2]": 2231,
  "[S][S]": 2568,
  "[S][S][=Branch1][C][=O][=Branch1][C][=O]": 14540,
  "[Sb]": 2,
  "[Se+1]": 11,
  "[Se-1]": 1,
  "[SeH1]": 39,
  "[SeH2]": 1,
  "[Se]": 2491,
  "[Si-1]": 1,
  "[Si@]": 1,
  "[SiH1-1]": 1,
  "[SiH1]": 5,
  "[SiH2]": 20,
  "[SiH3-1]": 1,
  "[SiH4]": 9,
  "[Si]": 3138,
  "[Si][Branch1][C][C][Branch1][C][C]": 618,
  "[Si][Branch1][C][C][Branch1][C][C][C]": 1539,
  "[Sr+2]": 10,
  "[Sr]": 1,
  "[TeH1]": 1,
  "[TeH2]": 4,
  "[Te]": 89,
  "[Xe]": 1,
  "[Yb]": 1,
  "[Zn+1]": 2,
  "[Zn+2]": 101,
  "[Zn-2]": 2,
  "[Zn]": 28,
  "[\\11CH3]": 1,
  "[\\123I]": 2,
  "[\\125I]": 5,
  "[\\3H]": 1,
  "[\\B]": 6,
  "[\\Br]": 129,
  "[\\C-1]": 1,
  "[\\C@@H1]": 1148,
  "[\\C@@]": 66,
  "[\\C@H1]": 1126,
  "[\\C@]": 40,
  "[\\CH1-1]": 2,
  "[\\C]": 69709,
  "[\\C][#N]": 2043,
  "[\\C][=Branch1][C][=O]": 3444,
  "[\\C][=C]": 23903,
  "[\\C][=C][C][=C]": 624,
  "[\\C][=C][C][=C][C][=C][Ring1][=Branch1]": 2579,
  "[\\Cl]": 344,
  "[\\F]": 211,
  "[\\I]": 66,
  "[\\N+1]": 274,
  "[\\N-1]": 6,
  "[\\NH1]": 563,
  "[\\N]": 14510,
  "[\\N][C][=Branch1][C][=O]": 1121,
  "[\\O-1]": 276,
  "[\\O]": 8422,
  "[\\PH1]": 2,
  "[\\P]": 25,
  "[\\S+1]": 17,
  "[\\S-1]": 5,
  "[\\S]": 6757,
  "[\\SeH1]": 2,
  "[\\Se]": 3,
  "[\\Si]": 2
}
