{
  "[#11C]": 5,
  "[#14C]": 2,
  "[#Branch1]": 1129555,
  "[#Branch1][=C]": 1192,
  "[#Branch1][=N]": 633,
  "[#Branch1][=O]": 672,
  "[#Branch1][C]": 1454,
  "[#Branch1][C][C]": 2252,
  "[#Branch1][C][N]": 801,
  "[#Branch1][Cl]": 1283,
  "[#Branch1][F]": 1196,
  "[#Branch1][N]": 2340,
  "[#Branch1][N][C]": 851,
  "[#Branch1][N][C][C]": 1136,
  "[#Branch1][O]": 1858,
  "[#Branch1][O][C]": 4013,
  "[#Branch1][O][C][C]": 820,
  "[#Branch1][Ring1][=Branch1]": 729,
  "[#Branch1][Ring2][Ring1][#Branch2]": 574,
  "[#Branch1][Ring2][Ring1][Ring1]": 518,
  "[#Branch2]": 783443,
  "[#Branch2][=C]": 811,
  "[#Branch2][C]": 40970,
  "[#Branch2][C][=N]": 673,
  "[#Branch2][C][C]": 1420,
  "[#Branch2][C][N]": 505,
  "[#Branch2][Cl]": 1162,
  "[#Branch2][F]": 883,
  "[#Branch2][N]": 4607,
  "[#Branch2][N][C]": 524,
  "[#Branch2][N][C][C]": 1785,
  "[#Branch2][O]": 2810,
  "[#Branch2][O][C]": 3785,
  "[#Branch2][O][C][C]": 723,
  "[#Branch2][Ring1][=Branch1]": 590,
  "[#C-1]": 14,
  "[#CH0]": 1,
  "[#C]": 541230,
  "[#C][C]": 1456,
  "[#C][C][=C][C]": 736,
  "[#C][C][=N]": 758,
  "[#C][C][C]": 1593,
  "[#C][C][N]": 888,
  "[#C][C][O]": 921,
  "[#C][Cl]": 655,
  "[#C][N]": 3721,
  "[#C][N][C]": 507,
  "[#C][N][C][C]": 1052,
  "[#C][O]": 904,
  "[#C][O][C]": 2329,
  "[#C][O][C][C]": 504,
  "[#N+1]": 1173,
  "[#N]": 91855,
  "[#S]": 1,
  "[-/Ring1]": 37,
  "[-/Ring2]": 218,
  "[-\\Ring1]": 42,
  "[-\\Ring2]": 177,
  "[/123I]": 7,
  "[/125I]": 7,
  "[/131I]": 2,
  "[/13CH1]": 2,
  "[/13C]": 3,
  "[/14CH1]": 1,
  "[/14C]": 1,
  "[/As]": 1,
  "[/B]": 10,
  "[/Br]": 275,
  "[/C-1]": 13,
  "[/C@@H1]": 2720,
  "[/C@@]": 229,
  "[/C@H1]": 2267,
  "[/C@]": 175,
  "[/C]": 335487,
  "[/C][#N]": 939,
  "[/C][=Branch1]": 29900,
  "[/C][=Branch1][#Branch2]": 3822,
  "[/C][=Branch1][#C]": 1569,
  "[/C][=Branch1][=Branch2]": 1605,
  "[/C][=Branch1][=C]": 1600,
  "[/C][=Branch1][=N]": 3583,
  "[/C][=Branch1][C][=O]": 2644,
  "[/C][=Branch1][N][=C]": 654,
  "[/C][=Branch1][O][=C]": 1062,
  "[/C][=Branch1][P]": 2933,
  "[/C][=Branch1][Ring1][=C]": 683,
  "[/C][=Branch1][Ring1][=N]": 4617,
  "[/C][=Branch1][Ring2][=N]": 1075,
  "[/C][=Branch1][S]": 1296,
  "[/C][=Branch2]": 18991,
  "[/C][=Branch2][Ring1][#Branch1]": 550,
  "[/C][=Branch2][Ring1][Branch1]": 532,
  "[/C][=Branch2][Ring1][Branch2]": 568,
  "[/C][=Branch2][Ring1][Ring2]": 1953,
  "[/C][=Branch2][Ring2]": 1495,
  "[/C][=C]": 193541,
  "[/C][=C][/C@@H1]": 1953,
  "[/C][=C][/C@H1]": 1684,
  "[/C][=C][/C]": 31220,
  "[/C][=C][/C][=C]": 43350,
  "[/C][=C][/C][=N]": 914,
  "[/C][=C][/C][N]": 563,
  "[/C][=C][/N]": 1088,
  "[/C][=C][/S]": 1357,
  "[/C][=C][Branch1][C]": 6827,
  "[/C][=C][Branch1][Ring1]": 1680,
  "[/C][=C][C][=C]": 628,
  "[/C][=C][\\C]": 14722,
  "[/C][=C][\\C][=C]": 2678,
  "[/C][=C][\\C][C@H1]": 1124,
  "[/C][=C][\\N]": 1530,
  "[/C][=C][\\O]": 739,
  "[/C][=C][\\S]": 2941,
  "[/C][=N]": 16231,
  "[/C][=N][/C]": 732,
  "[/C][=N][/C][=C]": 1157,
  "[/C][=N][/N]": 9415,
  "[/C][=N][/N][C]": 565,
  "[/C][=N][/O]": 1809,
  "[/C][=N][\\N]": 825,
  "[/C][C][/C]": 1021,
  "[/C][Ring1][=Branch2]": 535,
  "[/Cl]": 195,
  "[/F]": 265,
  "[/I]": 78,
  "[/N+1]": 739,
  "[/N-1]": 9,
  "[/NH1]": 78,
  "[/N]": 55325,
  "[/N][=C]": 34148,
  "[/N][=C][/C]": 1906,
  "[/N][=C][/C][=C]": 15858,
  "[/N][=C][/N]": 601,
  "[/N][=C][Branch1][C]": 2912,
  "[/N][=C][\\C]": 2490,
  "[/N][=C][\\C][=C]": 2000,
  "[/N][=C][\\NH1]": 1107,
  "[/N][=C][\\N]": 531,
  "[/N][=C][\\S]": 1161,
  "[/N][=N][/C][=C]": 2293,
  "[/O-1]": 57,
  "[/O]": 8212,
  "[/O][N][C][C]": 627,
  "[/P+1]": 2,
  "[/P@@]": 1,
  "[/P]": 123,
  "[/S+1]": 49,
  "[/S-1]": 3,
  "[/SH0]": 2,
  "[/S]": 2658,
  "[/Se]": 3,
  "[/Si]": 7,
  "[10B]": 4,
  "[11C@@H1]": 1,
  "[11CH2]": 4,
  "[11CH3]": 330,
  "[11C]": 58,
  "[123I-1]": 1,
  "[123I]": 67,
  "[123Te]": 1,
  "[124I-1]": 1,
  "[124I]": 13,
  "[125I-1]": 1,
  "[125I]": 234,
  "[127I]": 2,
  "[127Xe]": 1,
  "[129Xe]": 1,
  "[131Cs]": 1,
  "[131I-1]": 1,
  "[131I]": 34,
  "[133Xe]": 1,
  "[13CH1]": 2,
  "[13CH3]": 1,
  "[13C]": 8,
  "[14C@@H1]": 4,
  "[14C@@]": 1,
  "[14C@H1]": 3,
  "[14CH1]": 24,
  "[14CH2]": 20,
  "[14CH3]": 17,
  "[14C]": 67,
  "[15NH1]": 1,
  "[15N]": 2,
  "[17F]": 4,
  "[18F-1]": 2,
  "[18F]": 610,
  "[18OH1]": 1,
  "[19F]": 10,
  "[211At]": 1,
  "[223Ra]": 2,
  "[22Na+1]": 1,
  "[2H]": 2791,
  "[32P]": 5,
  "[35S]": 6,
  "[3H]": 420,
  "[42K+1]": 1,
  "[45Ca+2]": 1,
  "[47Ca+2]": 1,
  "[68Ga+3]": 1,
  "[73Se]": 1,
  "[75Se]": 2,
  "[76Br]": 3,
  "[81Kr]": 1,
  "[82Rb+1]": 1,
  "[82Rb]": 1,
  "[85Sr+2]": 2,
  "[89Sr+2]": 1,
  "[=11C]": 24,
  "[=13CH1]": 6,
  "[=13C]": 2,
  "[=14CH1]": 20,
  "[=14C]": 30,
  "[=18O]": 3,
  "[=32PH1]": 1,
  "[=32P]": 1,
  "[=Al]": 3,
  "[=As]": 39,
  "[=B-1]": 2,
  "[=B]": 4,
  "[=Branch1]": 4963538,
  "[=Branch1][=C]": 1561,
  "[=Branch1][=N]": 862,
  "[=Branch1][=O]": 626,
  "[=Branch1][C]": 3128698,
  "[=Branch1][C][#N]": 2053,
  "[=Branch1][C][=C]": 507,
  "[=Branch1][C][=C][C]": 549,
  "[=Branch1][C][=N]": 32571,
  "[=Branch1][C][=N][N]": 11421,
  "[=Branch1][C][=O]": 2529513,
  "[=Branch1][C][=O][/C]": 744,
  "[=Branch1][C][=O][=O]": 43565,
  "[=Branch1][C][=O][C@@H1]": 6786,
  "[=Branch1][C][=O][C@H1]": 4177,
  "[=Branch1][C][=O][C@]": 795,
  "[=Branch1][C][=O][C]": 6448,
  "[=Branch1][C][=O][NH1]": 7644,
  "[=Branch1][C][=O][N]": 171533,
  "[=Branch1][C][=O][O-1]": 70024,
  "[=Branch1][C][=O][O]": 86149,
  "[=Branch1][C][=Ring1]": 5746,
  "[=Branch1][C][=Ring1][=Branch2]": 5739,
  "[=Branch1][C][=Ring1][N]": 588,
  "[=Branch1][C][=Ring1][O]": 1073,
  "[=Branch1][C][=Ring2]": 1905,
  "[=Branch1][C][=S]": 30197,
  "[=Branch1][C][=S][NH1]": 694,
  "[=Branch1][C][=S][N]": 10986,
  "[=Branch1][C][Branch1][#C]": 575,
  "[=Branch1][C][Branch1][=Branch2]": 3222,
  "[=Branch1][C][Branch1][Branch2]": 539,
  "[=Branch1][C][Branch1][C]": 1578,
  "[=Branch1][C][Branch1][N]": 1301,
  "[=Branch1][C][Branch1][S]": 513,
  "[=Branch1][C][C@@H1]": 2480,
  "[=Branch1][C][C@H1]": 4005,
  "[=Branch1][C][C]": 713,
  "[=Branch1][C][C][=C]": 932,
  "[=Branch1][C][N]": 5940,
  "[=Branch1][C][N][C]": 785,
  "[=Branch1][C][O]": 3304,
  "[=Branch1][C][Ring1][#Branch2]": 14801,
  "[=Branch1][C][Ring1][#C]": 2403,
  "[=Branch1][C][Ring1][=Branch2]": 14618,
  "[=Branch1][C][Ring1][=C]": 1887,
  "[=Branch1][C][Ring1][=N]": 4700,
  "[=Branch1][C][Ring1][N]": 1982,
  "[=Branch1][C][Ring1][O]": 1828,
  "[=Branch1][C][Ring1][P]": 1213,
  "[=Branch1][C][Ring1][S]": 1151,
  "[=Branch1][C][Ring2][Ring1]": 770,
  "[=Branch1][C][S]": 1422,
  "[=Branch1][Cl]": 1647,
  "[=Branch1][F]": 1383,
  "[=Branch1][N+1]": 26342,
  "[=Branch1][N]": 5177,
  "[=Branch1][N][C][C]": 1764,
  "[=Branch1][O]": 1916,
  "[=Branch1][O][=C]": 672,
  "[=Branch1][O][C]": 3164,
  "[=Branch1][O][C][C]": 900,
  "[=Branch1][Ring1][=Branch1]": 770,
  "[=Branch1][Ring2][Ring1][=Branch2]": 683,
  "[=Branch1][Ring2][Ring1][Ring1]": 539,
  "[=Branch2]": 1011327,
  "[=Branch2][=C]": 1325,
  "[=Branch2][C]": 1209,
  "[=Branch2][C][=N]": 656,
  "[=Branch2][C][C]": 718,
  "[=Branch2][C][N]": 896,
  "[=Branch2][Cl]": 1218,
  "[=Branch2][F]": 896,
  "[=Branch2][N]": 2413,
  "[=Branch2][N][C][C]": 5223,
  "[=Branch2][O]": 1727,
  "[=Branch2][O][C]": 2913,
  "[=Branch2][O][C][C]": 982,
  "[=Branch2][Ring1][=Branch1]": 583,
  "[=Branch2][Ring1][P]": 552,
  "[=Branch2][Ring2]": 1357,
  "[=C+1]": 1,
  "[=C]": 12929510,
  "[=C][/C]": 1914,
  "[=C][/C][=C]": 8915,
  "[=C][=C]": 749,
  "[=C][Branch1][#C]": 627,
  "[=C][Branch1][=Branch1][C]": 1607,
  "[=C][Branch1][=Branch2]": 4330,
  "[=C][Branch1][=N]": 671,
  "[=C][Branch1][Branch2]": 661,
  "[=C][Branch1][C][Br]": 876,
  "[=C][Branch1][C][C]": 4011,
  "[=C][Branch1][C][Cl]": 4445,
  "[=C][Branch1][C][F]": 3584,
  "[=C][Branch1][C][N]": 2089,
  "[=C][Branch1][C][O]": 4010,
  "[=C][Branch1][N]": 2034,
  "[=C][Branch1][P]": 669,
  "[=C][C]": 6910,
  "[=C][C][=Branch1][Ring2]": 500,
  "[=C][C][=C]": 4876,
  "[=C][C][=C][C]": 1349,
  "[=C][C][=C][NH1]": 537,
  "[=C][C][=C][Ring1]": 3395,
  "[=C][C][=N]": 16470,
  "[=C][C][=Ring1]": 522,
  "[=C][C][Branch1][=Branch2]": 7955,
  "[=C][C][Branch1][=N]": 519,
  "[=C][C][Branch1][C]": 2118,
  "[=C][C][Branch2][Ring1]": 543,
  "[=C][C][C@@H1]": 1489,
  "[=C][C][C]": 2478,
  "[=C][C][O]": 644,
  "[=C][Cl]": 757,
  "[=C][F]": 545,
  "[=C][NH1]": 3508,
  "[=C][N]": 6164,
  "[=C][N][=C]": 1954,
  "[=C][N][C]": 584,
  "[=C][N][C][C]": 1230,
  "[=C][N][Ring1]": 784,
  "[=C][N][Ring1][=N]": 549,
  "[=C][N][Ring1][Branch2]": 832,
  "[=C][N][Ring2][Ring1]": 999,
  "[=C][O]": 2295,
  "[=C][O][C]": 3259,
  "[=C][O][C][C]": 552,
  "[=C][Ring1]": 430911,
  "[=C][Ring1][#Branch1]": 88517,
  "[=C][Ring1][#Branch1][=C]": 2932,
  "[=C][Ring1][#Branch1][=N]": 1976,
  "[=C][Ring1][#Branch1][C]": 816,
  "[=C][Ring1][#Branch1][Cl]": 4091,
  "[=C][Ring1][#Branch1][F]": 4283,
  "[=C][Ring1][#Branch1][N]": 1665,
  "[=C][Ring1][#Branch1][O]": 2002,
  "[=C][Ring1][#Branch2]": 61530,
  "[=C][Ring1][#Branch2][=C]": 2842,
  "[=C][Ring1][#Branch2][=N]": 946,
  "[=C][Ring1][#Branch2][C]": 653,
  "[=C][Ring1][#Branch2][Cl]": 1047,
  "[=C][Ring1][#Branch2][F]": 1469,
  "[=C][Ring1][#Branch2][N]": 1117,
  "[=C][Ring1][#Branch2][O]": 1151,
  "[=C][Ring1][#C]": 19381,
  "[=C][Ring1][#C][=C]": 711,
  "[=C][Ring1][#C][C]": 654,
  "[=C][Ring1][=Branch1]": 72092,
  "[=C][Ring1][=Branch1][C]": 18707,
  "[=C][Ring1][=Branch1][N]": 2993,
  "[=C][Ring1][=Branch1][O]": 1602,
  "[=C][Ring1][=Branch2]": 41482,
  "[=C][Ring1][=Branch2][=C]": 1722,
  "[=C][Ring1][=Branch2][=N]": 896,
  "[=C][Ring1][=Branch2][F]": 930,
  "[=C][Ring1][=C]": 19195,
  "[=C][Ring1][=C][=C]": 518,
  "[=C][Ring1][=N]": 15254,
  "[=C][Ring1][=N][=C]": 579,
  "[=C][Ring1][=N][F]": 508,
  "[=C][Ring1][=N][N]": 809,
  "[=C][Ring1][=N][O]": 689,
  "[=C][Ring1][Branch1]": 1098,
  "[=C][Ring1][Branch2]": 68016,
  "[=C][Ring1][Branch2][=C]": 3032,
  "[=C][Ring1][Branch2][=N]": 1305,
  "[=C][Ring1][Branch2][C@@H1]": 623,
  "[=C][Ring1][Branch2][C@H1]": 655,
  "[=C][Ring1][Branch2][C]": 629,
  "[=C][Ring1][Branch2][Cl]": 1220,
  "[=C][Ring1][Branch2][F]": 1441,
  "[=C][Ring1][Branch2][N]": 1445,
  "[=C][Ring1][Branch2][O]": 2117,
  "[=C][Ring1][N]": 11689,
  "[=C][Ring1][N][=C]": 666,
  "[=C][Ring1][N][=N]": 543,
  "[=C][Ring1][N][C]": 2104,
  "[=C][Ring1][N][O]": 575,
  "[=C][Ring1][O]": 20227,
  "[=C][Ring1][O][=C]": 2869,
  "[=C][Ring1][O][C]": 2126,
  "[=C][Ring1][O][N]": 683,
  "[=C][Ring1][O][O]": 697,
  "[=C][Ring1][P]": 24359,
  "[=C][Ring1][P][C]": 667,
  "[=C][Ring1][P][Cl]": 502,
  "[=C][Ring1][S]": 16536,
  "[=C][Ring1][S][C]": 600,
  "[=C][Ring2][Ring1]": 209954,
  "[=C][Ring2][Ring1][#Branch1]": 16616,
  "[=C][Ring2][Ring1][#Branch2]": 13515,
  "[=C][Ring2][Ring1][#C]": 7138,
  "[=C][Ring2][Ring1][=Branch1]": 11990,
  "[=C][Ring2][Ring1][=Branch2]": 14065,
  "[=C][Ring2][Ring1][=C]": 9124,
  "[=C][Ring2][Ring1][=N]": 9172,
  "[=C][Ring2][Ring1][Branch1]": 11593,
  "[=C][Ring2][Ring1][Branch2]": 13570,
  "[=C][Ring2][Ring1][C]": 9324,
  "[=C][Ring2][Ring1][N]": 8452,
  "[=C][Ring2][Ring1][O]": 11096,
  "[=C][Ring2][Ring1][P]": 5874,
  "[=C][Ring2][Ring1][Ring1]": 17566,
  "[=C][Ring2][Ring1][Ring2]": 16159,
  "[=C][Ring2][Ring1][S]": 5647,
  "[=C][Ring2][Ring2]": 12960,
  "[=C][Ring2][Ring2][#Branch1]": 1587,
  "[=C][Ring2][Ring2][#Branch2]": 705,
  "[=C][Ring2][Ring2][=Branch1]": 1526,
  "[=C][Ring2][Ring2][=Branch2]": 934,
  "[=C][Ring2][Ring2][Branch1]": 1877,
  "[=C][Ring2][Ring2][Branch2]": 1016,
  "[=C][Ring2][Ring2][C]": 2438,
  "[=C][Ring2][Ring2][O]": 579,
  "[=C][Ring2][Ring2][Ring1]": 2889,
  "[=C][Ring2][Ring2][Ring2]": 2210,
  "[=C][S]": 13704,
  "[=C][S][Ring1][#C]": 827,
  "[=C][S][Ring1][=C]": 572,
  "[=C][S][Ring1][=N]": 878,
  "[=C][S][Ring1][N]": 1502,
  "[=C][S][Ring1][O]": 1486,
  "[=C][\\C]": 1959,
  "[=C][\\C][=C]": 10133,
  "[=Mg]": 1,
  "[=N+1]": 24441,
  "[=N+1][=N-1]": 1850,
  "[=N+1][Branch1][C][C]": 883,
  "[=N+1][Branch1][C][O-1]": 9710,
  "[=N-1]": 1915,
  "[=NH1+1]": 10,
  "[=NH2+1]": 6,
  "[=N]": 2090173,
  "[=N][/C]": 827,
  "[=N][/C][=C]": 3540,
  "[=N][/N]": 2609,
  "[=N][/O]": 691,
  "[=N][C]": 34199,
  "[=N][C][=C]": 4794,
  "[=N][C][=C][Branch1]": 588,
  "[=N][C][=C][C]": 2625,
  "[=N][C][=C][Ring1]": 595,
  "[=N][C][=N]": 7704,
  "[=N][C][=Ring1]": 7212,
  "[=N][C][=Ring1][#C]": 566,
  "[=N][C][=Ring2]": 3729,
  "[=N][C][Branch1][#Branch2]": 1277,
  "[=N][C][Branch1][=Branch2]": 3820,
  "[=N][C][Branch1][=C]": 523,
  "[=N][C][Branch1][C]": 1332,
  "[=N][C][Branch1][N]": 1695,
  "[=N][C][Branch1][O]": 521,
  "[=N][C][Branch2][Ring1]": 756,
  "[=N][C][C]": 1764,
  "[=N][C][NH1]": 1158,
  "[=N][C][Ring1][=Branch1]": 516,
  "[=N][C][Ring1][=N]": 560,
  "[=N][C][Ring1][P]": 690,
  "[=N][C][Ring2][Ring1]": 1258,
  "[=N][C][S]": 809,
  "[=N][Cl]": 906,
  "[=N][F]": 635,
  "[=N][NH1]": 12005,
  "[=N][NH1][C][=Ring1]": 510,
  "[=N][N]": 51094,
  "[=N][N][=C]": 10995,
  "[=N][N][Branch1][=Branch2]": 658,
  "[=N][N][C]": 575,
  "[=N][N][C][C]": 1439,
  "[=N][N][Ring1]": 2700,
  "[=N][N][Ring1][#C]": 1222,
  "[=N][N][Ring1][=Branch1]": 915,
  "[=N][N][Ring1][=Branch2]": 1259,
  "[=N][N][Ring1][=N]": 650,
  "[=N][N][Ring1][Branch2]": 652,
  "[=N][N][Ring1][O]": 832,
  "[=N][N][Ring1][P]": 675,
  "[=N][N][Ring1][S]": 664,
  "[=N][N][Ring2][Ring1]": 5151,
  "[=N][O]": 26548,
  "[=N][O][C]": 3003,
  "[=N][O][C][=Ring1]": 1741,
  "[=N][O][C][C]": 910,
  "[=N][O][Ring1][#C]": 919,
  "[=N][O][Ring1][=Branch1]": 817,
  "[=N][O][Ring1][=C]": 721,
  "[=N][O][Ring1][=N]": 825,
  "[=N][O][Ring1][N]": 1283,
  "[=N][O][Ring1][O]": 1389,
  "[=N][O][Ring1][S]": 617,
  "[=N][Ring1][#Branch1]": 3531,
  "[=N][Ring1][#Branch2]": 4865,
  "[=N][Ring1][#C]": 5896,
  "[=N][Ring1][=Branch1]": 1160,
  "[=N][Ring1][=Branch2]": 2151,
  "[=N][Ring1][=C]": 4218,
  "[=N][Ring1][=N]": 5107,
  "[=N][Ring1][Branch2]": 2630,
  "[=N][Ring1][N]": 4262,
  "[=N][Ring1][O]": 3798,
  "[=N][Ring1][P]": 5231,
  "[=N][Ring1][S]": 6419,
  "[=N][Ring2][Ring1]": 104517,
  "[=N][Ring2][Ring1][#Branch1]": 7799,
  "[=N][Ring2][Ring1][#Branch2]": 6249,
  "[=N][Ring2][Ring1][#C]": 3468,
  "[=N][Ring2][Ring1][=Branch1]": 7594,
  "[=N][Ring2][Ring1][=Branch2]": 6846,
  "[=N][Ring2][Ring1][=C]": 3873,
  "[=N][Ring2][Ring1][=N]": 3785,
  "[=N][Ring2][Ring1][Branch1]": 6640,
  "[=N][Ring2][Ring1][Branch2]": 7871,
  "[=N][Ring2][Ring1][C]": 6594,
  "[=N][Ring2][Ring1][N]": 3962,
  "[=N][Ring2][Ring1][O]": 4492,
  "[=N][Ring2][Ring1][P]": 2504,
  "[=N][Ring2][Ring1][Ring1]": 8791,
  "[=N][Ring2][Ring1][Ring2]": 9882,
  "[=N][Ring2][Ring1][S]": 3263,
  "[=N][Ring2][Ring2][Branch1]": 580,
  "[=N][Ring2][Ring2][C]": 1011,
  "[=N][Ring2][Ring2][Ring1]": 1191,
  "[=N][Ring2][Ring2][Ring2]": 784,
  "[=N][\\C][=C]": 3687,
  "[=N][\\N]": 4570,
  "[=N][\\N][C][=N]": 543,
  "[=N][\\O]": 1695,
  "[=O+1]": 157,
  "[=OH0]": 3,
  "[=O]": 2879093,
  "[=O][=C]": 10898,
  "[=O][=N]": 509,
  "[=O][C@@H1]": 830,
  "[=O][C@H1]": 680,
  "[=O][C][=N]": 524,
  "[=O][C][C]": 613,
  "[=O][N]": 914,
  "[=O][N][C][C]": 758,
  "[=O][O]": 508,
  "[=P@@]": 22,
  "[=P@]": 13,
  "[=PH1]": 14,
  "[=PH2]": 2,
  "[=P]": 1840,
  "[=Ring1]": 235728,
  "[=Ring1][#Branch1]": 5748,
  "[=Ring1][#Branch1][C][C]": 653,
  "[=Ring1][#Branch2]": 3381,
  "[=Ring1][#C]": 2687,
  "[=Ring1][=Branch1]": 10568,
  "[=Ring1][=Branch1][=C]": 1396,
  "[=Ring1][=Branch1][=N]": 1088,
  "[=Ring1][=Branch1][C]": 2741,
  "[=Ring1][=Branch2]": 14736,
  "[=Ring1][=Branch2][N]": 1015,
  "[=Ring1][=C]": 1450,
  "[=Ring1][=N]": 2573,
  "[=Ring1][Branch1]": 10849,
  "[=Ring1][Branch1][C]": 6202,
  "[=Ring1][Branch1][C][C]": 3756,
  "[=Ring1][Branch2]": 3107,
  "[=Ring1][N]": 1485,
  "[=Ring1][O]": 2065,
  "[=Ring1][P]": 2062,
  "[=Ring1][S]": 1993,
  "[=Ring2]": 75066,
  "[=Ring2][Ring1]": 1497,
  "[=Ring2][Ring1][#Branch1]": 1568,
  "[=Ring2][Ring1][#Branch2]": 1145,
  "[=Ring2][Ring1][#C]": 772,
  "[=Ring2][Ring1][=Branch1]": 1645,
  "[=Ring2][Ring1][=Branch2]": 1361,
  "[=Ring2][Ring1][=N]": 749,
  "[=Ring2][Ring1][Branch1]": 1728,
  "[=Ring2][Ring1][Branch2]": 1717,
  "[=Ring2][Ring1][C]": 1235,
  "[=Ring2][Ring1][N]": 615,
  "[=Ring2][Ring1][O]": 747,
  "[=Ring2][Ring1][Ring1]": 1631,
  "[=Ring2][Ring1][Ring2]": 1659,
  "[=Ring2][Ring1][S]": 545,
  "[=S+1]": 161,
  "[=S-1]": 1,
  "[=S@@]": 26,
  "[=S@]": 77,
  "[=SH0]": 2,
  "[=SH1]": 7,
  "[=S]": 52190,
  "[=S][=Branch1][C][=O]": 14537,
  "[=S][Branch1][C][C]": 681,
  "[=Se+1]": 32,
  "[=Se]": 161,
  "[=Si]": 7,
  "[=Te+1]": 29,
  "[=Te]": 2,
  "[Ag+1]": 9,
  "[Ag-4]": 1,
  "[Ag]": 6,
  "[Al+3]": 19,
  "[Al]": 20,
  "[Ar]": 1,
  "[As+1]": 6,
  "[As-1]": 1,
  "[AsH1]": 3,
  "[AsH3]": 1,
  "[As]": 243,
  "[At]": 1,
  "[B-1]": 631,
  "[B@-1]": 2,
  "[B@@-1]": 2,
  "[BH0]": 3,
  "[BH1-1]": 7,
  "[BH2-1]": 64,
  "[BH3-1]": 20,
  "[B]": 3952,
  "[B][Branch1][C][O]": 1000,
  "[Ba+2]": 11,
  "[Ba]": 1,
  "[Be+2]": 2,
  "[Bi+3]": 4,
  "[Bi]": 1,
  "[Br+2]": 3,
  "[Br-1]": 6158,
  "[Br-1][Br-1]": 1239,
  "[Br]": 93147,
  "[Br][C][C]": 575,
  "[Branch1]": 6737326,
  "[Branch1][#Branch1]": 82728,
  "[Branch1][#Branch1][C][C]": 18392,
  "[Branch1][#Branch1][C][N]": 1424,
  "[Branch1][#Branch1][N][C]": 5248,
  "[Branch1][#Branch1][O][C]": 17535,
  "[Branch1][#Branch2]": 116346,
  "[Branch1][#Branch2][C]": 33437,
  "[Branch1][#Branch2][C][C]": 2990,
  "[Branch1][#Branch2][N]": 10639,
  "[Branch1][#Branch2][N][C]": 593,
  "[Branch1][#Branch2][O]": 11005,
  "[Branch1][#Branch2][O][C]": 10237,
  "[Branch1][#Branch2][S]": 1164,
  "[Branch1][#C]": 65881,
  "[Branch1][#C][C]": 592,
  "[Branch1][#C][C][C]": 1060,
  "[Branch1][#C][C][N]": 1025,
  "[Branch1][#C][C][O]": 912,
  "[Branch1][#C][N]": 8966,
  "[Branch1][#C][N][C]": 716,
  "[Branch1][#C][O]": 1988,
  "[Branch1][=Branch1]": 59957,
  "[Branch1][=Branch1][C]": 59404,
  "[Branch1][=Branch1][N+1]": 23556,
  "[Branch1][=Branch1][N]": 6037,
  "[Branch1][=Branch2]": 191371,
  "[Branch1][=Branch2][C][=N]": 674,
  "[Branch1][=Branch2][C][N]": 3235,
  "[Branch1][=Branch2][O]": 616,
  "[Branch1][=C]": 81967,
  "[Branch1][=C][C]": 2016,
  "[Branch1][=C][C][=N]": 2680,
  "[Branch1][=C][C][C]": 2911,
  "[Branch1][=C][C][N]": 983,
  "[Branch1][=C][C][O]": 884,
  "[Branch1][=C][N]": 8882,
  "[Branch1][=C][N][C]": 777,
  "[Branch1][=C][O]": 5328,
  "[Branch1][=C][O][C]": 1864,
  "[Branch1][=N]": 86865,
  "[Branch1][=N][C]": 11505,
  "[Branch1][=N][C][=C]": 1038,
  "[Branch1][=N][C][C]": 630,
  "[Branch1][=N][N]": 9818,
  "[Branch1][=N][O]": 5242,
  "[Branch1][=O]": 595,
  "[Branch1][Branch1]": 4857,
  "[Branch1][Branch1][C]": 3645,
  "[Branch1][Branch1][C][=N]": 1863,
  "[Branch1][Branch1][C][C]": 7553,
  "[Branch1][Branch1][C][O]": 967,
  "[Branch1][Branch1][O]": 574,
  "[Branch1][Branch1][O][C]": 523,
  "[Branch1][Branch2]": 69186,
  "[Branch1][Branch2][C][=N]": 605,
  "[Branch1][Branch2][C][C]": 6340,
  "[Branch1][Branch2][C][O]": 1586,
  "[Branch1][Branch2][N]": 4525,
  "[Branch1][Branch2][O]": 1879,
  "[Branch1][C]": 2209213,
  "[Branch1][C][/C]": 741,
  "[Branch1][C][2H]": 856,
  "[Branch1][C][=N]": 8807,
  "[Branch1][C][Br]": 57574,
  "[Branch1][C][Br][=C]": 10755,
  "[Branch1][C][C@H1]": 739,
  "[Branch1][C][C]": 1322189,
  "[Branch1][C][C][=C]": 20976,
  "[Branch1][C][C][=N]": 20792,
  "[Branch1][C][C][=O]": 41719,
  "[Branch1][C][C][C@@H1]": 39842,
  "[Branch1][C][C][C@@]": 2087,
  "[Branch1][C][C][C@H1]": 43223,
  "[Branch1][C][C][C@]": 5424,
  "[Branch1][C][C][C]": 180324,
  "[Branch1][C][C][F]": 652,
  "[Branch1][C][C][NH1]": 5505,
  "[Branch1][C][C][N]": 30019,
  "[Branch1][C][C][O]": 45231,
  "[Branch1][C][C][S]": 3218,
  "[Branch1][C][Cl]": 339123,
  "[Branch1][C][Cl][=C]": 49395,
  "[Branch1][C][Cl][=N]": 1127,
  "[Branch1][C][Cl][Cl]": 1962,
  "[Branch1][C][Cl][S]": 1207,
  "[Branch1][C][F]": 742070,
  "[Branch1][C][F][=C]": 39785,
  "[Branch1][C][F][C@@H1]": 701,
  "[Branch1][C][F][F]": 209454,
  "[Branch1][C][F][O]": 598,
  "[Branch1][C][I]": 5626,
  "[Branch1][C][I][=C]": 770,
  "[Branch1][C][N]": 158159,
  "[Branch1][C][N][=C]": 2701,
  "[Branch1][C][N][=N]": 22924,
  "[Branch1][C][N][=O]": 43952,
  "[Branch1][C][N][=S]": 613,
  "[Branch1][C][N][C@@H1]": 972,
  "[Branch1][C][N][C]": 9727,
  "[Branch1][C][N][N]": 2816,
  "[Branch1][C][N][O]": 848,
  "[Branch1][C][N][S]": 1068,
  "[Branch1][C][O-1]": 22562,
  "[Branch1][C][O-1][O-1]": 919,
  "[Branch1][C][O-1][O]": 901,
  "[Branch1][C][O]": 407938,
  "[Branch1][C][O][/C]": 507,
  "[Branch1][C][O][=C]": 23648,
  "[Branch1][C][O][=N]": 2089,
  "[Branch1][C][O][C@@H1]": 37736,
  "[Branch1][C][O][C@@]": 1179,
  "[Branch1][C][O][C@H1]": 57873,
  "[Branch1][C][O][C@]": 2638,
  "[Branch1][C][O][C]": 88941,
  "[Branch1][C][O][O]": 12003,
  "[Branch1][C][S]": 9017,
  "[Branch1][C][S][=N]": 1370,
  "[Branch1][C][S][N]": 1121,
  "[Branch1][C][\\C]": 636,
  "[Branch1][Cl]": 1313,
  "[Branch1][F]": 1207,
  "[Branch1][N]": 102470,
  "[Branch1][N][=Ring1][=Branch2]": 604,
  "[Branch1][N][C]": 3917,
  "[Branch1][N][C][=N]": 1449,
  "[Branch1][N][C][C]": 13792,
  "[Branch1][N][N]": 2007,
  "[Branch1][N][O]": 1100,
  "[Branch1][O]": 69850,
  "[Branch1][O][C@H1]": 745,
  "[Branch1][O][C]": 10564,
  "[Branch1][O][C][#C]": 1327,
  "[Branch1][O][C][=C]": 627,
  "[Branch1][O][C][C]": 14951,
  "[Branch1][O][C][N]": 1115,
  "[Branch1][O][C][O]": 3251,
  "[Branch1][O][C][S]": 673,
  "[Branch1][O][N]": 3048,
  "[Branch1][O][N][C]": 2084,
  "[Branch1][O][O]": 2957,
  "[Branch1][O][O][C]": 5973,
  "[Branch1][O][S][C]": 526,
  "[Branch1][P]": 59010,
  "[Branch1][P][C]": 1244,
  "[Branch1][P][C][=C]": 513,
  "[Branch1][P][C][=N]": 1152,
  "[Branch1][P][C][C]": 1885,
  "[Branch1][P][C][N]": 751,
  "[Branch1][P][C][O]": 615,
  "[Branch1][P][N]": 7720,
  "[Branch1][P][O]": 2146,
  "[Branch1][P][O][C]": 739,
  "[Branch1][Ring1]": 189531,
  "[Branch1][Ring1][#Branch1]": 905,
  "[Branch1][Ring1][#Branch2]": 674,
  "[Branch1][Ring1][=Branch1]": 874,
  "[Branch1][Ring1][=Branch2]": 1244,
  "[Branch1][Ring1][=C]": 505,
  "[Branch1][Ring1][=N]": 632,
  "[Branch1][Ring1][Branch2]": 1130,
  "[Branch1][Ring1][C][#N]": 30109,
  "[Branch1][Ring1][C][=O]": 2770,
  "[Branch1][Ring1][C][C]": 4063,
  "[Branch1][Ring1][C][Cl]": 731,
  "[Branch1][Ring1][C][F]": 1615,
  "[Branch1][Ring1][C][N]": 2752,
  "[Branch1][Ring1][C][O]": 42295,
  "[Branch1][Ring1][O]": 20807,
  "[Branch1][Ring1][O][C]": 27697,
  "[Branch1][Ring1][P]": 1489,
  "[Branch1][Ring1][S]": 1284,
  "[Branch1][Ring1][S][C]": 1047,
  "[Branch1][Ring2]": 54211,
  "[Branch1][Ring2][C][C]": 682,
  "[Branch1][Ring2][C][Ring1]": 9362,
  "[Branch1][Ring2][Ring1][Branch2]": 550,
  "[Branch1][S]": 70391,
  "[Branch1][S][C]": 3255,
  "[Branch1][S][C][C]": 2888,
  "[Branch1][S][C][N]": 1035,
  "[Branch1][S][N]": 9276,
  "[Branch1][S][O]": 2087,
  "[Branch2]": 2425242,
  "[Branch2][#Branch1]": 7580,
  "[Branch2][=Branch1]": 24917,
  "[Branch2][=Branch1][#Branch1]": 1350,
  "[Branch2][=Branch1][#Branch2]": 984,
  "[Branch2][=Branch1][#C]": 710,
  "[Branch2][=Branch1][=Branch1]": 1135,
  "[Branch2][=Branch1][=Branch2]": 1155,
  "[Branch2][=Branch1][=C]": 781,
  "[Branch2][=Branch1][=N]": 758,
  "[Branch2][=Branch1][Branch1]": 670,
  "[Branch2][=Branch1][Branch2]": 1430,
  "[Branch2][=Branch1][C]": 1337,
  "[Branch2][=Branch1][C][C]": 535,
  "[Branch2][=Branch1][O]": 632,
  "[Branch2][=Branch1][P]": 598,
  "[Branch2][=Branch1][Ring1]": 1397,
  "[Branch2][=Branch1][Ring2]": 1975,
  "[Branch2][=Branch1][S]": 549,
  "[Branch2][=C]": 1688,
  "[Branch2][=N]": 1145,
  "[Branch2][=N][\\N]": 568,
  "[Branch2][Branch1]": 9527,
  "[Branch2][Branch1][#Branch1]": 6407,
  "[Branch2][Branch1][#Branch1][N]": 709,
  "[Branch2][Branch1][#Branch2]": 4354,
  "[Branch2][Branch1][#Branch2][N]": 528,
  "[Branch2][Branch1][#C]": 2838,
  "[Branch2][Branch1][=Branch1]": 4380,
  "[Branch2][Branch1][=Branch1][C]": 2342,
  "[Branch2][Branch1][=Branch1][N]": 738,
  "[Branch2][Branch1][=Branch2]": 6124,
  "[Branch2][Branch1][=Branch2][N]": 599,
  "[Branch2][Branch1][=C]": 3374,
  "[Branch2][Branch1][=N]": 3367,
  "[Branch2][Branch1][Branch1]": 2675,
  "[Branch2][Branch1][Branch1][C]": 1639,
  "[Branch2][Branch1][Branch1][N]": 1253,
  "[Branch2][Branch1][Branch2]": 6661,
  "[Branch2][Branch1][Branch2][N]": 677,
  "[Branch2][Branch1][C]": 3407,
  "[Branch2][Branch1][C][C]": 2928,
  "[Branch2][Branch1][C][N]": 2088,
  "[Branch2][Branch1][N]": 3450,
  "[Branch2][Branch1][O]": 4080,
  "[Branch2][Branch1][P]": 2484,
  "[Branch2][Branch1][Ring1]": 9055,
  "[Branch2][Branch1][Ring1][N]": 1056,
  "[Branch2][Branch1][Ring2]": 9071,
  "[Branch2][Branch1][Ring2][N]": 1077,
  "[Branch2][Branch1][S]": 2451,
  "[Branch2][Branch2]": 930,
  "[Branch2][C]": 1370,
  "[Branch2][C][=N]": 741,
  "[Branch2][C][C]": 1461,
  "[Branch2][C][C][=C]": 1227,
  "[Branch2][C][N]": 731,
  "[Branch2][C][O]": 507,
  "[Branch2][Cl]": 1438,
  "[Branch2][F]": 1336,
  "[Branch2][N]": 3252,
  "[Branch2][N][C][=N]": 589,
  "[Branch2][N][C][C]": 1612,
  "[Branch2][O]": 2000,
  "[Branch2][O][C]": 3216,
  "[Branch2][O][C][C]": 1019,
  "[Branch2][Ring1]": 1166345,
  "[Branch2][Ring1][#Branch1]": 46019,
  "[Branch2][Ring1][#Branch1][C]": 899,
  "[Branch2][Ring1][#Branch1][N]": 6342,
  "[Branch2][Ring1][#Branch1][O]": 1193,
  "[Branch2][Ring1][#Branch2]": 38388,
  "[Branch2][Ring1][#Branch2][C]": 1138,
  "[Branch2][Ring1][#Branch2][N]": 5963,
  "[Branch2][Ring1][#Branch2][O]": 1286,
  "[Branch2][Ring1][#C]": 30152,
  "[Branch2][Ring1][#C][C]": 559,
  "[Branch2][Ring1][#C][N]": 4462,
  "[Branch2][Ring1][#C][O]": 719,
  "[Branch2][Ring1][=Branch1]": 31583,
  "[Branch2][Ring1][=Branch1][C]": 13036,
  "[Branch2][Ring1][=Branch1][N]": 6935,
  "[Branch2][Ring1][=Branch1][O]": 1594,
  "[Branch2][Ring1][=Branch2]": 41219,
  "[Branch2][Ring1][=Branch2][C]": 687,
  "[Branch2][Ring1][=Branch2][N]": 7442,
  "[Branch2][Ring1][=Branch2][O]": 1036,
  "[Branch2][Ring1][=C]": 29911,
  "[Branch2][Ring1][=C][C]": 647,
  "[Branch2][Ring1][=C][N]": 4623,
  "[Branch2][Ring1][=C][O]": 739,
  "[Branch2][Ring1][=N]": 24310,
  "[Branch2][Ring1][=N][C]": 697,
  "[Branch2][Ring1][=N][N]": 5560,
  "[Branch2][Ring1][=N][O]": 854,
  "[Branch2][Ring1][Branch1]": 17027,
  "[Branch2][Ring1][Branch1][C]": 13648,
  "[Branch2][Ring1][Branch1][N]": 7455,
  "[Branch2][Ring1][Branch1][O]": 5532,
  "[Branch2][Ring1][Branch2]": 44746,
  "[Branch2][Ring1][Branch2][C]": 1226,
  "[Branch2][Ring1][Branch2][N]": 7893,
  "[Branch2][Ring1][Branch2][O]": 1373,
  "[Branch2][Ring1][C]": 10089,
  "[Branch2][Ring1][C][C]": 14544,
  "[Branch2][Ring1][C][N]": 8947,
  "[Branch2][Ring1][C][O]": 2071,
  "[Branch2][Ring1][N]": 19640,
  "[Branch2][Ring1][N][C]": 2518,
  "[Branch2][Ring1][N][N]": 6322,
  "[Branch2][Ring1][N][O]": 1270,
  "[Branch2][Ring1][O]": 30080,
  "[Branch2][Ring1][O][C@@H1]": 688,
  "[Branch2][Ring1][O][C@H1]": 502,
  "[Branch2][Ring1][O][C]": 2609,
  "[Branch2][Ring1][O][N]": 5410,
  "[Branch2][Ring1][O][O]": 864,
  "[Branch2][Ring1][P]": 25829,
  "[Branch2][Ring1][P][N]": 3698,
  "[Branch2][Ring1][P][O]": 585,
  "[Branch2][Ring1][Ring1]": 49632,
  "[Branch2][Ring1][Ring1][C]": 1200,
  "[Branch2][Ring1][Ring1][N]": 8536,
  "[Branch2][Ring1][Ring1][O]": 2685,
  "[Branch2][Ring1][Ring2]": 55922,
  "[Branch2][Ring1][Ring2][C]": 3038,
  "[Branch2][Ring1][Ring2][N]": 9416,
  "[Branch2][Ring1][Ring2][O]": 2508,
  "[Branch2][Ring1][S]": 24792,
  "[Branch2][Ring1][S][C]": 807,
  "[Branch2][Ring1][S][N]": 4020,
  "[Branch2][Ring1][S][O]": 869,
  "[Branch2][Ring2]": 407125,
  "[Branch2][Ring2][#Branch1]": 26184,
  "[Branch2][Ring2][#Branch1][C]": 744,
  "[Branch2][Ring2][#Branch1][N]": 3276,
  "[Branch2][Ring2][#Branch1][O]": 644,
  "[Branch2][Ring2][#Branch2]": 21524,
  "[Branch2][Ring2][#Branch2][C]": 1031,
  "[Branch2][Ring2][#Branch2][N]": 2656,
  "[Branch2][Ring2][#Branch2][O]": 617,
  "[Branch2][Ring2][#C]": 14870,
  "[Branch2][Ring2][#C][N]": 1736,
  "[Branch2][Ring2][=Branch1]": 19367,
  "[Branch2][Ring2][=Branch1][C]": 7957,
  "[Branch2][Ring2][=Branch1][N]": 3749,
  "[Branch2][Ring2][=Branch1][O]": 595,
  "[Branch2][Ring2][=Branch2]": 23094,
  "[Branch2][Ring2][=Branch2][N]": 2839,
  "[Branch2][Ring2][=Branch2][O]": 614,
  "[Branch2][Ring2][=C]": 14957,
  "[Branch2][Ring2][=C][N]": 1855,
  "[Branch2][Ring2][=N]": 13129,
  "[Branch2][Ring2][=N][N]": 2854,
  "[Branch2][Ring2][=N][O]": 563,
  "[Branch2][Ring2][Branch1]": 9512,
  "[Branch2][Ring2][Branch1][C]": 6274,
  "[Branch2][Ring2][Branch1][N]": 4950,
  "[Branch2][Ring2][Branch1][O]": 1024,
  "[Branch2][Ring2][Branch2]": 25607,
  "[Branch2][Ring2][Branch2][C]": 768,
  "[Branch2][Ring2][Branch2][N]": 3081,
  "[Branch2][Ring2][Branch2][O]": 546,
  "[Branch2][Ring2][C]": 6325,
  "[Branch2][Ring2][C][C]": 8044,
  "[Branch2][Ring2][C][N]": 5493,
  "[Branch2][Ring2][C][O]": 1437,
  "[Branch2][Ring2][N]": 10348,
  "[Branch2][Ring2][N][C]": 1291,
  "[Branch2][Ring2][N][N]": 2493,
  "[Branch2][Ring2][N][O]": 512,
  "[Branch2][Ring2][O]": 15980,
  "[Branch2][Ring2][O][C]": 1142,
  "[Branch2][Ring2][O][N]": 2678,
  "[Branch2][Ring2][O][O]": 555,
  "[Branch2][Ring2][P]": 11830,
  "[Branch2][Ring2][P][N]": 1273,
  "[Branch2][Ring2][Ring1]": 41983,
  "[Branch2][Ring2][Ring1][Branch1]": 606,
  "[Branch2][Ring2][Ring1][C]": 664,
  "[Branch2][Ring2][Ring1][N]": 4389,
  "[Branch2][Ring2][Ring1][O]": 1268,
  "[Branch2][Ring2][Ring2]": 34032,
  "[Branch2][Ring2][Ring2][C]": 816,
  "[Branch2][Ring2][Ring2][N]": 4677,
  "[Branch2][Ring2][Ring2][O]": 716,
  "[Branch2][Ring2][S]": 11974,
  "[Branch2][Ring2][S][C]": 550,
  "[Branch2][Ring2][S][N]": 1718,
  "[C+1]": 155,
  "[C-1]": 1239,
  "[C-1][#N+1]": 1158,
  "[C@@H1]": 670682,
  "[C@@H1][Branch1][#Branch1]": 537,
  "[C@@H1][Branch1][#Branch2]": 2326,
  "[C@@H1][Branch1][#Branch2][C]": 3835,
  "[C@@H1][Branch1][#C]": 1808,
  "[C@@H1][Branch1][#C][N]": 610,
  "[C@@H1][Branch1][=Branch1]": 1045,
  "[C@@H1][Branch1][=Branch1][C]": 1643,
  "[C@@H1][Branch1][=Branch2]": 2857,
  "[C@@H1][Branch1][=C][O]": 575,
  "[C@@H1][Branch1][=N]": 561,
  "[C@@H1][Branch1][=N][C]": 1231,
  "[C@@H1][Branch1][Branch2]": 795,
  "[C@@H1][Branch1][C]": 1815,
  "[C@@H1][Branch1][C][C]": 19264,
  "[C@@H1][Branch1][C][F]": 504,
  "[C@@H1][Branch1][C][N]": 1213,
  "[C@@H1][Branch1][C][O]": 6509,
  "[C@@H1][Branch1][N]": 1767,
  "[C@@H1][Branch1][Ring1]": 551,
  "[C@@H1][Branch1][Ring2]": 1282,
  "[C@@H1][Branch1][S]": 824,
  "[C@@H1][Branch1][S][N]": 525,
  "[C@@H1][Branch2][Ring1]": 985,
  "[C@@H1][Branch2][Ring1][Ring1]": 505,
  "[C@@H1][Branch2][Ring1][Ring2]": 750,
  "[C@@H1][C@@H1]": 4271,
  "[C@@H1][C@H1]": 2589,
  "[C@@H1][C]": 1765,
  "[C@@H1][C][C@@H1]": 6094,
  "[C@@H1][C][C@@]": 679,
  "[C@@H1][C][C@H1]": 6372,
  "[C@@H1][C][C]": 4634,
  "[C@@H1][C][C][C@@H1]": 1520,
  "[C@@H1][C][C][C@@]": 513,
  "[C@@H1][C][C][C@H1]": 4204,
  "[C@@H1][C][C][N]": 585,
  "[C@@H1][C][N]": 3257,
  "[C@@H1][C][O]": 581,
  "[C@@H1][C][S]": 524,
  "[C@@H1][N]": 552,
  "[C@@H1][O]": 1181,
  "[C@@H1][O][C@@H1]": 1240,
  "[C@@H1][O][C@H1]": 11947,
  "[C@@H1][Ring1]": 1049,
  "[C@@H1][Ring1][#Branch1]": 2647,
  "[C@@H1][Ring1][#Branch2]": 713,
  "[C@@H1][Ring1][#C]": 1977,
  "[C@@H1][Ring1][=Branch1]": 3021,
  "[C@@H1][Ring1][=Branch1][C]": 938,
  "[C@@H1][Ring1][=Branch1][O]": 503,
  "[C@@H1][Ring1][=Branch2]": 576,
  "[C@@H1][Ring1][=C]": 758,
  "[C@@H1][Ring1][=N]": 1343,
  "[C@@H1][Ring1][Branch1]": 593,
  "[C@@H1][Ring1][Branch2]": 968,
  "[C@@H1][Ring1][N]": 597,
  "[C@@H1][Ring1][O]": 565,
  "[C@@H1][Ring1][P]": 1412,
  "[C@@H1][Ring1][S]": 789,
  "[C@@H1][Ring2][Ring1]": 3123,
  "[C@@H1][Ring2][Ring1][Ring1]": 891,
  "[C@@H1][Ring2][Ring1][Ring2]": 598,
  "[C@@H1][Ring2][Ring2]": 1117,
  "[C@@]": 107477,
  "[C@@][Branch1][C][C]": 25339,
  "[C@@][Branch1][C][O]": 3832,
  "[C@@][Branch1][P]": 1413,
  "[C@@][C][C][C@@H1]": 520,
  "[C@@][Ring1]": 935,
  "[C@@][Ring1][#Branch1]": 652,
  "[C@@][Ring1][#Branch2]": 643,
  "[C@@][Ring1][#C]": 1490,
  "[C@@][Ring1][=Branch1]": 760,
  "[C@@][Ring1][=Branch2]": 662,
  "[C@@][Ring1][=N]": 1583,
  "[C@@][Ring1][O]": 788,
  "[C@@][Ring1][P]": 547,
  "[C@@][Ring1][S]": 898,
  "[C@@][Ring2][Ring1]": 1016,
  "[C@H1]": 713268,
  "[C@H1][Branch1][#Branch1]": 977,
  "[C@H1][Branch1][#Branch2]": 2599,
  "[C@H1][Branch1][#Branch2][C]": 5812,
  "[C@H1][Branch1][#C]": 2690,
  "[C@H1][Branch1][=Branch1]": 2105,
  "[C@H1][Branch1][=Branch1][C]": 2550,
  "[C@H1][Branch1][=Branch1][N]": 1151,
  "[C@H1][Branch1][=Branch2]": 4500,
  "[C@H1][Branch1][=C][O]": 617,
  "[C@H1][Branch1][=N]": 898,
  "[C@H1][Branch1][=N][C]": 1591,
  "[C@H1][Branch1][Branch2]": 1068,
  "[C@H1][Branch1][C][C]": 16492,
  "[C@H1][Branch1][C][F]": 919,
  "[C@H1][Branch1][C][N]": 1489,
  "[C@H1][Branch1][C][O]": 7020,
  "[C@H1][Branch1][N]": 2088,
  "[C@H1][Branch1][P]": 796,
  "[C@H1][Branch1][Ring1]": 641,
  "[C@H1][Branch1][Ring2]": 1703,
  "[C@H1][Branch1][S]": 952,
  "[C@H1][Branch2][Ring1]": 1225,
  "[C@H1][Branch2][Ring1][#Branch1]": 531,
  "[C@H1][Branch2][Ring1][Ring1]": 784,
  "[C@H1][Branch2][Ring1][Ring2]": 618,
  "[C@H1][C@@H1]": 2926,
  "[C@H1][C@H1]": 3988,
  "[C@H1][C]": 1771,
  "[C@H1][C][C@@H1]": 5848,
  "[C@H1][C][C@@]": 576,
  "[C@H1][C][C@H1]": 5569,
  "[C@H1][C][C]": 2781,
  "[C@H1][C][C][C@@H1]": 2901,
  "[C@H1][C][C][C@@]": 894,
  "[C@H1][C][C][C@H1]": 7927,
  "[C@H1][C][C][C@]": 1787,
  "[C@H1][C][C][C]": 781,
  "[C@H1][C][C][N]": 616,
  "[C@H1][C][N]": 2299,
  "[C@H1][C][O]": 1366,
  "[C@H1][N][C@@H1]": 580,
  "[C@H1][O]": 1781,
  "[C@H1][O][C@@H1]": 2233,
  "[C@H1][O][C@H1]": 1328,
  "[C@H1][Ring1][#Branch1]": 1916,
  "[C@H1][Ring1][#Branch2]": 1530,
  "[C@H1][Ring1][#Branch2][O]": 1154,
  "[C@H1][Ring1][#C]": 1914,
  "[C@H1][Ring1][=Branch1]": 2520,
  "[C@H1][Ring1][=Branch1][C]": 2001,
  "[C@H1][Ring1][=Branch2]": 1096,
  "[C@H1][Ring1][=C]": 1283,
  "[C@H1][Ring1][=N]": 1421,
  "[C@H1][Ring1][Branch2]": 1429,
  "[C@H1][Ring1][N]": 1176,
  "[C@H1][Ring1][O]": 1609,
  "[C@H1][Ring1][P]": 1214,
  "[C@H1][Ring1][S]": 806,
  "[C@H1][Ring2][Ring1]": 2565,
  "[C@H1][Ring2][Ring1][#Branch1]": 1194,
  "[C@H1][Ring2][Ring1][Ring1]": 1135,
  "[C@H1][Ring2][Ring1][Ring2]": 572,
  "[C@]": 133229,
  "[C@][Branch1][C][C]": 14036,
  "[C@][Branch1][C][O]": 4723,
  "[C@][C][C][C]": 606,
  "[C@][Ring1]": 508,
  "[C@][Ring1][#Branch1]": 835,
  "[C@][Ring1][#Branch2]": 548,
  "[C@][Ring1][#C]": 1106,
  "[C@][Ring1][=Branch1]": 554,
  "[C@][Ring1][=Branch2]": 704,
  "[C@][Ring1][Branch2]": 749,
  "[C@][Ring1][N]": 521,
  "[C@][Ring1][O]": 745,
  "[C@][Ring1][P]": 540,
  "[C@][Ring1][S]": 772,
  "[C@][Ring2][Ring1]": 1088,
  "[C@][Ring2][Ring1][Ring1]": 1234,
  "[CH0]": 4,
  "[CH1-1]": 15,
  "[CH1]": 2,
  "[CH2]": 6,
  "[CH3]": 3,
  "[C]": 34974854,
  "[C][#C]": 15554,
  "[C][#C][C][N]": 1915,
  "[C][#C][C][O]": 1128,
  "[C][#N]": 73783,
  "[C][#N][=C]": 9389,
  "[C][#N][=N]": 795,
  "[C][#N][C][=N]": 4007,
  "[C][/C]": 3507,
  "[C][/C][=Branch1]": 2159,
  "[C][/C][=Branch2]": 3903,
  "[C][/C][=C]": 891,
  "[C][/C][=C][/C]": 2268,
  "[C][/C][=C][\\C]": 1537,
  "[C][=Branch1]": 104865,
  "[C][=Branch1][#Branch1]": 1126,
  "[C][=Branch1][#Branch2]": 700,
  "[C][=Branch1][#C]": 522,
  "[C][=Branch1][=Branch1]": 4333,
  "[C][=Branch1][Branch1]": 1561,
  "[C][=Branch1][Branch1][=C]": 2180,
  "[C][=Branch1][Branch2]": 576,
  "[C][=Branch1][C][=N]": 1545,
  "[C][=Branch1][C][=O]": 1402447,
  "[C][=Branch1][C][=S]": 5852,
  "[C][=Branch1][Ring2]": 88664,
  "[C][=Branch1][Ring2][=N]": 4657,
  "[C][=Branch2]": 4419,
  "[C][=C]": 9872757,
  "[C][=C][Branch1]": 249266,
  "[C][=C][Branch1][#Branch1]": 9506,
  "[C][=C][Branch1][#Branch2]": 9101,
  "[C][=C][Branch1][#C]": 10641,
  "[C][=C][Branch1][=Branch1]": 3835,
  "[C][=C][Branch1][=Branch2]": 38899,
  "[C][=C][Branch1][=C]": 11557,
  "[C][=C][Branch1][=N]": 9465,
  "[C][=C][Branch1][Branch1]": 833,
  "[C][=C][Branch1][Branch2]": 11490,
  "[C][=C][Branch1][N]": 19787,
  "[C][=C][Branch1][O]": 6175,
  "[C][=C][Branch1][P]": 10257,
  "[C][=C][Branch1][Ring1]": 38524,
  "[C][=C][Branch1][Ring2]": 5421,
  "[C][=C][Branch1][S]": 10138,
  "[C][=C][Branch2][Ring1]": 99044,
  "[C][=C][Branch2][Ring2]": 1621,
  "[C][=C][C@@H1]": 4715,
  "[C][=C][C@@]": 834,
  "[C][=C][C@H1]": 3140,
  "[C][=C][C@]": 2290,
  "[C][=C][C]": 396505,
  "[C][=C][C][=Branch1]": 16162,
  "[C][=C][C][=Branch2]": 2419,
  "[C][=C][C][=C]": 3803550,
  "[C][=C][C][=N+1]": 2529,
  "[C][=C][C][=N]": 114208,
  "[C][=C][C][=Ring1]": 1713,
  "[C][=C][C][Branch1]": 192226,
  "[C][=C][C][Branch2]": 845,
  "[C][=C][C][C@@H1]": 2371,
  "[C][=C][C][C@H1]": 1100,
  "[C][=C][C][C]": 5833,
  "[C][=C][C][NH1]": 1507,
  "[C][=C][C][N]": 6944,
  "[C][=C][C][O]": 3803,
  "[C][=C][C][Ring1]": 729,
  "[C][=C][C][S]": 779,
  "[C][=C][N+1]": 1478,
  "[C][=C][N+1][=Branch2]": 513,
  "[C][=C][NH1]": 27506,
  "[C][=C][N]": 7172,
  "[C][=C][N][=C]": 139101,
  "[C][=C][N][=N]": 1493,
  "[C][=C][N][Branch1]": 14052,
  "[C][=C][N][C]": 598,
  "[C][=C][N][Ring1]": 2802,
  "[C][=C][O]": 3327,
  "[C][=C][O][C]": 1394,
  "[C][=C][Ring1]": 1822680,
  "[C][=C][Ring1][#Branch1]": 361516,
  "[C][=C][Ring1][#Branch2]": 102665,
  "[C][=C][Ring1][#C]": 43151,
  "[C][=C][Ring1][=Branch1]": 666643,
  "[C][=C][Ring1][=Branch2]": 82372,
  "[C][=C][Ring1][=C]": 37605,
  "[C][=C][Ring1][=N]": 38161,
  "[C][=C][Ring1][Branch1]": 3591,
  "[C][=C][Ring1][Branch2]": 74275,
  "[C][=C][Ring1][N]": 34098,
  "[C][=C][Ring1][O]": 42932,
  "[C][=C][Ring1][P]": 41285,
  "[C][=C][Ring1][S]": 45608,
  "[C][=C][Ring2]": 3815,
  "[C][=C][Ring2][Ring1]": 439193,
  "[C][=C][Ring2][Ring2]": 45818,
  "[C][=C][S]": 34989,
  "[C][=C][S][C]": 909,
  "[C][=N+1]": 2411,
  "[C][=N]": 789167,
  "[C][=N][C]": 1335,
  "[C][=N][C][=C]": 9644,
  "[C][=N][C][=N]": 27389,
  "[C][=N][C][=Ring1]": 606,
  "[C][=N][C][Branch1]": 723,
  "[C][=N][C][C]": 2623,
  "[C][=N][C][NH1]": 1372,
  "[C][=N][C][S]": 989,
  "[C][=N][NH1]": 7178,
  "[C][=N][N]": 5520,
  "[C][=N][N][=C]": 36870,
  "[C][=N][N][=N]": 4185,
  "[C][=N][N][C]": 764,
  "[C][=N][N][Ring1]": 2507,
  "[C][=N][O]": 7581,
  "[C][=N][O][C]": 2880,
  "[C][=N][Ring1][#Branch1]": 10676,
  "[C][=N][Ring1][#Branch2]": 4172,
  "[C][=N][Ring1][#C]": 1599,
  "[C][=N][Ring1][=Branch1]": 29823,
  "[C][=N][Ring1][=Branch2]": 1988,
  "[C][=N][Ring1][=C]": 1629,
  "[C][=N][Ring1][=N]": 1513,
  "[C][=N][Ring1][Branch1]": 7356,
  "[C][=N][Ring1][Branch2]": 2276,
  "[C][=N][Ring1][N]": 802,
  "[C][=N][Ring1][P]": 1461,
  "[C][=N][Ring1][S]": 1567,
  "[C][=N][Ring2][Ring1]": 1112,
  "[C][=N][S]": 1678,
  "[C][=O]": 8879,
  "[C][=Ring1]": 89662,
  "[C][=Ring1][#Branch1]": 3324,
  "[C][=Ring1][#Branch2]": 4880,
  "[C][=Ring1][#C]": 2519,
  "[C][=Ring1][=Branch1]": 947,
  "[C][=Ring1][=Branch2]": 3699,
  "[C][=Ring1][=C]": 2705,
  "[C][=Ring1][=N]": 3215,
  "[C][=Ring1][Branch1]": 6598,
  "[C][=Ring1][Branch1][=C]": 681,
  "[C][=Ring1][Branch1][C]": 7500,
  "[C][=Ring1][Branch1][N]": 600,
  "[C][=Ring1][Branch2]": 3598,
  "[C][=Ring1][N]": 2527,
  "[C][=Ring1][O]": 2123,
  "[C][=Ring1][P]": 2493,
  "[C][=Ring1][S]": 1959,
  "[C][=Ring2]": 23773,
  "[C][=Ring2][Ring1]": 1617,
  "[C][=Ring2][Ring1][#Branch1]": 1832,
  "[C][=Ring2][Ring1][#Branch2]": 1346,
  "[C][=Ring2][Ring1][#C]": 518,
  "[C][=Ring2][Ring1][=Branch1]": 955,
  "[C][=Ring2][Ring1][=Branch2]": 931,
  "[C][=Ring2][Ring1][=C]": 664,
  "[C][=Ring2][Ring1][=N]": 640,
  "[C][=Ring2][Ring1][Branch1]": 1009,
  "[C][=Ring2][Ring1][Branch2]": 1591,
  "[C][=Ring2][Ring1][C]": 733,
  "[C][=Ring2][Ring1][N]": 669,
  "[C][=Ring2][Ring1][O]": 671,
  "[C][=Ring2][Ring1][Ring1]": 1966,
  "[C][=Ring2][Ring1][Ring2]": 2154,
  "[C][=Ring2][Ring2]": 567,
  "[C][Br]": 955,
  "[C][Branch1]": 779485,
  "[C][Branch1][#Branch1]": 19131,
  "[C][Branch1][#Branch2]": 32054,
  "[C][Branch1][#Branch2][C]": 6796,
  "[C][Branch1][#Branch2][N]": 4533,
  "[C][Branch1][#Branch2][O]": 3035,
  "[C][Branch1][#Branch2][S]": 503,
  "[C][Branch1][#C]": 27911,
  "[C][Branch1][#C][N]": 3177,
  "[C][Branch1][#C][O]": 940,
  "[C][Branch1][=Branch1]": 11231,
  "[C][Branch1][=Branch1][C]": 32624,
  "[C][Branch1][=Branch1][N+1]": 13935,
  "[C][Branch1][=Branch2]": 122378,
  "[C][Branch1][=C]": 29305,
  "[C][Branch1][=C][C]": 657,
  "[C][Branch1][=C][N]": 5294,
  "[C][Branch1][=C][O]": 885,
  "[C][Branch1][=N]": 22776,
  "[C][Branch1][=N][C]": 2000,
  "[C][Branch1][=N][N]": 6025,
  "[C][Branch1][=N][O]": 1372,
  "[C][Branch1][Branch1][C]": 520,
  "[C][Branch1][Branch2]": 30360,
  "[C][Branch1][Branch2][N]": 1957,
  "[C][Branch1][Branch2][O]": 910,
  "[C][Branch1][C]": 83053,
  "[C][Branch1][C][2H]": 866,
  "[C][Branch1][C][Br]": 14965,
  "[C][Branch1][C][C]": 95495,
  "[C][Branch1][C][Cl]": 82638,
  "[C][Branch1][C][F]": 216398,
  "[C][Branch1][C][I]": 1475,
  "[C][Branch1][C][N]": 2639,
  "[C][Branch1][C][O]": 43897,
  "[C][Branch1][N]": 39480,
  "[C][Branch1][N][C]": 841,
  "[C][Branch1][N][N]": 1165,
  "[C][Branch1][O]": 17787,
  "[C][Branch1][O][C]": 1909,
  "[C][Branch1][O][N]": 2178,
  "[C][Branch1][O][O]": 816,
  "[C][Branch1][P]": 24764,
  "[C][Branch1][P][C]": 576,
  "[C][Branch1][P][N]": 4331,
  "[C][Branch1][P][O]": 579,
  "[C][Branch1][Ring1]": 37456,
  "[C][Branch1][Ring1][C]": 1782,
  "[C][Branch1][Ring1][O]": 40730,
  "[C][Branch1][Ring1][S]": 1008,
  "[C][Branch1][Ring2]": 10500,
  "[C][Branch1][S]": 26384,
  "[C][Branch1][S][C]": 760,
  "[C][Branch1][S][N]": 3749,
  "[C][Branch1][S][O]": 808,
  "[C][Branch2]": 19420,
  "[C][Branch2][#Branch1]": 609,
  "[C][Branch2][=Branch1]": 2284,
  "[C][Branch2][Branch1][#Branch1]": 1260,
  "[C][Branch2][Branch1][#Branch2]": 800,
  "[C][Branch2][Branch1][=Branch1]": 1184,
  "[C][Branch2][Branch1][=Branch2]": 1015,
  "[C][Branch2][Branch1][=N]": 581,
  "[C][Branch2][Branch1][Branch1]": 622,
  "[C][Branch2][Branch1][Branch2]": 991,
  "[C][Branch2][Branch1][C]": 643,
  "[C][Branch2][Branch1][O]": 520,
  "[C][Branch2][Branch1][Ring1]": 1730,
  "[C][Branch2][Branch1][Ring2]": 1819,
  "[C][Branch2][Ring1]": 217560,
  "[C][Branch2][Ring1][#Branch1]": 14883,
  "[C][Branch2][Ring1][#Branch2]": 12478,
  "[C][Branch2][Ring1][#C]": 8992,
  "[C][Branch2][Ring1][=Branch1]": 11286,
  "[C][Branch2][Ring1][=Branch2]": 13513,
  "[C][Branch2][Ring1][=C]": 9166,
  "[C][Branch2][Ring1][=N]": 7184,
  "[C][Branch2][Ring1][Branch1]": 4995,
  "[C][Branch2][Ring1][Branch2]": 16354,
  "[C][Branch2][Ring1][C]": 3190,
  "[C][Branch2][Ring1][N]": 5825,
  "[C][Branch2][Ring1][O]": 6767,
  "[C][Branch2][Ring1][P]": 8004,
  "[C][Branch2][Ring1][Ring1]": 16660,
  "[C][Branch2][Ring1][Ring2]": 20044,
  "[C][Branch2][Ring1][S]": 7391,
  "[C][Branch2][Ring2]": 68086,
  "[C][Branch2][Ring2][#Branch1]": 5608,
  "[C][Branch2][Ring2][#Branch2]": 3399,
  "[C][Branch2][Ring2][#C]": 2154,
  "[C][Branch2][Ring2][=Branch1]": 3016,
  "[C][Branch2][Ring2][=Branch2]": 4762,
  "[C][Branch2][Ring2][=C]": 2602,
  "[C][Branch2][Ring2][=N]": 2464,
  "[C][Branch2][Ring2][Branch1]": 1834,
  "[C][Branch2][Ring2][Branch2]": 4880,
  "[C][Branch2][Ring2][C]": 1284,
  "[C][Branch2][Ring2][N]": 1471,
  "[C][Branch2][Ring2][O]": 2067,
  "[C][Branch2][Ring2][P]": 2239,
  "[C][Branch2][Ring2][Ring1]": 5999,
  "[C][Branch2][Ring2][Ring2]": 7095,
  "[C][Branch2][Ring2][S]": 2096,
  "[C][C@@H1]": 105130,
  "[C][C@@H1][Branch1][=Branch2]": 782,
  "[C][C@@H1][C@@H1]": 657,
  "[C][C@@H1][C][C@@H1]": 677,
  "[C][C@@H1][C][C@H1]": 1547,
  "[C][C@@H1][C][C]": 1135,
  "[C][C@@H1][C][N]": 5453,
  "[C][C@@H1][C][O]": 648,
  "[C][C@@H1][N]": 1155,
  "[C][C@@H1][O][C@@H1]": 727,
  "[C][C@@H1][Ring1]": 774,
  "[C][C@@H1][Ring1][#Branch1]": 519,
  "[C][C@@H1][Ring1][#C]": 776,
  "[C][C@@H1][Ring1][=C]": 950,
  "[C][C@@H1][Ring1][Branch1]": 792,
  "[C][C@@H1][Ring1][P]": 856,
  "[C][C@@H1][Ring1][Ring1]": 2617,
  "[C][C@@H1][Ring1][S]": 508,
  "[C][C@@H1][Ring2][Ring1]": 1198,
  "[C][C@@H1][Ring2][Ring2]": 506,
  "[C][C@@]": 12899,
  "[C][C@@][Ring1][#C]": 820,
  "[C][C@H1]": 107845,
  "[C][C@H1][Branch1][#C]": 652,
  "[C][C@H1][Branch1][=Branch2]": 895,
  "[C][C@H1][Branch2][Ring1]": 648,
  "[C][C@H1][C@@H1]": 1053,
  "[C][C@H1][C@H1]": 564,
  "[C][C@H1][C][C@@H1]": 1191,
  "[C][C@H1][C][C@H1]": 746,
  "[C][C@H1][C][C]": 722,
  "[C][C@H1][C][N]": 2804,
  "[C][C@H1][C][O]": 591,
  "[C][C@H1][O]": 598,
  "[C][C@H1][O][C@@H1]": 692,
  "[C][C@H1][Ring1]": 2038,
  "[C][C@H1][Ring1][#Branch1]": 615,
  "[C][C@H1][Ring1][Branch1]": 873,
  "[C][C@H1][Ring1][Ring1]": 2022,
  "[C][C@H1][Ring1][S]": 519,
  "[C][C@]": 16929,
  "[C][C@][C][C]": 659,
  "[C][C@][Ring1]": 1066,
  "[C][C]": 7422316,
  "[C][C][#C]": 3844,
  "[C][C][#N]": 4438,
  "[C][C][/C]": 2518,
  "[C][C][=Branch1]": 720,
  "[C][C][=C]": 81993,
  "[C][C][=C][Branch1]": 15335,
  "[C][C][=C][C]": 57531,
  "[C][C][=C][NH1]": 11000,
  "[C][C][=C][N]": 3487,
  "[C][C][=C][O]": 797,
  "[C][C][=C][S]": 5203,
  "[C][C][=N]": 99774,
  "[C][C][=N][C]": 506,
  "[C][C][=N][NH1]": 9355,
  "[C][C][=N][N]": 7620,
  "[C][C][=N][O]": 1360,
  "[C][C][=Ring2]": 838,
  "[C][C][Branch1][#Branch1]": 830,
  "[C][C][Branch1][#Branch2]": 1426,
  "[C][C][Branch1][#C]": 2326,
  "[C][C][Branch1][=Branch2]": 7027,
  "[C][C][Branch1][=C]": 1257,
  "[C][C][Branch1][=N]": 2006,
  "[C][C][Branch1][Branch2]": 2099,
  "[C][C][Branch1][C]": 4439,
  "[C][C][Branch1][N]": 2945,
  "[C][C][Branch1][O]": 707,
  "[C][C][Branch1][P]": 1535,
  "[C][C][Branch1][Ring1]": 836,
  "[C][C][Branch1][Ring2]": 2016,
  "[C][C][Branch1][S]": 1897,
  "[C][C][Branch2][Ring1]": 1477,
  "[C][C][C@@H1]": 51153,
  "[C][C][C@@H1][C@@H1]": 1213,
  "[C][C][C@@H1][Ring1]": 801,
  "[C][C][C@@]": 16142,
  "[C][C][C@H1]": 70803,
  "[C][C][C@H1][C@@H1]": 3533,
  "[C][C][C@H1][O]": 1257,
  "[C][C][C@H1][Ring1]": 1221,
  "[C][C][C@]": 36177,
  "[C][C][C@][Ring1]": 1536,
  "[C][C][C]": 133971,
  "[C][C][C][=C]": 18685,
  "[C][C][C][=N]": 13346,
  "[C][C][C][Branch1]": 4167,
  "[C][C][C][C@@H1]": 7853,
  "[C][C][C][C@@]": 2253,
  "[C][C][C][C@H1]": 7404,
  "[C][C][C][C@]": 3656,
  "[C][C][C][C]": 521382,
  "[C][C][C][N]": 92556,
  "[C][C][C][O]": 31559,
  "[C][C][C][Ring1]": 88793,
  "[C][C][C][S]": 1833,
  "[C][C][Cl]": 3168,
  "[C][C][F]": 864,
  "[C][C][N+1]": 1176,
  "[C][C][N+1][=C]": 864,
  "[C][C][NH1]": 3404,
  "[C][C][N]": 94485,
  "[C][C][N][=C]": 7875,
  "[C][C][N][=N]": 737,
  "[C][C][N][Branch1]": 40214,
  "[C][C][N][C]": 8874,
  "[C][C][N][Ring1]": 1394,
  "[C][C][O]": 114504,
  "[C][C][O][C@@H1]": 1614,
  "[C][C][O][C]": 11463,
  "[C][C][Ring1]": 226935,
  "[C][C][Ring1][#Branch1]": 30019,
  "[C][C][Ring1][#Branch2]": 8857,
  "[C][C][Ring1][#C]": 15699,
  "[C][C][Ring1][=Branch1]": 25455,
  "[C][C][Ring1][=Branch2]": 8494,
  "[C][C][Ring1][=C]": 15380,
  "[C][C][Ring1][=N]": 22080,
  "[C][C][Ring1][Branch1]": 22149,
  "[C][C][Ring1][Branch2]": 10430,
  "[C][C][Ring1][N]": 11407,
  "[C][C][Ring1][O]": 3804,
  "[C][C][Ring1][P]": 11235,
  "[C][C][Ring1][Ring1]": 4429,
  "[C][C][Ring1][Ring2]": 4015,
  "[C][C][Ring1][S]": 16758,
  "[C][C][Ring2][Ring1]": 102657,
  "[C][C][Ring2][Ring2]": 595,
  "[C][C][S]": 8990,
  "[C][C][S][C]": 1134,
  "[C][Cl]": 5574,
  "[C][F]": 5184,
  "[C][N+1]": 9454,
  "[C][N+1][=C]": 3084,
  "[C][NH1]": 28087,
  "[C][NH1][C][=C]": 6175,
  "[C][NH1][C][=N]": 2111,
  "[C][NH1][N][=C]": 3340,
  "[C][N]": 561652,
  "[C][N][=C]": 20201,
  "[C][N][=N]": 3693,
  "[C][N][=N][NH1]": 2058,
  "[C][N][Branch1][#Branch1]": 1812,
  "[C][N][Branch1][#Branch2]": 1373,
  "[C][N][Branch1][#C]": 2355,
  "[C][N][Branch1][=Branch1]": 562,
  "[C][N][Branch1][=Branch2]": 7211,
  "[C][N][Branch1][=C]": 3982,
  "[C][N][Branch1][=N]": 2693,
  "[C][N][Branch1][Branch2]": 945,
  "[C][N][Branch1][N]": 1860,
  "[C][N][Branch1][O]": 993,
  "[C][N][Branch1][P]": 3031,
  "[C][N][Branch1][Ring1]": 690,
  "[C][N][Branch1][Ring2]": 1625,
  "[C][N][Branch1][S]": 1901,
  "[C][N][Branch2][Ring1]": 1965,
  "[C][N][Branch2][Ring2]": 853,
  "[C][N][C@@H1]": 1923,
  "[C][N][C@H1]": 1564,
  "[C][N][C]": 16433,
  "[C][N][C][=C]": 10474,
  "[C][N][C][=N]": 21498,
  "[C][N][C][C@@H1]": 4373,
  "[C][N][C][C@H1]": 3006,
  "[C][N][C][C]": 110146,
  "[C][N][N][=C]": 14331,
  "[C][N][N][=N]": 4183,
  "[C][N][Ring1][#Branch1]": 1245,
  "[C][N][Ring1][#C]": 786,
  "[C][N][Ring1][=Branch1]": 1227,
  "[C][N][Ring1][=Branch2]": 828,
  "[C][N][Ring1][=N]": 565,
  "[C][N][Ring1][Branch2]": 1023,
  "[C][N][Ring1][P]": 503,
  "[C][N][Ring1][S]": 713,
  "[C][N][Ring2][Ring1]": 519,
  "[C][O]": 678688,
  "[C][O][/N][=C]": 731,
  "[C][O][=C]": 4646,
  "[C][O][C@@H1]": 6923,
  "[C][O][C@@]": 1216,
  "[C][O][C@H1]": 10106,
  "[C][O][C@]": 1168,
  "[C][O][C]": 11799,
  "[C][O][C][=C]": 8579,
  "[C][O][C][=N]": 12885,
  "[C][O][C][C@@H1]": 3400,
  "[C][O][C][C@H1]": 3878,
  "[C][O][C][C@]": 534,
  "[C][O][C][C]": 18476,
  "[C][O][C][O]": 2232,
  "[C][O][N]": 1018,
  "[C][O][N][=C]": 1231,
  "[C][O][Ring1][#C]": 554,
  "[C][O][Ring1][=Branch2]": 700,
  "[C][O][Ring1][Branch1]": 1133,
  "[C][O][Ring1][Branch2]": 2151,
  "[C][Ring1]": 444693,
  "[C][Ring1][#Branch1]": 47921,
  "[C][Ring1][#Branch1][=C]": 1857,
  "[C][Ring1][#Branch1][=N]": 2170,
  "[C][Ring1][#Branch1][=O]": 8886,
  "[C][Ring1][#Branch1][N]": 757,
  "[C][Ring1][#Branch2]": 24366,
  "[C][Ring1][#Branch2][=C]": 891,
  "[C][Ring1][#Branch2][=O]": 3146,
  "[C][Ring1][#C]": 24714,
  "[C][Ring1][#C][=O]": 5940,
  "[C][Ring1][=Branch1]": 59454,
  "[C][Ring1][=Branch1][=C]": 1742,
  "[C][Ring1][=Branch1][=N+1]": 542,
  "[C][Ring1][=Branch1][=N]": 9736,
  "[C][Ring1][=Branch1][=O]": 2566,
  "[C][Ring1][=Branch1][C]": 4328,
  "[C][Ring1][=Branch1][N]": 564,
  "[C][Ring1][=Branch2]": 22490,
  "[C][Ring1][=Branch2][=C]": 607,
  "[C][Ring1][=Branch2][=O]": 1839,
  "[C][Ring1][=Branch2][=Ring1]": 1851,
  "[C][Ring1][=C]": 23673,
  "[C][Ring1][=C][=C]": 531,
  "[C][Ring1][=C][=O]": 5988,
  "[C][Ring1][=N]": 20987,
  "[C][Ring1][=N][=O]": 5526,
  "[C][Ring1][Branch1]": 32626,
  "[C][Ring1][Branch1][=C]": 1718,
  "[C][Ring1][Branch1][=N]": 3987,
  "[C][Ring1][Branch1][=O]": 3734,
  "[C][Ring1][Branch1][C]": 6196,
  "[C][Ring1][Branch1][N]": 552,
  "[C][Ring1][Branch2]": 24669,
  "[C][Ring1][Branch2][=C]": 1324,
  "[C][Ring1][Branch2][=N]": 621,
  "[C][Ring1][Branch2][=O]": 4800,
  "[C][Ring1][N]": 10142,
  "[C][Ring1][N][=C]": 537,
  "[C][Ring1][N][=N]": 548,
  "[C][Ring1][N][=O]": 4097,
  "[C][Ring1][O]": 14335,
  "[C][Ring1][O][=C]": 1113,
  "[C][Ring1][O][=O]": 3958,
  "[C][Ring1][P]": 21017,
  "[C][Ring1][P][=O]": 4695,
  "[C][Ring1][Ring1]": 11196,
  "[C][Ring1][Ring1][=C]": 1277,
  "[C][Ring1][Ring1][=N]": 1142,
  "[C][Ring1][Ring1][N]": 735,
  "[C][Ring1][Ring2]": 8705,
  "[C][Ring1][S]": 20089,
  "[C][Ring1][S][=O]": 3923,
  "[C][Ring1][S][=Ring1]": 533,
  "[C][Ring2]": 1395,
  "[C][Ring2][Ring1]": 158239,
  "[C][Ring2][Ring1][#Branch1]": 12497,
  "[C][Ring2][Ring1][#Branch2]": 8578,
  "[C][Ring2][Ring1][#C]": 5519,
  "[C][Ring2][Ring1][=Branch1]": 11706,
  "[C][Ring2][Ring1][=Branch2]": 9530,
  "[C][Ring2][Ring1][=C]": 6458,
  "[C][Ring2][Ring1][=N]": 6854,
  "[C][Ring2][Ring1][Branch1]": 12310,
  "[C][Ring2][Ring1][Branch2]": 11429,
  "[C][Ring2][Ring1][C]": 4865,
  "[C][Ring2][Ring1][N]": 5354,
  "[C][Ring2][Ring1][O]": 6967,
  "[C][Ring2][Ring1][P]": 3869,
  "[C][Ring2][Ring1][Ring1]": 14424,
  "[C][Ring2][Ring1][Ring2]": 14106,
  "[C][Ring2][Ring1][S]": 4056,
  "[C][Ring2][Ring2]": 876,
  "[C][Ring2][Ring2][#Branch1]": 768,
  "[C][Ring2][Ring2][=Branch1]": 751,
  "[C][Ring2][Ring2][Branch2]": 769,
  "[C][Ring2][Ring2][C]": 738,
  "[C][Ring2][Ring2][Ring1]": 2070,
  "[C][Ring2][Ring2][Ring2]": 1514,
  "[C][S]": 75740,
  "[C][S][C]": 2554,
  "[C][S][C][=C]": 1280,
  "[C][S][C][=N]": 14425,
  "[C][S][C][C]": 3701,
  "[Ca+2]": 159,
  "[CaH2]": 1,
  "[Ca]": 3,
  "[Cl+1]": 10,
  "[Cl+2]": 3,
  "[Cl+3]": 360,
  "[Cl-1]": 4109,
  "[ClH0]": 15,
  "[Cl]": 518648,
  "[Cl][=C]": 5338,
  "[Cl][=C][N][=C]": 514,
  "[Cl][=N]": 2795,
  "[Cl][C]": 538,
  "[Cl][C][=C]": 508,
  "[Cl][C][=C][C]": 882,
  "[Cl][C][=N]": 870,
  "[Cl][C][C]": 645,
  "[Cl][Cl]": 7871,
  "[Cl][Cl][Cl][Cl]": 527,
  "[Cl][N]": 2188,
  "[Cl][N][=C]": 1261,
  "[Cl][N][C][=N]": 508,
  "[Cl][N][C][C]": 2468,
  "[Cl][O]": 1570,
  "[Cl][O][=C]": 1824,
  "[Cs+1]": 5,
  "[Cs]": 1,
  "[F-1]": 4,
  "[F]": 1085205,
  "[F][=C]": 6059,
  "[F][=N]": 1957,
  "[F][C][=C]": 787,
  "[F][C][=C][C]": 1236,
  "[F][C][=N]": 2535,
  "[F][C][C]": 1006,
  "[F][N]": 797,
  "[F][N][=C]": 583,
  "[F][N][C][C]": 815,
  "[H+1]": 4,
  "[H-1]": 2,
  "[He]": 1,
  "[I+1]": 94,
  "[I+2]": 1,
  "[I+3]": 2,
  "[I-1]": 3485,
  "[IH0]": 1,
  "[I]": 10000,
  "[K+1]": 959,
  "[KH1]": 2,
  "[K]": 1,
  "[Kr]": 1,
  "[Li+1]": 335,
  "[LiH1]": 1,
  "[Li]": 4,
  "[Mg+1]": 1,
  "[Mg+2]": 75,
  "[MgH2]": 6,
  "[Mg]": 4,
  "[N+1]": 95671,
  "[N+1][=C]": 4463,
  "[N+1][Branch1][C]": 667,
  "[N+1][Branch1][C][C]": 4877,
  "[N+1][Branch1][C][O-1]": 2662,
  "[N-1]": 1524,
  "[N-1][=N+1]": 866,
  "[N-1][=N+1][=N]": 612,
  "[N@+1]": 158,
  "[N@@+1]": 113,
  "[N@@]": 27,
  "[N@H1+1]": 1,
  "[N@]": 28,
  "[NH0]": 1,
  "[NH1+1]": 25,
  "[NH1-1]": 28,
  "[NH1]": 281038,
  "[NH1][/C][=Branch2]": 1284,
  "[NH1][C]": 505,
  "[NH1][C][=C]": 6701,
  "[NH1][C][=C][C]": 2337,
  "[NH1][C][=N]": 3866,
  "[NH1][C][=Ring1]": 3979,
  "[NH1][C][Branch1][=Branch2]": 1270,
  "[NH1][C][Branch1][C]": 728,
  "[NH1][C][Branch2][Ring1]": 538,
  "[NH1][C][Ring1][#Branch1]": 537,
  "[NH1][C][Ring1][#Branch2]": 534,
  "[NH1][C][Ring1][=Branch1]": 755,
  "[NH1][C][Ring1][=N]": 1028,
  "[NH1][C][Ring1][Branch1]": 892,
  "[NH1][C][Ring2][Ring1]": 793,
  "[NH1][N][=C]": 10055,
  "[NH1][N][=N]": 824,
  "[NH1][N][=Ring1]": 4159,
  "[NH1][N][=Ring1][Branch1]": 893,
  "[NH1][N][=Ring1][Branch2]": 557,
  "[NH1][Ring1]": 513,
  "[NH1][Ring1][#Branch1]": 1343,
  "[NH1][Ring1][#Branch2]": 3333,
  "[NH1][Ring1][#C]": 1348,
  "[NH1][Ring1][=Branch1]": 1305,
  "[NH1][Ring1][=Branch1][=N]": 527,
  "[NH1][Ring1][=Branch2]": 9571,
  "[NH1][Ring1][=C]": 1220,
  "[NH1][Ring1][=N]": 2010,
  "[NH1][Ring1][Branch1]": 7884,
  "[NH1][Ring1][Branch1][=C]": 605,
  "[NH1][Ring1][Branch1][C]": 1755,
  "[NH1][Ring1][Branch2]": 600,
  "[NH1][Ring1][N]": 1236,
  "[NH1][Ring1][O]": 1691,
  "[NH1][Ring1][P]": 1348,
  "[NH1][Ring1][S]": 1384,
  "[NH1][Ring2][Ring1][#Branch1]": 672,
  "[NH1][Ring2][Ring1][#Branch2]": 653,
  "[NH1][Ring2][Ring1][=Branch1]": 955,
  "[NH1][Ring2][Ring1][=Branch2]": 779,
  "[NH1][Ring2][Ring1][Branch1]": 566,
  "[NH1][Ring2][Ring1][Branch2]": 923,
  "[NH1][Ring2][Ring1][C]": 663,
  "[NH1][Ring2][Ring1][O]": 599,
  "[NH1][Ring2][Ring1][Ring1]": 902,
  "[NH1][Ring2][Ring1][Ring2]": 887,
  "[NH2+1]": 41,
  "[NH3+1]": 2,
  "[NH4+1]": 1,
  "[N]": 5430659,
  "[N][#C]": 35431,
  "[N][#C][C][=C]": 1904,
  "[N][#C][C][=N]": 661,
  "[N][#C][C][C]": 1837,
  "[N][=C]": 731515,
  "[N][=C][Branch1][#Branch1]": 525,
  "[N][=C][Branch1][#Branch2]": 2519,
  "[N][=C][Branch1][#C]": 2124,
  "[N][=C][Branch1][=Branch1]": 951,
  "[N][=C][Branch1][=Branch2]": 12799,
  "[N][=C][Branch1][=C]": 2179,
  "[N][=C][Branch1][=N]": 2522,
  "[N][=C][Branch1][Branch2]": 2069,
  "[N][=C][Branch1][N]": 4943,
  "[N][=C][Branch1][O]": 1141,
  "[N][=C][Branch1][P]": 1838,
  "[N][=C][Branch1][S]": 2268,
  "[N][=C][Branch2][Ring1]": 1920,
  "[N][=C][C][=C]": 2181,
  "[N][=C][C][=N]": 1419,
  "[N][=C][NH1]": 1622,
  "[N][=C][N]": 559,
  "[N][=C][N][=C]": 9807,
  "[N][=C][N][Ring1]": 4008,
  "[N][=C][Ring1]": 5421,
  "[N][=C][Ring1][#Branch1]": 24097,
  "[N][=C][Ring1][#Branch2]": 14510,
  "[N][=C][Ring1][#C]": 5173,
  "[N][=C][Ring1][=Branch1]": 47976,
  "[N][=C][Ring1][=Branch2]": 5266,
  "[N][=C][Ring1][=C]": 4040,
  "[N][=C][Ring1][=N]": 5826,
  "[N][=C][Ring1][Branch1]": 9141,
  "[N][=C][Ring1][Branch2]": 6436,
  "[N][=C][Ring1][N]": 5408,
  "[N][=C][Ring1][O]": 6302,
  "[N][=C][Ring1][P]": 4841,
  "[N][=C][Ring1][S]": 8869,
  "[N][=C][Ring2][Ring1]": 58694,
  "[N][=C][Ring2][Ring2]": 881,
  "[N][=C][S]": 3794,
  "[N][=N+1][=N-1]": 1265,
  "[N][=N]": 66217,
  "[N][=N][C][=C]": 504,
  "[N][=N][N][=C]": 846,
  "[N][=N][N][Ring1]": 2155,
  "[N][=N][Ring1][#Branch1]": 930,
  "[N][=N][Ring1][#C]": 2131,
  "[N][=N][Ring1][=Branch1]": 748,
  "[N][=N][Ring1][=Branch2]": 571,
  "[N][=N][Ring1][=C]": 2396,
  "[N][=N][Ring1][=N]": 2528,
  "[N][=N][Ring1][Branch1]": 3778,
  "[N][=N][Ring1][N]": 2046,
  "[N][=N][Ring1][O]": 1365,
  "[N][=N][Ring1][P]": 1604,
  "[N][=N][Ring1][S]": 2302,
  "[N][=N][Ring2][Ring1]": 1088,
  "[N][=O]": 713,
  "[N][=Ring1]": 32352,
  "[N][=Ring1][#Branch1]": 574,
  "[N][=Ring1][#C]": 1333,
  "[N][=Ring1][=Branch1]": 3704,
  "[N][=Ring1][=Branch2]": 818,
  "[N][=Ring1][=C]": 1029,
  "[N][=Ring1][=N]": 846,
  "[N][=Ring1][Branch1]": 2964,
  "[N][=Ring1][Branch1][C]": 792,
  "[N][=Ring1][Branch2]": 2714,
  "[N][=Ring1][N]": 525,
  "[N][=Ring1][O]": 645,
  "[N][=Ring1][P]": 905,
  "[N][=Ring1][S]": 805,
  "[N][=Ring2]": 18709,
  "[N][=Ring2][Ring1][#Branch1]": 1721,
  "[N][=Ring2][Ring1][#Branch2]": 783,
  "[N][=Ring2][Ring1][=Branch1]": 1095,
  "[N][=Ring2][Ring1][=Branch2]": 981,
  "[N][=Ring2][Ring1][=C]": 707,
  "[N][=Ring2][Ring1][=N]": 780,
  "[N][=Ring2][Ring1][Branch1]": 1116,
  "[N][=Ring2][Ring1][Branch2]": 1408,
  "[N][=Ring2][Ring1][C]": 1200,
  "[N][=Ring2][Ring1][N]": 849,
  "[N][=Ring2][Ring1][O]": 676,
  "[N][=Ring2][Ring1][Ring1]": 1452,
  "[N][=Ring2][Ring1][Ring2]": 1484,
  "[N][Branch1]": 299263,
  "[N][Branch1][#Branch1]": 12474,
  "[N][Branch1][#Branch2]": 12161,
  "[N][Branch1][#Branch2][C]": 18538,
  "[N][Branch1][#C]": 10842,
  "[N][Branch1][#C][C]": 523,
  "[N][Branch1][=Branch1]": 3756,
  "[N][Branch1][=Branch1][C]": 7525,
  "[N][Branch1][=Branch2]": 47705,
  "[N][Branch1][=Branch2][C]": 3175,
  "[N][Branch1][=C]": 12598,
  "[N][Branch1][=C][C]": 2393,
  "[N][Branch1][=N]": 16964,
  "[N][Branch1][=N][C]": 8799,
  "[N][Branch1][Branch1][C]": 1207,
  "[N][Branch1][Branch2]": 7838,
  "[N][Branch1][C][C]": 79660,
  "[N][Branch1][C][O]": 501,
  "[N][Branch1][N]": 19695,
  "[N][Branch1][N][C]": 1374,
  "[N][Branch1][O]": 2730,
  "[N][Branch1][O][C]": 3129,
  "[N][Branch1][P]": 10254,
  "[N][Branch1][P][C]": 2619,
  "[N][Branch1][Ring1]": 4888,
  "[N][Branch1][Ring2]": 8968,
  "[N][Branch1][S]": 8692,
  "[N][Branch1][S][C]": 2494,
  "[N][Branch2][Ring1]": 121011,
  "[N][Branch2][Ring1][#Branch1]": 9120,
  "[N][Branch2][Ring1][#Branch2]": 5965,
  "[N][Branch2][Ring1][#C]": 4816,
  "[N][Branch2][Ring1][=Branch1]": 4306,
  "[N][Branch2][Ring1][=Branch2]": 7098,
  "[N][Branch2][Ring1][=C]": 3241,
  "[N][Branch2][Ring1][=N]": 3621,
  "[N][Branch2][Ring1][Branch1]": 2255,
  "[N][Branch2][Ring1][Branch2]": 7696,
  "[N][Branch2][Ring1][C]": 2286,
  "[N][Branch2][Ring1][N]": 1650,
  "[N][Branch2][Ring1][O]": 3051,
  "[N][Branch2][Ring1][P]": 4268,
  "[N][Branch2][Ring1][Ring1]": 16064,
  "[N][Branch2][Ring1][Ring2]": 13312,
  "[N][Branch2][Ring1][S]": 2864,
  "[N][Branch2][Ring2]": 1762,
  "[N][Branch2][Ring2][#Branch1]": 855,
  "[N][Branch2][Ring2][#Branch2]": 727,
  "[N][Branch2][Ring2][=Branch1]": 514,
  "[N][Branch2][Ring2][=Branch2]": 735,
  "[N][Branch2][Ring2][=N]": 530,
  "[N][Branch2][Ring2][Branch2]": 669,
  "[N][Branch2][Ring2][Ring1]": 991,
  "[N][Branch2][Ring2][Ring2]": 1208,
  "[N][C@@H1]": 43560,
  "[N][C@@H1][Branch1][#Branch2]": 1278,
  "[N][C@@H1][Branch1][#C]": 1291,
  "[N][C@@H1][Branch1][=Branch1]": 607,
  "[N][C@@H1][Branch1][=Branch2]": 972,
  "[N][C@@H1][C][C@H1]": 1350,
  "[N][C@@H1][C][C]": 1036,
  "[N][C@@H1][C][N]": 544,
  "[N][C@@]": 940,
  "[N][C@H1]": 37233,
  "[N][C@H1][Branch1][#C]": 540,
  "[N][C@H1][C][C@H1]": 636,
  "[N][C@H1][C][C]": 1335,
  "[N][C@]": 851,
  "[N][C]": 302451,
  "[N][C][#N]": 661,
  "[N][C][=Branch1]": 4464,
  "[N][C][=Branch2]": 1261,
  "[N][C][=C]": 17834,
  "[N][C][=C][Branch1]": 1615,
  "[N][C][=C][C]": 22058,
  "[N][C][=C][S]": 645,
  "[N][C][=N]": 130833,
  "[N][C][=N][C]": 1335,
  "[N][C][=N][NH1]": 1908,
  "[N][C][=N][O]": 723,
  "[N][C][=Ring1]": 3458,
  "[N][C][=Ring1][S]": 627,
  "[N][C][Branch1][#Branch1]": 828,
  "[N][C][Branch1][#Branch2]": 723,
  "[N][C][Branch1][#C]": 556,
  "[N][C][Branch1][=Branch2]": 2958,
  "[N][C][Branch1][=C]": 529,
  "[N][C][Branch1][Branch2]": 1222,
  "[N][C][Branch1][C]": 4355,
  "[N][C][Branch1][N]": 903,
  "[N][C][Branch1][Ring1]": 1212,
  "[N][C][Branch2][Ring1]": 1083,
  "[N][C][C@@H1]": 17446,
  "[N][C][C@H1]": 21723,
  "[N][C][C@]": 924,
  "[N][C][C]": 794707,
  "[N][C][C][=C]": 11434,
  "[N][C][C][=N]": 6364,
  "[N][C][C][C@@H1]": 6918,
  "[N][C][C][C@@]": 1115,
  "[N][C][C][C@H1]": 6556,
  "[N][C][C][C@]": 2554,
  "[N][C][C][C]": 10130,
  "[N][C][C][N]": 25168,
  "[N][C][C][O]": 8425,
  "[N][C][C][S]": 2041,
  "[N][C][N]": 1759,
  "[N][C][N][=C]": 3120,
  "[N][C][O]": 793,
  "[N][C][Ring1][=Branch1]": 2453,
  "[N][C][S]": 4333,
  "[N][Cl]": 1243,
  "[N][F]": 676,
  "[N][N]": 28190,
  "[N][N][=C]": 40319,
  "[N][N][=N]": 2291,
  "[N][N][C]": 1357,
  "[N][N][C][=N]": 1004,
  "[N][N][C][C]": 3000,
  "[N][O]": 12938,
  "[N][O][=C]": 605,
  "[N][O][C]": 3275,
  "[N][O][C][C]": 2020,
  "[N][Ring1]": 233402,
  "[N][Ring1][#Branch1]": 14774,
  "[N][Ring1][#Branch1][C]": 1760,
  "[N][Ring1][#Branch2]": 13409,
  "[N][Ring1][#Branch2][C]": 1961,
  "[N][Ring1][#C]": 13917,
  "[N][Ring1][#C][C]": 1973,
  "[N][Ring1][=Branch1]": 9943,
  "[N][Ring1][=Branch1][C]": 11978,
  "[N][Ring1][=Branch2]": 20224,
  "[N][Ring1][=Branch2][C]": 4053,
  "[N][Ring1][=C]": 11130,
  "[N][Ring1][=C][C]": 1852,
  "[N][Ring1][=N]": 11384,
  "[N][Ring1][=N][C]": 1745,
  "[N][Ring1][Branch1]": 20787,
  "[N][Ring1][Branch1][C]": 19418,
  "[N][Ring1][Branch2]": 12280,
  "[N][Ring1][Branch2][C]": 1950,
  "[N][Ring1][N]": 5201,
  "[N][Ring1][N][C]": 1721,
  "[N][Ring1][O]": 8533,
  "[N][Ring1][O][C]": 2431,
  "[N][Ring1][P]": 11804,
  "[N][Ring1][P][C]": 1650,
  "[N][Ring1][S]": 9662,
  "[N][Ring1][S][C]": 1561,
  "[N][Ring2][Ring1]": 72793,
  "[N][Ring2][Ring1][#Branch1]": 4484,
  "[N][Ring2][Ring1][#Branch2]": 2644,
  "[N][Ring2][Ring1][#C]": 2163,
  "[N][Ring2][Ring1][=Branch1]": 3592,
  "[N][Ring2][Ring1][=Branch2]": 4354,
  "[N][Ring2][Ring1][=C]": 1072,
  "[N][Ring2][Ring1][=N]": 1240,
  "[N][Ring2][Ring1][Branch1]": 2528,
  "[N][Ring2][Ring1][Branch2]": 4144,
  "[N][Ring2][Ring1][C]": 1850,
  "[N][Ring2][Ring1][N]": 847,
  "[N][Ring2][Ring1][O]": 1191,
  "[N][Ring2][Ring1][P]": 1335,
  "[N][Ring2][Ring1][Ring1]": 5852,
  "[N][Ring2][Ring1][Ring2]": 6960,
  "[N][Ring2][Ring1][S]": 845,
  "[Na+1]": 7544,
  "[Na+1][Na+1]": 2177,
  "[NaH1]": 41,
  "[Na]": 6,
  "[O+1]": 54,
  "[O-1]": 100450,
  "[O-2]": 10,
  "[OH0]": 419,
  "[OH1+1]": 2,
  "[OH1-1]": 94,
  "[OH1]": 25,
  "[OH3+1]": 1,
  "[O]": 3828071,
  "[O][/N][=C]": 832,
  "[O][=C]": 341042,
  "[O][=C][Branch1]": 705,
  "[O][=C][Branch1][#Branch1]": 1240,
  "[O][=C][Branch1][#Branch2]": 5780,
  "[O][=C][Branch1][#C]": 5110,
  "[O][=C][Branch1][=Branch1]": 542,
  "[O][=C][Branch1][=Branch2]": 6141,
  "[O][=C][Branch1][=C]": 6398,
  "[O][=C][Branch1][=N]": 2887,
  "[O][=C][Branch1][Branch2]": 3044,
  "[O][=C][Branch1][N]": 5846,
  "[O][=C][Branch1][O]": 8018,
  "[O][=C][Branch1][P]": 4738,
  "[O][=C][Branch1][Ring1]": 2898,
  "[O][=C][Branch1][S]": 4397,
  "[O][=C][Branch2][Ring1]": 65981,
  "[O][=C][Branch2][Ring2]": 2155,
  "[O][=C][C]": 737,
  "[O][=C][C][=C]": 2459,
  "[O][=C][C][=N]": 696,
  "[O][=C][C][C]": 4481,
  "[O][=C][C][N]": 809,
  "[O][=C][C][O]": 977,
  "[O][=C][C][S]": 1105,
  "[O][=C][NH1]": 5367,
  "[O][=C][N]": 7052,
  "[O][=C][N][=C]": 1375,
  "[O][=C][N][C]": 1414,
  "[O][=C][O]": 2517,
  "[O][=C][O][C]": 739,
  "[O][=C][S]": 1313,
  "[O][=N]": 2198,
  "[O][=P]": 1623,
  "[O][C@@H1]": 54174,
  "[O][C@@H1][Branch1][=Branch2]": 504,
  "[O][C@@H1][Branch1][=N]": 1119,
  "[O][C@@H1][Branch1][P]": 1276,
  "[O][C@@H1][Branch1][S]": 585,
  "[O][C@@H1][C@@H1]": 957,
  "[O][C@@H1][C@H1]": 816,
  "[O][C@@H1][C][C@H1]": 716,
  "[O][C@@H1][C][C]": 840,
  "[O][C@@H1][O]": 1710,
  "[O][C@@H1][O][C@@H1]": 1326,
  "[O][C@@H1][O][C@H1]": 4181,
  "[O][C@@H1][Ring1][#Branch1]": 626,
  "[O][C@@]": 3283,
  "[O][C@@][Ring1][Ring1]": 512,
  "[O][C@H1]": 59162,
  "[O][C@H1][Branch1][=Branch2]": 500,
  "[O][C@H1][C@@H1]": 761,
  "[O][C@H1][C@H1]": 1753,
  "[O][C@H1][C]": 702,
  "[O][C@H1][C][C@@H1]": 832,
  "[O][C@H1][C][C@H1]": 1618,
  "[O][C@H1][C][C]": 1343,
  "[O][C@H1][O][C@H1]": 1227,
  "[O][C@H1][Ring1][#Branch1]": 545,
  "[O][C@H1][Ring1][Branch2]": 647,
  "[O][C@]": 4115,
  "[O][C@][Ring1][Ring1]": 1064,
  "[O][C]": 515685,
  "[O][C][#C]": 1184,
  "[O][C][#N]": 523,
  "[O][C][=C]": 9890,
  "[O][C][=C][C]": 13580,
  "[O][C][=C][Ring1]": 616,
  "[O][C][=N]": 14862,
  "[O][C][=N][O]": 506,
  "[O][C][=Ring1]": 18302,
  "[O][C][=Ring1][#C]": 566,
  "[O][C][=Ring1][=Branch1]": 1520,
  "[O][C][=Ring1][Branch1]": 2680,
  "[O][C][Branch1]": 588,
  "[O][C][Branch1][#Branch2]": 595,
  "[O][C][Branch1][=Branch2]": 4595,
  "[O][C][Branch1][=N]": 533,
  "[O][C][Branch1][Branch2]": 661,
  "[O][C][Branch1][C]": 6210,
  "[O][C][Branch1][N]": 1193,
  "[O][C][Branch1][Ring1]": 551,
  "[O][C][Branch2][Ring1]": 796,
  "[O][C][C@@H1]": 16219,
  "[O][C][C@@]": 1565,
  "[O][C][C@H1]": 21509,
  "[O][C][C@]": 1496,
  "[O][C][C]": 338985,
  "[O][C][C][#C]": 666,
  "[O][C][C][=C]": 8527,
  "[O][C][C][=N]": 3303,
  "[O][C][C][C@@H1]": 1571,
  "[O][C][C][C@H1]": 1246,
  "[O][C][C][C@]": 2923,
  "[O][C][C][C]": 2535,
  "[O][C][C][N]": 7087,
  "[O][C][C][O]": 20025,
  "[O][C][C][S]": 675,
  "[O][C][N]": 3586,
  "[O][C][N][=C]": 714,
  "[O][C][O]": 34988,
  "[O][C][Ring1][#Branch1]": 3362,
  "[O][C][Ring1][#Branch2]": 1260,
  "[O][C][Ring1][#C]": 3485,
  "[O][C][Ring1][=Branch1]": 2005,
  "[O][C][Ring1][=Branch2]": 2219,
  "[O][C][Ring1][=C]": 1254,
  "[O][C][Ring1][=N]": 1948,
  "[O][C][Ring1][Branch1]": 637,
  "[O][C][Ring1][Branch2]": 2357,
  "[O][C][Ring1][N]": 818,
  "[O][C][Ring1][O]": 1438,
  "[O][C][Ring1][P]": 961,
  "[O][C][Ring1][Ring2]": 2117,
  "[O][C][Ring1][S]": 1181,
  "[O][C][Ring2][Ring1]": 875,
  "[O][C][S]": 749,
  "[O][Cl]": 1525,
  "[O][F]": 749,
  "[O][N]": 10735,
  "[O][N][=C]": 1707,
  "[O][N][=Ring1]": 5596,
  "[O][N][=Ring1][Branch1]": 1288,
  "[O][N][C]": 894,
  "[O][N][C][C]": 1795,
  "[O][O]": 9481,
  "[O][O][=C]": 522,
  "[O][O][C]": 4227,
  "[O][O][C][C]": 1986,
  "[O][O][Ring1][#C]": 910,
  "[O][O][Ring1][=N]": 1041,
  "[O][Ring1][#Branch1]": 2712,
  "[O][Ring1][#Branch2]": 5594,
  "[O][Ring1][#C]": 3665,
  "[O][Ring1][=Branch1]": 4093,
  "[O][Ring1][=Branch1][C]": 509,
  "[O][Ring1][=Branch2]": 4370,
  "[O][Ring1][=C]": 4438,
  "[O][Ring1][=N]": 3924,
  "[O][Ring1][Branch1]": 28592,
  "[O][Ring1][Branch1][=C]": 1504,
  "[O][Ring1][Branch1][=N]": 1590,
  "[O][Ring1][Branch1][C]": 6851,
  "[O][Ring1][Branch1][N]": 645,
  "[O][Ring1][Branch2]": 6570,
  "[O][Ring1][N]": 4624,
  "[O][Ring1][O]": 3808,
  "[O][Ring1][P]": 3539,
  "[O][Ring1][S]": 2901,
  "[O][Ring2][Ring1]": 686,
  "[O][Ring2][Ring1][#Branch1]": 1771,
  "[O][Ring2][Ring1][#Branch2]": 933,
  "[O][Ring2][Ring1][#C]": 572,
  "[O][Ring2][Ring1][=Branch1]": 1697,
  "[O][Ring2][Ring1][=Branch2]": 1080,
  "[O][Ring2][Ring1][=C]": 1062,
  "[O][Ring2][Ring1][=N]": 672,
  "[O][Ring2][Ring1][Branch1]": 1633,
  "[O][Ring2][Ring1][Branch2]": 1911,
  "[O][Ring2][Ring1][C]": 1735,
  "[O][Ring2][Ring1][N]": 649,
  "[O][Ring2][Ring1][O]": 583,
  "[O][Ring2][Ring1][Ring1]": 2488,
  "[O][Ring2][Ring1][Ring2]": 2472,
  "[P+1]": 1584,
  "[P+1][Branch1][=Branch2]": 967,
  "[P-1]": 189,
  "[P@+1]": 7,
  "[P@@+1]": 7,
  "[P@@]": 426,
  "[P@]": 403,
  "[PH1]": 169,
  "[PH2+1]": 1,
  "[P]": 440685,
  "[P][=Branch1][C][=O]": 26205,
  "[P][=Branch1][C][=S]": 688,
  "[P][Branch1][C][C]": 745,
  "[P][C]": 1743,
  "[P][C][=N]": 811,
  "[P][C][C]": 978,
  "[P][C][O]": 514,
  "[P][N]": 3265,
  "[P][N][C][C]": 741,
  "[P][O]": 782,
  "[P][O][C]": 1282,
  "[Ra]": 2,
  "[Rb+1]": 9,
  "[Rb]": 1,
  "[Ring1]": 8934683,
  "[Ring1][#Branch1]": 170576,
  "[Ring1][#Branch1][=C]": 4966,
  "[Ring1][#Branch1][=N]": 2055,
  "[Ring1][#Branch1][=O]": 1219,
  "[Ring1][#Branch1][C]": 3052,
  "[Ring1][#Branch1][C][=N]": 1941,
  "[Ring1][#Branch1][C][C]": 1039,
  "[Ring1][#Branch1][C][N]": 608,
  "[Ring1][#Branch1][Cl]": 8667,
  "[Ring1][#Branch1][F]": 6829,
  "[Ring1][#Branch1][N]": 2197,
  "[Ring1][#Branch1][O]": 1403,
  "[Ring1][#Branch1][O][C]": 590,
  "[Ring1][#Branch2]": 134228,
  "[Ring1][#Branch2][=C]": 2679,
  "[Ring1][#Branch2][=N]": 962,
  "[Ring1][#Branch2][=O]": 3323,
  "[Ring1][#Branch2][C@@H1]": 577,
  "[Ring1][#Branch2][C@H1]": 2155,
  "[Ring1][#Branch2][C]": 997,
  "[Ring1][#Branch2][N]": 934,
  "[Ring1][#Branch2][O]": 5931,
  "[Ring1][#Branch2][O][=C]": 1252,
  "[Ring1][#Branch2][O][C@@H1]": 1075,
  "[Ring1][#Branch2][O][C@H1]": 1019,
  "[Ring1][#Branch2][O][C]": 1081,
  "[Ring1][#Branch2][Ring1][=Branch1]": 2306,
  "[Ring1][#C]": 77984,
  "[Ring1][#C][=C]": 746,
  "[Ring1][#C][=O]": 603,
  "[Ring1][#C][O]": 632,
  "[Ring1][=Branch1]": 624154,
  "[Ring1][=Branch1][=C]": 34435,
  "[Ring1][=Branch1][=C][Ring1]": 971,
  "[Ring1][=Branch1][=N]": 22872,
  "[Ring1][=Branch1][=O]": 7526,
  "[Ring1][=Branch1][=O][C]": 690,
  "[Ring1][=Branch1][C@@H1]": 4545,
  "[Ring1][=Branch1][C@@]": 829,
  "[Ring1][=Branch1][C@H1]": 3643,
  "[Ring1][=Branch1][C]": 94639,
  "[Ring1][=Branch1][C][#N]": 512,
  "[Ring1][=Branch1][C][=C]": 2140,
  "[Ring1][=Branch1][C][=N]": 6315,
  "[Ring1][=Branch1][C][=Ring1]": 595,
  "[Ring1][=Branch1][C][C@@H1]": 1469,
  "[Ring1][=Branch1][C][C@H1]": 598,
  "[Ring1][=Branch1][C][C]": 7771,
  "[Ring1][=Branch1][C][N]": 1129,
  "[Ring1][=Branch1][C][O]": 1105,
  "[Ring1][=Branch1][Cl]": 3095,
  "[Ring1][=Branch1][F]": 1817,
  "[Ring1][=Branch1][N+1]": 1090,
  "[Ring1][=Branch1][NH1]": 1708,
  "[Ring1][=Branch1][N]": 10893,
  "[Ring1][=Branch1][N][=C]": 1643,
  "[Ring1][=Branch1][N][C]": 1165,
  "[Ring1][=Branch1][O]": 13313,
  "[Ring1][=Branch1][O][=C]": 596,
  "[Ring1][=Branch1][O][C]": 4144,
  "[Ring1][=Branch1][Ring1][#Branch2]": 1879,
  "[Ring1][=Branch1][Ring1][=Branch2]": 1643,
  "[Ring1][=Branch1][S]": 2205,
  "[Ring1][=Branch2]": 113613,
  "[Ring1][=Branch2][=C]": 2973,
  "[Ring1][=Branch2][=N]": 1145,
  "[Ring1][=Branch2][=O]": 1311,
  "[Ring1][=Branch2][C]": 1215,
  "[Ring1][=Branch2][N]": 688,
  "[Ring1][=Branch2][O]": 1461,
  "[Ring1][=Branch2][Ring1][=Branch1]": 800,
  "[Ring1][=C]": 85550,
  "[Ring1][=C][=C]": 1147,
  "[Ring1][=C][=O]": 2984,
  "[Ring1][=C][C]": 1560,
  "[Ring1][=C][C][=N]": 585,
  "[Ring1][=C][N]": 635,
  "[Ring1][=C][O]": 1597,
  "[Ring1][=C][Ring1][=Branch2]": 612,
  "[Ring1][=C][Ring1][Branch2]": 510,
  "[Ring1][=C][Ring1][P]": 688,
  "[Ring1][=C][Ring2][Ring1]": 646,
  "[Ring1][=N]": 98814,
  "[Ring1][=N][=C]": 1360,
  "[Ring1][=N][=N]": 551,
  "[Ring1][=N][=O]": 1006,
  "[Ring1][=N][C]": 1013,
  "[Ring1][=N][N]": 577,
  "[Ring1][=N][O]": 848,
  "[Ring1][=N][Ring1][=Branch2]": 971,
  "[Ring1][=N][Ring1][Branch2]": 780,
  "[Ring1][=N][Ring1][S]": 572,
  "[Ring1][Branch1]": 158887,
  "[Ring1][Branch1][=C]": 5291,
  "[Ring1][Branch1][=N]": 2297,
  "[Ring1][Branch1][=O]": 1669,
  "[Ring1][Branch1][C]": 61226,
  "[Ring1][Branch1][C][#N]": 869,
  "[Ring1][Branch1][C][=N]": 2288,
  "[Ring1][Branch1][C][=Ring2]": 672,
  "[Ring1][Branch1][C][C@@H1]": 1155,
  "[Ring1][Branch1][C][C@H1]": 779,
  "[Ring1][Branch1][C][C]": 18705,
  "[Ring1][Branch1][C][N]": 1384,
  "[Ring1][Branch1][N]": 2382,
  "[Ring1][Branch1][N][=C]": 1131,
  "[Ring1][Branch1][O]": 1625,
  "[Ring1][Branch1][O][C]": 552,
  "[Ring1][Branch1][S]": 509,
  "[Ring1][Branch2]": 82524,
  "[Ring1][Branch2][=C]": 1233,
  "[Ring1][Branch2][=N]": 1083,
  "[Ring1][Branch2][C]": 577,
  "[Ring1][Branch2][O]": 4731,
  "[Ring1][Branch2][O][C]": 1783,
  "[Ring1][C]": 7650,
  "[Ring1][C][#N]": 1138,
  "[Ring1][C][#N][=C]": 5204,
  "[Ring1][C][=C]": 1732,
  "[Ring1][C][=C][C]": 684,
  "[Ring1][C][=N]": 3212,
  "[Ring1][C][C]": 11816,
  "[Ring1][C][C][C]": 1165,
  "[Ring1][C][N]": 970,
  "[Ring1][C][O]": 976,
  "[Ring1][C][O][=C]": 1121,
  "[Ring1][Cl]": 1275,
  "[Ring1][F]": 1422,
  "[Ring1][N]": 89323,
  "[Ring1][N][=C]": 6619,
  "[Ring1][N][=N]": 606,
  "[Ring1][N][=O]": 3917,
  "[Ring1][N][C@@H1]": 1295,
  "[Ring1][N][C]": 6487,
  "[Ring1][N][C][=N]": 1869,
  "[Ring1][N][C][C]": 9639,
  "[Ring1][N][N]": 877,
  "[Ring1][N][O]": 1581,
  "[Ring1][N][Ring1][#C]": 595,
  "[Ring1][N][Ring1][Branch2]": 566,
  "[Ring1][O]": 155241,
  "[Ring1][O][=C]": 7929,
  "[Ring1][O][=N]": 636,
  "[Ring1][O][=O]": 5485,
  "[Ring1][O][C@H1]": 972,
  "[Ring1][O][C]": 8688,
  "[Ring1][O][C][=C]": 3215,
  "[Ring1][O][C][=N]": 1035,
  "[Ring1][O][C][C@@H1]": 530,
  "[Ring1][O][C][C]": 8756,
  "[Ring1][O][C][O]": 2350,
  "[Ring1][O][N]": 918,
  "[Ring1][O][O]": 886,
  "[Ring1][O][Ring1][#Branch1]": 1950,
  "[Ring1][O][Ring1][=Branch1]": 1021,
  "[Ring1][O][Ring1][Branch2]": 505,
  "[Ring1][P]": 61128,
  "[Ring1][P][=C]": 630,
  "[Ring1][P][=O]": 2276,
  "[Ring1][P][C]": 730,
  "[Ring1][P][O]": 792,
  "[Ring1][Ring1]": 37783,
  "[Ring1][Ring1][#C]": 1258,
  "[Ring1][Ring1][=Branch1]": 1326,
  "[Ring1][Ring1][=C]": 2277,
  "[Ring1][Ring1][=N]": 2004,
  "[Ring1][Ring1][C@@H1]": 917,
  "[Ring1][Ring1][C@H1]": 725,
  "[Ring1][Ring1][C][C@H1]": 745,
  "[Ring1][Ring1][F]": 844,
  "[Ring1][Ring1][N]": 1452,
  "[Ring1][Ring1][S]": 537,
  "[Ring1][Ring2]": 25870,
  "[Ring1][Ring2][=C]": 727,
  "[Ring1][Ring2][Ring1][=Branch1]": 790,
  "[Ring1][S]": 79308,
  "[Ring1][S][=C]": 860,
  "[Ring1][S][=O]": 2229,
  "[Ring1][S][C]": 1869,
  "[Ring1][S][C][C]": 1242,
  "[Ring1][S][O]": 2649,
  "[Ring2]": 3113677,
  "[Ring2][=Branch1]": 1014,
  "[Ring2][=C]": 765,
  "[Ring2][=C][Ring1][=Branch1]": 2415,
  "[Ring2][=C][Ring1][Branch2]": 576,
  "[Ring2][=N]": 7627,
  "[Ring2][=N][Ring1][=Branch1]": 1835,
  "[Ring2][=N][Ring1][Branch1]": 1185,
  "[Ring2][Branch1]": 1176,
  "[Ring2][Branch1][#Branch1]": 1213,
  "[Ring2][Branch1][#Branch2]": 759,
  "[Ring2][Branch1][#C]": 532,
  "[Ring2][Branch1][=Branch1]": 1160,
  "[Ring2][Branch1][=Branch2]": 1116,
  "[Ring2][Branch1][=C]": 624,
  "[Ring2][Branch1][=N]": 716,
  "[Ring2][Branch1][Branch1]": 891,
  "[Ring2][Branch1][Branch2]": 997,
  "[Ring2][Branch1][C]": 1621,
  "[Ring2][Branch1][N]": 602,
  "[Ring2][Branch1][O]": 658,
  "[Ring2][Branch1][Ring1]": 1876,
  "[Ring2][Branch1][Ring2]": 1667,
  "[Ring2][C]": 2537,
  "[Ring2][C][=N]": 669,
  "[Ring2][C][C]": 1363,
  "[Ring2][C][N]": 839,
  "[Ring2][C][O]": 701,
  "[Ring2][Cl]": 1175,
  "[Ring2][F]": 1169,
  "[Ring2][N]": 4890,
  "[Ring2][N][C]": 675,
  "[Ring2][N][C][C]": 1345,
  "[Ring2][O]": 2604,
  "[Ring2][O][C]": 3221,
  "[Ring2][O][C][C]": 761,
  "[Ring2][Ring1]": 1725360,
  "[Ring2][Ring1][#Branch1]": 37716,
  "[Ring2][Ring1][#Branch1][=O]": 1889,
  "[Ring2][Ring1][#Branch1][C]": 881,
  "[Ring2][Ring1][#Branch1][O]": 896,
  "[Ring2][Ring1][#Branch2]": 26334,
  "[Ring2][Ring1][#Branch2][=O]": 1875,
  "[Ring2][Ring1][#Branch2][C]": 688,
  "[Ring2][Ring1][#Branch2][O]": 886,
  "[Ring2][Ring1][#C]": 19101,
  "[Ring2][Ring1][#C][=O]": 1123,
  "[Ring2][Ring1][#C][C]": 784,
  "[Ring2][Ring1][#C][O]": 731,
  "[Ring2][Ring1][=Branch1]": 35937,
  "[Ring2][Ring1][=Branch1][=O]": 2054,
  "[Ring2][Ring1][=Branch1][C]": 4766,
  "[Ring2][Ring1][=Branch1][O]": 1218,
  "[Ring2][Ring1][=Branch2]": 28967,
  "[Ring2][Ring1][=Branch2][=O]": 1948,
  "[Ring2][Ring1][=Branch2][C]": 516,
  "[Ring2][Ring1][=Branch2][O]": 990,
  "[Ring2][Ring1][=C]": 19262,
  "[Ring2][Ring1][=C][=O]": 1098,
  "[Ring2][Ring1][=C][C]": 659,
  "[Ring2][Ring1][=C][O]": 862,
  "[Ring2][Ring1][=N]": 18306,
  "[Ring2][Ring1][=N][=O]": 1224,
  "[Ring2][Ring1][=N][C]": 563,
  "[Ring2][Ring1][=N][O]": 728,
  "[Ring2][Ring1][Branch1]": 30221,
  "[Ring2][Ring1][Branch1][=C]": 850,
  "[Ring2][Ring1][Branch1][=O]": 2241,
  "[Ring2][Ring1][Branch1][C]": 5039,
  "[Ring2][Ring1][Branch1][O]": 1671,
  "[Ring2][Ring1][Branch2]": 29866,
  "[Ring2][Ring1][Branch2][=O]": 1871,
  "[Ring2][Ring1][Branch2][C]": 668,
  "[Ring2][Ring1][Branch2][O]": 1199,
  "[Ring2][Ring1][C]": 25453,
  "[Ring2][Ring1][C][=N]": 1470,
  "[Ring2][Ring1][C][=O]": 3291,
  "[Ring2][Ring1][C][C@H1]": 530,
  "[Ring2][Ring1][C][C]": 5261,
  "[Ring2][Ring1][C][N]": 834,
  "[Ring2][Ring1][C][O]": 1643,
  "[Ring2][Ring1][N]": 16644,
  "[Ring2][Ring1][N][=O]": 1236,
  "[Ring2][Ring1][N][C]": 1405,
  "[Ring2][Ring1][N][O]": 885,
  "[Ring2][Ring1][O]": 19610,
  "[Ring2][Ring1][O][=C]": 1167,
  "[Ring2][Ring1][O][=O]": 1571,
  "[Ring2][Ring1][O][C]": 1714,
  "[Ring2][Ring1][O][O]": 948,
  "[Ring2][Ring1][P]": 16927,
  "[Ring2][Ring1][P][=O]": 826,
  "[Ring2][Ring1][P][C]": 1381,
  "[Ring2][Ring1][P][O]": 644,
  "[Ring2][Ring1][Ring1]": 44904,
  "[Ring2][Ring1][Ring1][=C]": 1274,
  "[Ring2][Ring1][Ring1][=O]": 2621,
  "[Ring2][Ring1][Ring1][C]": 1476,
  "[Ring2][Ring1][Ring1][O]": 1525,
  "[Ring2][Ring1][Ring2]": 43619,
  "[Ring2][Ring1][Ring2][=C]": 546,
  "[Ring2][Ring1][Ring2][=O]": 2415,
  "[Ring2][Ring1][Ring2][C]": 1435,
  "[Ring2][Ring1][Ring2][O]": 1392,
  "[Ring2][Ring1][S]": 15307,
  "[Ring2][Ring1][S][=O]": 906,
  "[Ring2][Ring1][S][C]": 656,
  "[Ring2][Ring1][S][O]": 703,
  "[Ring2][Ring2]": 216228,
  "[Ring2][Ring2][#Branch1]": 9919,
  "[Ring2][Ring2][#Branch2]": 5771,
  "[Ring2][Ring2][#C]": 3005,
  "[Ring2][Ring2][=Branch1]": 10575,
  "[Ring2][Ring2][=Branch1][C]": 1027,
  "[Ring2][Ring2][=Branch2]": 7456,
  "[Ring2][Ring2][=Branch2][=O]": 549,
  "[Ring2][Ring2][=C]": 3131,
  "[Ring2][Ring2][=N]": 3443,
  "[Ring2][Ring2][Branch1]": 10358,
  "[Ring2][Ring2][Branch1][=O]": 848,
  "[Ring2][Ring2][Branch1][C]": 1191,
  "[Ring2][Ring2][Branch2]": 8097,
  "[Ring2][Ring2][C]": 17886,
  "[Ring2][Ring2][C][=O]": 1399,
  "[Ring2][Ring2][C][C]": 1376,
  "[Ring2][Ring2][C][O]": 634,
  "[Ring2][Ring2][N]": 3368,
  "[Ring2][Ring2][N][=O]": 576,
  "[Ring2][Ring2][O]": 3985,
  "[Ring2][Ring2][O][=O]": 514,
  "[Ring2][Ring2][P]": 2266,
  "[Ring2][Ring2][Ring1]": 33299,
  "[Ring2][Ring2][Ring1][#Branch1]": 564,
  "[Ring2][Ring2][Ring1][=O]": 788,
  "[Ring2][Ring2][Ring1][C]": 881,
  "[Ring2][Ring2][Ring1][O]": 919,
  "[Ring2][Ring2][Ring2]": 18952,
  "[Ring2][Ring2][Ring2][=O]": 773,
  "[Ring2][Ring2][Ring2][C]": 608,
  "[Ring2][Ring2][Ring2][O]": 504,
  "[Ring2][Ring2][S]": 2431,
  "[S+1]": 5611,
  "[S+1][Branch1][C][C]": 863,
  "[S+1][Branch1][C][O-1]": 3487,
  "[S-1]": 323,
  "[S-2]": 1,
  "[S@+1]": 312,
  "[S@@+1]": 335,
  "[S@@]": 721,
  "[S@@][=Branch1][C][=O]": 669,
  "[S@]": 98,
  "[SH0]": 4,
  "[SH1+1]": 178,
  "[SH1-1]": 1,
  "[SH1]": 79,
  "[SH2]": 1,
  "[S]": 1143853,
  "[S][/C]": 1574,
  "[S][=Branch1][C][=O]": 228464,
  "[S][=C]": 3346,
  "[S][=N]": 1945,
  "[S][Branch1][C][C]": 25227,
  "[S][Branch1][C][N]": 10677,
  "[S][C]": 29288,
  "[S][C][=C]": 2345,
  "[S][C][=C][C]": 2796,
  "[S][C][=N]": 13998,
  "[S][C][=Ring1]": 15467,
  "[S][C][=Ring1][=Branch1]": 820,
  "[S][C][=Ring1][=N]": 622,
  "[S][C][=Ring1][Branch1]": 3178,
  "[S][C][=Ring2]": 2538,
  "[S][C][Branch1][=Branch2]": 1019,
  "[S][C][Branch1][C]": 827,
  "[S][C][C@H1]": 854,
  "[S][C][C]": 27280,
  "[S][C][C][=C]": 1000,
  "[S][C][C][=N]": 1186,
  "[S][C][C][C]": 965,
  "[S][C][C][N]": 775,
  "[S][C][N]": 788,
  "[S][C][N][=C]": 509,
  "[S][C][Ring1]": 578,
  "[S][C][Ring1][#Branch1]": 674,
  "[S][C][Ring1][#C]": 534,
  "[S][C][Ring1][=C]": 535,
  "[S][C][Ring2][Ring1]": 537,
  "[S][Cl]": 717,
  "[S][N]": 3583,
  "[S][N][C][C]": 991,
  "[S][O]": 783,
  "[S][O][C]": 1368,
  "[S][O][C][C]": 504,
  "[S][Ring1]": 1017,
  "[S][Ring1][#Branch1]": 587,
  "[S][Ring1][#Branch2]": 4505,
  "[S][Ring1][#C]": 3511,
  "[S][Ring1][=Branch1]": 5758,
  "[S][Ring1][=Branch2]": 9996,
  "[S][Ring1][=C]": 4341,
  "[S][Ring1][=N]": 4239,
  "[S][Ring1][Branch1]": 26150,
  "[S][Ring1][Branch1][=C]": 1916,
  "[S][Ring1][Branch1][=N]": 1371,
  "[S][Ring1][Branch1][C]": 5488,
  "[S][Ring1][Branch1][N]": 509,
  "[S][Ring1][Branch2]": 2849,
  "[S][Ring1][N]": 2783,
  "[S][Ring1][O]": 3003,
  "[S][Ring1][P]": 3063,
  "[S][Ring1][S]": 3133,
  "[S][Ring2][Ring1]": 997,
  "[S][Ring2][Ring1][#Branch1]": 1530,
  "[S][Ring2][Ring1][#Branch2]": 1359,
  "[S][Ring2][Ring1][#C]": 641,
  "[S][Ring2][Ring1][=Branch1]": 1587,
  "[S][Ring2][Ring1][=Branch2]": 1446,
  "[S][Ring2][Ring1][=C]": 765,
  "[S][Ring2][Ring1][=N]": 914,
  "[S][Ring2][Ring1][Branch1]": 1449,
  "[S][Ring2][Ring1][Branch2]": 1023,
  "[S][Ring2][Ring1][C]": 1815,
  "[S][Ring2][Ring1][N]": 941,
  "[S][Ring2][Ring1][O]": 914,
  "[S][Ring2][Ring1][Ring1]": 2093,
  "[S][Ring2][Ring1][Ring2]": 2278,
  "[S][Ring2][Ring1][S]": 575,
  "[S][S]": 1214,
  "[Sb]": 2,
  "[Se+1]": 7,
  "[SeH1]": 35,
  "[SeH2]": 1,
  "[Se]": 2478,
  "[Si-1]": 1,
  "[Si@]": 1,
  "[SiH1-1]": 1,
  "[SiH1]": 5,
  "[SiH2]": 16,
  "[SiH3-1]": 1,
  "[SiH4]": 12,
  "[Si]": 2817,
  "[Si][Branch1][C][C]": 2156,
  "[Sr+2]": 13,
  "[Sr]": 1,
  "[TeH1]": 2,
  "[TeH2]": 4,
  "[Te]": 68,
  "[Xe]": 1,
  "[Yb]": 1,
  "[Zn+1]": 2,
  "[Zn+2]": 98,
  "[Zn-2]": 1,
  "[Zn]": 25,
  "[\\11CH3]": 1,
  "[\\123I]": 2,
  "[\\125I]": 5,
  "[\\3H]": 1,
  "[\\B]": 6,
  "[\\Br]": 85,
  "[\\C-1]": 1,
  "[\\C@@H1]": 1009,
  "[\\C@@]": 151,
  "[\\C@H1]": 1166,
  "[\\C@]": 110,
  "[\\CH1-1]": 2,
  "[\\C]": 60218,
  "[\\C][#N]": 2002,
  "[\\C][=Branch1][C][=O]": 1467,
  "[\\C][=C]": 24317,
  "[\\C][=C][C][=C]": 590,
  "[\\C][C][C]": 1179,
  "[\\Cl]": 304,
  "[\\F]": 603,
  "[\\I]": 47,
  "[\\N+1]": 248,
  "[\\N-1]": 6,
  "[\\NH1]": 1344,
  "[\\N]": 12722,
  "[\\O-1]": 242,
  "[\\O]": 7016,
  "[\\P]": 18,
  "[\\S+1]": 12,
  "[\\S-1]": 5,
  "[\\S]": 5563,
  "[\\Se]": 3,
  "[\\Si]": 2
}
