{
  "</s>": 2,
  "<mask>": 4,
  "<pad>": 1,
  "<s>": 0,
  "<unk>": 3,
  "[#11C]": 256,
  "[#14C]": 247,
  "[#Branch1]": 22,
  "[#Branch1][=C]": 1902,
  "[#Branch1][=N]": 2506,
  "[#Branch1][=O]": 2434,
  "[#Branch1][C]": 1717,
  "[#Branch1][C][C]": 1409,
  "[#Branch1][C][N]": 2247,
  "[#Branch1][Cl]": 1820,
  "[#Branch1][F]": 1898,
  "[#Branch1][N]": 1384,
  "[#Branch1][N][C]": 2187,
  "[#Branch1][N][C][C]": 1950,
  "[#Branch1][O]": 1544,
  "[#Branch1][O][C]": 1102,
  "[#Branch1][O][C][C]": 2227,
  "[#Branch1][Ring1][=Branch1]": 2356,
  "[#Branch1][Ring2][Ring1][#Branch2]": 2622,
  "[#Branch1][Ring2][Ring1][Ring1]": 2739,
  "[#Branch2]": 15,
  "[#Branch2][=C]": 2237,
  "[#Branch2][C]": 489,
  "[#Branch2][C][=N]": 2433,
  "[#Branch2][C][C]": 1738,
  "[#Branch2][C][N]": 2776,
  "[#Branch2][Cl]": 1926,
  "[#Branch2][F]": 2156,
  "[#Branch2][N]": 1039,
  "[#Branch2][N][C]": 2719,
  "[#Branch2][N][C][C]": 1569,
  "[#Branch2][O]": 1282,
  "[#Branch2][O][C]": 1136,
  "[#Branch2][O][C][C]": 2365,
  "[#Branch2][Ring1][=Branch1]": 2583,
  "[#C-1]": 141,
  "[#CH0]": 248,
  "[#C]": 23,
  "[#C][C]": 1716,
  "[#C][C][=C][C]": 2345,
  "[#C][C][=N]": 2310,
  "[#C][C][C]": 1652,
  "[#C][C][N]": 2149,
  "[#C][C][O]": 2107,
  "[#C][Cl]": 2470,
  "[#C][N]": 1145,
  "[#C][N][C]": 2768,
  "[#C][N][C][C]": 2008,
  "[#C][O]": 2128,
  "[#C][O][C]": 1386,
  "[#C][O][C][C]": 2784,
  "[#N+1]": 123,
  "[#N]": 19,
  "[#S]": 262,
  "[-/Ring1]": 92,
  "[-/Ring2]": 90,
  "[-\\Ring1]": 167,
  "[-\\Ring2]": 120,
  "[/123I]": 245,
  "[/125I]": 117,
  "[/131I]": 210,
  "[/13CH1]": 272,
  "[/13C]": 197,
  "[/14CH1]": 324,
  "[/14C]": 281,
  "[/As]": 259,
  "[/B]": 161,
  "[/Br]": 62,
  "[/C-1]": 229,
  "[/C@@H1]": 45,
  "[/C@@]": 105,
  "[/C@H1]": 87,
  "[/C@]": 76,
  "[/C]": 20,
  "[/C][#N]": 2094,
  "[/C][=Branch1]": 536,
  "[/C][=Branch1][#Branch2]": 1128,
  "[/C][=Branch1][#C]": 1666,
  "[/C][=Branch1][=Branch2]": 1645,
  "[/C][=Branch1][=C]": 1648,
  "[/C][=Branch1][=N]": 1162,
  "[/C][=Branch1][C][=O]": 1312,
  "[/C][=Branch1][N][=C]": 2472,
  "[/C][=Branch1][O][=C]": 2003,
  "[/C][=Branch1][P]": 1258,
  "[/C][=Branch1][Ring1][=C]": 2414,
  "[/C][=Branch1][Ring1][=N]": 1038,
  "[/C][=Branch1][Ring2][=N]": 1996,
  "[/C][=Branch1][S]": 1809,
  "[/C][=Branch2]": 617,
  "[/C][=Branch2][Ring1][#Branch1]": 2662,
  "[/C][=Branch2][Ring1][Branch1]": 2703,
  "[/C][=Branch2][Ring1][Branch2]": 2629,
  "[/C][=Branch2][Ring1][Ring2]": 1507,
  "[/C][=Branch2][Ring2]": 1695,
  "[/C][=C]": 376,
  "[/C][=C][/C@@H1]": 1506,
  "[/C][=C][/C@H1]": 1611,
  "[/C][=C][/C]": 526,
  "[/C][=C][/C][=C]": 479,
  "[/C][=C][/C][=N]": 2118,
  "[/C][=C][/C][N]": 2643,
  "[/C][=C][/N]": 1988,
  "[/C][=C][/S]": 1778,
  "[/C][=C][Branch1][C]": 897,
  "[/C][=C][Branch1][Ring1]": 1612,
  "[/C][=C][C][=C]": 2513,
  "[/C][=C][\\C]": 671,
  "[/C][=C][\\C][=C]": 1305,
  "[/C][=C][\\C][C@H1]": 1962,
  "[/C][=C][\\N]": 1682,
  "[/C][=C][\\O]": 2336,
  "[/C][=C][\\S]": 1257,
  "[/C][=N]": 647,
  "[/C][=N][/C]": 2349,
  "[/C][=N][/C][=C]": 1932,
  "[/C][=N][/N]": 794,
  "[/C][=N][/N][C]": 2635,
  "[/C][=N][/O]": 1565,
  "[/C][=N][\\N]": 2223,
  "[/C][C][/C]": 2028,
  "[/C][Ring1][=Branch2]": 2696,
  "[/Cl]": 101,
  "[/F]": 160,
  "[/I]": 94,
  "[/N+1]": 68,
  "[/N-1]": 142,
  "[/NH1]": 114,
  "[/N]": 48,
  "[/N][=C]": 514,
  "[/N][=C][/C]": 1525,
  "[/N][=C][/C][=C]": 654,
  "[/N][=C][/N]": 2556,
  "[/N][=C][Branch1][C]": 1264,
  "[/N][=C][\\C]": 1355,
  "[/N][=C][\\C][=C]": 1486,
  "[/N][=C][\\NH1]": 1975,
  "[/N][=C][\\N]": 2707,
  "[/N][=C][\\S]": 1927,
  "[/N][=N][/C][=C]": 1394,
  "[/O-1]": 128,
  "[/O]": 53,
  "[/O][N][C][C]": 2517,
  "[/P+1]": 181,
  "[/P@@]": 231,
  "[/P]": 102,
  "[/S+1]": 67,
  "[/S-1]": 258,
  "[/SH0]": 303,
  "[/S]": 71,
  "[/Se]": 149,
  "[/Si]": 125,
  "[10B]": 283,
  "[11C@@H1]": 304,
  "[11CH2]": 249,
  "[11CH3]": 74,
  "[11C]": 137,
  "[123I-1]": 312,
  "[123I]": 69,
  "[123Te]": 186,
  "[124I-1]": 325,
  "[124I]": 133,
  "[125I-1]": 171,
  "[125I]": 70,
  "[127I]": 301,
  "[127Xe]": 311,
  "[129Xe]": 292,
  "[131Cs]": 275,
  "[131I-1]": 329,
  "[131I]": 86,
  "[133Xe]": 322,
  "[13CH1]": 198,
  "[13CH3]": 277,
  "[13C]": 166,
  "[14C@@H1]": 318,
  "[14C@@]": 302,
  "[14C@H1]": 306,
  "[14CH1]": 185,
  "[14CH2]": 175,
  "[14CH3]": 177,
  "[14C]": 143,
  "[15NH1]": 200,
  "[15N]": 134,
  "[17F]": 218,
  "[18F-1]": 294,
  "[18F]": 73,
  "[18OH1]": 252,
  "[19F]": 144,
  "[211At]": 286,
  "[223Ra]": 193,
  "[22Na+1]": 191,
  "[2H]": 88,
  "[32P]": 307,
  "[35S]": 182,
  "[3H]": 103,
  "[42K+1]": 188,
  "[45Ca+2]": 178,
  "[47Ca+2]": 201,
  "[68Ga+3]": 273,
  "[73Se]": 242,
  "[75Se]": 327,
  "[76Br]": 152,
  "[81Kr]": 326,
  "[82Rb+1]": 314,
  "[82Rb]": 280,
  "[85Sr+2]": 180,
  "[89Sr+2]": 319,
  "[=11C]": 132,
  "[=13CH1]": 196,
  "[=13C]": 199,
  "[=14CH1]": 156,
  "[=14C]": 194,
  "[=18O]": 317,
  "[=32PH1]": 257,
  "[=32P]": 244,
  "[=Al]": 295,
  "[=As]": 145,
  "[=B-1]": 159,
  "[=B]": 176,
  "[=Branch1]": 13,
  "[=Branch1][=C]": 1673,
  "[=Branch1][=N]": 2178,
  "[=Branch1][=O]": 2518,
  "[=Branch1][C]": 336,
  "[=Branch1][C][#N]": 1468,
  "[=Branch1][C][=C]": 2770,
  "[=Branch1][C][=C][C]": 2665,
  "[=Branch1][C][=N]": 521,
  "[=Branch1][C][=N][N]": 731,
  "[=Branch1][C][=O]": 337,
  "[=Branch1][C][=O][/C]": 2331,
  "[=Branch1][C][=O][=O]": 477,
  "[=Branch1][C][=O][C@@H1]": 899,
  "[=Branch1][C][=O][C@H1]": 1085,
  "[=Branch1][C][=O][C@]": 2256,
  "[=Branch1][C][=O][C]": 912,
  "[=Branch1][C][=O][NH1]": 858,
  "[=Branch1][C][=O][N]": 381,
  "[=Branch1][C][=O][O-1]": 438,
  "[=Branch1][C][=O][O]": 419,
  "[=Branch1][C][=Ring1]": 961,
  "[=Branch1][C][=Ring1][=Branch2]": 962,
  "[=Branch1][C][=Ring1][N]": 2586,
  "[=Branch1][C][=Ring1][O]": 1997,
  "[=Branch1][C][=Ring2]": 1526,
  "[=Branch1][C][=S]": 529,
  "[=Branch1][C][=S][NH1]": 2399,
  "[=Branch1][C][=S][N]": 743,
  "[=Branch1][C][Branch1][#C]": 2615,
  "[=Branch1][C][Branch1][=Branch2]": 1209,
  "[=Branch1][C][Branch1][Branch2]": 2685,
  "[=Branch1][C][Branch1][C]": 1661,
  "[=Branch1][C][Branch1][N]": 1808,
  "[=Branch1][C][Branch1][S]": 2747,
  "[=Branch1][C][C@@H1]": 1358,
  "[=Branch1][C][C@H1]": 1107,
  "[=Branch1][C][C]": 2379,
  "[=Branch1][C][C][=C]": 2100,
  "[=Branch1][C][N]": 944,
  "[=Branch1][C][N][C]": 2270,
  "[=Branch1][C][O]": 1194,
  "[=Branch1][C][Ring1][#Branch2]": 668,
  "[=Branch1][C][Ring1][#C]": 1374,
  "[=Branch1][C][Ring1][=Branch2]": 672,
  "[=Branch1][C][Ring1][=C]": 1531,
  "[=Branch1][C][Ring1][=N]": 1030,
  "[=Branch1][C][Ring1][N]": 1492,
  "[=Branch1][C][Ring1][O]": 1558,
  "[=Branch1][C][Ring1][P]": 1886,
  "[=Branch1][C][Ring1][S]": 1940,
  "[=Branch1][C][Ring2][Ring1]": 2294,
  "[=Branch1][C][S]": 1735,
  "[=Branch1][Cl]": 1621,
  "[=Branch1][F]": 1756,
  "[=Branch1][N+1]": 552,
  "[=Branch1][N]": 1001,
  "[=Branch1][N][C][C]": 1578,
  "[=Branch1][O]": 1518,
  "[=Branch1][O][=C]": 2437,
  "[=Branch1][O][C]": 1221,
  "[=Branch1][O][C][C]": 2132,
  "[=Branch1][Ring1][=Branch1]": 2295,
  "[=Branch1][Ring2][Ring1][=Branch2]": 2415,
  "[=Branch1][Ring2][Ring1][Ring1]": 2686,
  "[=Branch2]": 14,
  "[=Branch2][=C]": 1801,
  "[=Branch2][C]": 1889,
  "[=Branch2][C][=N]": 2467,
  "[=Branch2][C][C]": 2371,
  "[=Branch2][C][N]": 2139,
  "[=Branch2][Cl]": 1879,
  "[=Branch2][F]": 2137,
  "[=Branch2][N]": 1372,
  "[=Branch2][N][C][C]": 996,
  "[=Branch2][O]": 1593,
  "[=Branch2][O][C]": 1263,
  "[=Branch2][O][C][C]": 2062,
  "[=Branch2][Ring1][=Branch1]": 2596,
  "[=Branch2][Ring1][P]": 2656,
  "[=Branch2][Ring2]": 1776,
  "[=C+1]": 267,
  "[=C]": 7,
  "[=C][/C]": 1521,
  "[=C][/C][=C]": 814,
  "[=C][=C]": 2318,
  "[=C][Branch1][#C]": 2515,
  "[=C][Branch1][=Branch1][C]": 1644,
  "[=C][Branch1][=Branch2]": 1071,
  "[=C][Branch1][=N]": 2439,
  "[=C][Branch1][Branch2]": 2458,
  "[=C][Branch1][C][Br]": 2165,
  "[=C][Branch1][C][C]": 1103,
  "[=C][Branch1][C][Cl]": 1053,
  "[=C][Branch1][C][F]": 1161,
  "[=C][Branch1][C][N]": 1453,
  "[=C][Branch1][C][O]": 1104,
  "[=C][Branch1][N]": 1472,
  "[=C][Branch1][P]": 2445,
  "[=C][C]": 892,
  "[=C][C][=Branch1][Ring2]": 2793,
  "[=C][C][=C]": 1016,
  "[=C][C][=C][C]": 1781,
  "[=C][C][=C][NH1]": 2692,
  "[=C][C][=C][Ring1]": 1182,
  "[=C][C][=N]": 644,
  "[=C][C][=Ring1]": 2726,
  "[=C][C][Branch1][=Branch2]": 842,
  "[=C][C][Branch1][=N]": 2734,
  "[=C][C][Branch1][C]": 1443,
  "[=C][C][Branch2][Ring1]": 2679,
  "[=C][C][C@@H1]": 1698,
  "[=C][C][C]": 1359,
  "[=C][C][O]": 2493,
  "[=C][Cl]": 2312,
  "[=C][F]": 2676,
  "[=C][NH1]": 1169,
  "[=C][N]": 932,
  "[=C][N][=C]": 1505,
  "[=C][N][C]": 2593,
  "[=C][N][C][C]": 1865,
  "[=C][N][Ring1]": 2271,
  "[=C][N][Ring1][=N]": 2668,
  "[=C][N][Ring1][Branch2]": 2209,
  "[=C][N][Ring2][Ring1]": 2049,
  "[=C][O]": 1393,
  "[=C][O][C]": 1202,
  "[=C][O][C][C]": 2654,
  "[=C][Ring1]": 357,
  "[=C][Ring1][#Branch1]": 417,
  "[=C][Ring1][#Branch1][=C]": 1259,
  "[=C][Ring1][#Branch1][=N]": 1494,
  "[=C][Ring1][#Branch1][C]": 2235,
  "[=C][Ring1][#Branch1][Cl]": 1094,
  "[=C][Ring1][#Branch1][F]": 1074,
  "[=C][Ring1][#Branch1][N]": 1617,
  "[=C][Ring1][#Branch1][O]": 1483,
  "[=C][Ring1][#Branch2]": 446,
  "[=C][Ring1][#Branch2][=C]": 1278,
  "[=C][Ring1][#Branch2][=N]": 2089,
  "[=C][Ring1][#Branch2][C]": 2474,
  "[=C][Ring1][#Branch2][Cl]": 2011,
  "[=C][Ring1][#Branch2][F]": 1710,
  "[=C][Ring1][#Branch2][N]": 1967,
  "[=C][Ring1][#Branch2][O]": 1939,
  "[=C][Ring1][#C]": 610,
  "[=C][Ring1][#C][=C]": 2382,
  "[=C][Ring1][#C][C]": 2471,
  "[=C][Ring1][=Branch1]": 435,
  "[=C][Ring1][=Branch1][C]": 620,
  "[=C][Ring1][=Branch1][N]": 1249,
  "[=C][Ring1][=Branch1][O]": 1647,
  "[=C][Ring1][=Branch2]": 486,
  "[=C][Ring1][=Branch2][=C]": 1594,
  "[=C][Ring1][=Branch2][=N]": 2136,
  "[=C][Ring1][=Branch2][F]": 2102,
  "[=C][Ring1][=C]": 614,
  "[=C][Ring1][=C][=C]": 2738,
  "[=C][Ring1][=N]": 661,
  "[=C][Ring1][=N][=C]": 2602,
  "[=C][Ring1][=N][F]": 2767,
  "[=C][Ring1][=N][N]": 2239,
  "[=C][Ring1][=N][O]": 2405,
  "[=C][Ring1][Branch1]": 1982,
  "[=C][Ring1][Branch2]": 442,
  "[=C][Ring1][Branch2][=C]": 1240,
  "[=C][Ring1][Branch2][=N]": 1806,
  "[=C][Ring1][Branch2][C@@H1]": 2521,
  "[=C][Ring1][Branch2][C@H1]": 2469,
  "[=C][Ring1][Branch2][C]": 2512,
  "[=C][Ring1][Branch2][Cl]": 1875,
  "[=C][Ring1][Branch2][F]": 1725,
  "[=C][Ring1][Branch2][N]": 1724,
  "[=C][Ring1][Branch2][O]": 1444,
  "[=C][Ring1][N]": 723,
  "[=C][Ring1][N][=C]": 2451,
  "[=C][Ring1][N][=N]": 2678,
  "[=C][Ring1][N][C]": 1448,
  "[=C][Ring1][N][O]": 2616,
  "[=C][Ring1][O]": 598,
  "[=C][Ring1][O][=C]": 1273,
  "[=C][Ring1][O][C]": 1440,
  "[=C][Ring1][O][N]": 2416,
  "[=C][Ring1][O][O]": 2397,
  "[=C][Ring1][P]": 571,
  "[=C][Ring1][P][C]": 2448,
  "[=C][Ring1][P][Cl]": 2790,
  "[=C][Ring1][S]": 642,
  "[=C][Ring1][S][C]": 2557,
  "[=C][Ring2][Ring1]": 374,
  "[=C][Ring2][Ring1][#Branch1]": 641,
  "[=C][Ring2][Ring1][#Branch2]": 692,
  "[=C][Ring2][Ring1][#C]": 879,
  "[=C][Ring2][Ring1][=Branch1]": 714,
  "[=C][Ring2][Ring1][=Branch2]": 681,
  "[=C][Ring2][Ring1][=C]": 803,
  "[=C][Ring2][Ring1][=N]": 800,
  "[=C][Ring2][Ring1][Branch1]": 724,
  "[=C][Ring2][Ring1][Branch2]": 691,
  "[=C][Ring2][Ring1][C]": 798,
  "[=C][Ring2][Ring1][N]": 835,
  "[=C][Ring2][Ring1][O]": 739,
  "[=C][Ring2][Ring1][P]": 948,
  "[=C][Ring2][Ring1][Ring1]": 631,
  "[=C][Ring2][Ring1][Ring2]": 650,
  "[=C][Ring2][Ring1][S]": 963,
  "[=C][Ring2][Ring2]": 700,
  "[=C][Ring2][Ring2][#Branch1]": 1657,
  "[=C][Ring2][Ring2][#Branch2]": 2387,
  "[=C][Ring2][Ring2][=Branch1]": 1683,
  "[=C][Ring2][Ring2][=Branch2]": 2098,
  "[=C][Ring2][Ring2][Branch1]": 1535,
  "[=C][Ring2][Ring2][Branch2]": 2036,
  "[=C][Ring2][Ring2][C]": 1366,
  "[=C][Ring2][Ring2][O]": 2601,
  "[=C][Ring2][Ring2][Ring1]": 1269,
  "[=C][Ring2][Ring2][Ring2]": 1416,
  "[=C][S]": 688,
  "[=C][S][Ring1][#C]": 2218,
  "[=C][S][Ring1][=C]": 2625,
  "[=C][S][Ring1][=N]": 2162,
  "[=C][S][Ring1][N]": 1692,
  "[=C][S][Ring1][O]": 1701,
  "[=C][\\C]": 1502,
  "[=C][\\C][=C]": 767,
  "[=Mg]": 310,
  "[=N+1]": 32,
  "[=N+1][=N-1]": 1550,
  "[=N+1][Branch1][C][C]": 2157,
  "[=N+1][Branch1][C][O-1]": 781,
  "[=N-1]": 63,
  "[=NH1+1]": 232,
  "[=NH2+1]": 243,
  "[=N]": 29,
  "[=N][/C]": 2219,
  "[=N][/C][=C]": 1164,
  "[=N][/N]": 1322,
  "[=N][/O]": 2401,
  "[=N][C]": 513,
  "[=N][C][=C]": 1023,
  "[=N][C][=C][Branch1]": 2587,
  "[=N][C][=C][C]": 1317,
  "[=N][C][=C][Ring1]": 2576,
  "[=N][C][=N]": 855,
  "[=N][C][=Ring1]": 874,
  "[=N][C][=Ring1][#C]": 2632,
  "[=N][C][=Ring2]": 1144,
  "[=N][C][Branch1][#Branch2]": 1826,
  "[=N][C][Branch1][=Branch2]": 1129,
  "[=N][C][Branch1][=C]": 2724,
  "[=N][C][Branch1][C]": 1796,
  "[=N][C][Branch1][N]": 1607,
  "[=N][C][Branch1][O]": 2730,
  "[=N][C][Branch2][Ring1]": 2313,
  "[=N][C][C]": 1577,
  "[=N][C][NH1]": 1930,
  "[=N][C][Ring1][=Branch1]": 2741,
  "[=N][C][Ring1][=N]": 2646,
  "[=N][C][Ring1][P]": 2404,
  "[=N][C][Ring2][Ring1]": 1840,
  "[=N][C][S]": 2241,
  "[=N][Cl]": 2124,
  "[=N][F]": 2504,
  "[=N][NH1]": 712,
  "[=N][NH1][C][=Ring1]": 2755,
  "[=N][N]": 462,
  "[=N][N][=C]": 742,
  "[=N][N][Branch1][=Branch2]": 2463,
  "[=N][N][C]": 2614,
  "[=N][N][C][C]": 1726,
  "[=N][N][Ring1]": 1297,
  "[=N][N][Ring1][#C]": 1873,
  "[=N][N][Ring1][=Branch1]": 2114,
  "[=N][N][Ring1][=Branch2]": 1839,
  "[=N][N][Ring1][=N]": 2480,
  "[=N][N][Ring1][Branch2]": 2477,
  "[=N][N][Ring1][O]": 2211,
  "[=N][N][Ring1][P]": 2426,
  "[=N][N][Ring1][S]": 2454,
  "[=N][N][Ring2][Ring1]": 1003,
  "[=N][O]": 550,
  "[=N][O][C]": 1246,
  "[=N][O][C][=Ring1]": 1587,
  "[=N][O][C][C]": 2122,
  "[=N][O][Ring1][#C]": 2110,
  "[=N][O][Ring1][=Branch1]": 2231,
  "[=N][O][Ring1][=C]": 2368,
  "[=N][O][Ring1][=N]": 2222,
  "[=N][O][Ring1][N]": 1818,
  "[=N][O][Ring1][O]": 1753,
  "[=N][O][Ring1][S]": 2528,
  "[=N][Ring1][#Branch1]": 1167,
  "[=N][Ring1][#Branch2]": 1017,
  "[=N][Ring1][#C]": 947,
  "[=N][Ring1][=Branch1]": 1929,
  "[=N][Ring1][=Branch2]": 1435,
  "[=N][Ring1][=C]": 1080,
  "[=N][Ring1][=N]": 1005,
  "[=N][Ring1][Branch2]": 1316,
  "[=N][Ring1][N]": 1077,
  "[=N][Ring1][O]": 1134,
  "[=N][Ring1][P]": 995,
  "[=N][Ring1][S]": 914,
  "[=N][Ring2][Ring1]": 401,
  "[=N][Ring2][Ring1][#Branch1]": 852,
  "[=N][Ring2][Ring1][#Branch2]": 926,
  "[=N][Ring2][Ring1][#C]": 1174,
  "[=N][Ring2][Ring1][=Branch1]": 861,
  "[=N][Ring2][Ring1][=Branch2]": 895,
  "[=N][Ring2][Ring1][=C]": 1121,
  "[=N][Ring2][Ring1][=N]": 1137,
  "[=N][Ring2][Ring1][Branch1]": 903,
  "[=N][Ring2][Ring1][Branch2]": 849,
  "[=N][Ring2][Ring1][C]": 906,
  "[=N][Ring2][Ring1][N]": 1113,
  "[=N][Ring2][Ring1][O]": 1047,
  "[=N][Ring2][Ring1][P]": 1351,
  "[=N][Ring2][Ring1][Ring1]": 823,
  "[=N][Ring2][Ring1][Ring2]": 776,
  "[=N][Ring2][Ring1][S]": 1201,
  "[=N][Ring2][Ring2][Branch1]": 2600,
  "[=N][Ring2][Ring2][C]": 2041,
  "[=N][Ring2][Ring2][Ring1]": 1905,
  "[=N][Ring2][Ring2][Ring2]": 2274,
  "[=N][\\C][=C]": 1151,
  "[=N][\\N]": 1041,
  "[=N][\\N][C][=N]": 2680,
  "[=N][\\O]": 1608,
  "[=O+1]": 116,
  "[=OH0]": 296,
  "[=O]": 18,
  "[=O][=C]": 744,
  "[=O][=N]": 2760,
  "[=O][C@@H1]": 2214,
  "[=O][C@H1]": 2420,
  "[=O][C][=N]": 2721,
  "[=O][C][C]": 2537,
  "[=O][N]": 2115,
  "[=O][N][C][C]": 2307,
  "[=O][O]": 2766,
  "[=P@@]": 107,
  "[=P@]": 129,
  "[=PH1]": 147,
  "[=PH2]": 204,
  "[=P]": 57,
  "[=Ring1]": 34,
  "[=Ring1][#Branch1]": 960,
  "[=Ring1][#Branch1][C][C]": 2475,
  "[=Ring1][#Branch2]": 1183,
  "[=Ring1][#C]": 1300,
  "[=Ring1][=Branch1]": 755,
  "[=Ring1][=Branch1][=C]": 1748,
  "[=Ring1][=Branch1][=N]": 1989,
  "[=Ring1][=Branch1][C]": 1291,
  "[=Ring1][=Branch2]": 670,
  "[=Ring1][=Branch2][N]": 2038,
  "[=Ring1][=C]": 1720,
  "[=Ring1][=N]": 1328,
  "[=Ring1][Branch1]": 746,
  "[=Ring1][Branch1][C]": 928,
  "[=Ring1][Branch1][C][C]": 1140,
  "[=Ring1][Branch2]": 1229,
  "[=Ring1][N]": 1702,
  "[=Ring1][O]": 1463,
  "[=Ring1][P]": 1464,
  "[=Ring1][S]": 1488,
  "[=Ring2]": 41,
  "[=Ring2][Ring1]": 1693,
  "[=Ring2][Ring1][#Branch1]": 1667,
  "[=Ring2][Ring1][#Branch2]": 1942,
  "[=Ring2][Ring1][#C]": 2292,
  "[=Ring2][Ring1][=Branch1]": 1622,
  "[=Ring2][Ring1][=Branch2]": 1772,
  "[=Ring2][Ring1][=N]": 2321,
  "[=Ring2][Ring1][Branch1]": 1592,
  "[=Ring2][Ring1][Branch2]": 1599,
  "[=Ring2][Ring1][C]": 1860,
  "[=Ring2][Ring1][N]": 2534,
  "[=Ring2][Ring1][O]": 2324,
  "[=Ring2][Ring1][Ring1]": 1629,
  "[=Ring2][Ring1][Ring2]": 1618,
  "[=Ring2][Ring1][S]": 2675,
  "[=S+1]": 98,
  "[=S-1]": 278,
  "[=S@@]": 50,
  "[=S@]": 164,
  "[=SH0]": 269,
  "[=SH1]": 150,
  "[=S]": 26,
  "[=S][=Branch1][C][=O]": 674,
  "[=S][Branch1][C][C]": 2419,
  "[=Se+1]": 174,
  "[=Se]": 162,
  "[=Si]": 173,
  "[=Te+1]": 179,
  "[=Te]": 253,
  "[Ag+1]": 190,
  "[Ag-4]": 328,
  "[Ag]": 146,
  "[Al+3]": 223,
  "[Al]": 225,
  "[Ar]": 266,
  "[As+1]": 189,
  "[As-1]": 298,
  "[AsH1]": 282,
  "[AsH3]": 316,
  "[As]": 84,
  "[At]": 290,
  "[B-1]": 100,
  "[B@-1]": 206,
  "[B@@-1]": 208,
  "[BH0]": 165,
  "[BH1-1]": 251,
  "[BH2-1]": 202,
  "[BH3-1]": 131,
  "[B]": 65,
  "[B][Branch1][C][O]": 2047,
  "[Ba+2]": 157,
  "[Ba]": 291,
  "[Be+2]": 246,
  "[Bi+3]": 169,
  "[Bi]": 155,
  "[Br+2]": 254,
  "[Br-1]": 52,
  "[Br-1][Br-1]": 1856,
  "[Br]": 21,
  "[Br][C][C]": 2618,
  "[Branch1]": 11,
  "[Branch1][#Branch1]": 422,
  "[Branch1][#Branch1][C][C]": 625,
  "[Branch1][#Branch1][C][N]": 1734,
  "[Branch1][#Branch1][N][C]": 993,
  "[Branch1][#Branch1][O][C]": 632,
  "[Branch1][#Branch2]": 393,
  "[Branch1][#Branch2][C]": 517,
  "[Branch1][#Branch2][C][C]": 1250,
  "[Branch1][#Branch2][N]": 753,
  "[Branch1][#Branch2][N][C]": 2577,
  "[Branch1][#Branch2][O]": 740,
  "[Branch1][#Branch2][O][C]": 764,
  "[Branch1][#Branch2][S]": 1925,
  "[Branch1][#C]": 445,
  "[Branch1][#C][C]": 2579,
  "[Branch1][#C][C][C]": 2005,
  "[Branch1][#C][C][N]": 2024,
  "[Branch1][#C][C][O]": 2119,
  "[Branch1][#C][N]": 812,
  "[Branch1][#C][N][C]": 2373,
  "[Branch1][#C][O]": 1490,
  "[Branch1][=Branch1]": 449,
  "[Branch1][=Branch1][C]": 451,
  "[Branch1][=Branch1][N+1]": 578,
  "[Branch1][=Branch1][N]": 937,
  "[Branch1][=Branch2]": 378,
  "[Branch1][=Branch2][C][=N]": 2430,
  "[Branch1][=Branch2][C][N]": 1208,
  "[Branch1][=Branch2][O]": 2530,
  "[Branch1][=C]": 427,
  "[Branch1][=C][C]": 1476,
  "[Branch1][=C][C][=N]": 1303,
  "[Branch1][=C][C][C]": 1265,
  "[Branch1][=C][C][N]": 2061,
  "[Branch1][=C][C][O]": 2155,
  "[Branch1][=C][N]": 816,
  "[Branch1][=C][N][C]": 2286,
  "[Branch1][=C][O]": 988,
  "[Branch1][=C][O][C]": 1541,
  "[Branch1][=N]": 418,
  "[Branch1][=N][C]": 726,
  "[Branch1][=N][C][=C]": 2015,
  "[Branch1][=N][C][C]": 2510,
  "[Branch1][=N][N]": 777,
  "[Branch1][=N][O]": 994,
  "[Branch1][=O]": 2573,
  "[Branch1][Branch1]": 1019,
  "[Branch1][Branch1][C]": 1154,
  "[Branch1][Branch1][C][=N]": 1542,
  "[Branch1][Branch1][C][C]": 864,
  "[Branch1][Branch1][C][O]": 2075,
  "[Branch1][Branch1][O]": 2621,
  "[Branch1][Branch1][O][C]": 2722,
  "[Branch1][Branch2]": 440,
  "[Branch1][Branch2][C][=N]": 2552,
  "[Branch1][Branch2][C][C]": 920,
  "[Branch1][Branch2][C][O]": 1658,
  "[Branch1][Branch2][N]": 1044,
  "[Branch1][Branch2][O]": 1533,
  "[Branch1][C]": 338,
  "[Branch1][C][/C]": 2333,
  "[Branch1][C][2H]": 2182,
  "[Branch1][C][=N]": 821,
  "[Branch1][C][Br]": 456,
  "[Branch1][C][Br][=C]": 748,
  "[Branch1][C][C@H1]": 2340,
  "[Branch1][C][C]": 342,
  "[Branch1][C][C][=C]": 594,
  "[Branch1][C][C][=N]": 596,
  "[Branch1][C][C][=O]": 485,
  "[Branch1][C][C][C@@H1]": 493,
  "[Branch1][C][C][C@@]": 1457,
  "[Branch1][C][C][C@H1]": 480,
  "[Branch1][C][C][C@]": 980,
  "[Branch1][C][C][C]": 380,
  "[Branch1][C][C][F]": 2476,
  "[Branch1][C][C][NH1]": 975,
  "[Branch1][C][C][N]": 534,
  "[Branch1][C][C][O]": 471,
  "[Branch1][C][C][S]": 1211,
  "[Branch1][C][Cl]": 363,
  "[Branch1][C][Cl][=C]": 464,
  "[Branch1][C][Cl][=N]": 1960,
  "[Branch1][C][Cl][Cl]": 1499,
  "[Branch1][C][Cl][S]": 1892,
  "[Branch1][C][F]": 347,
  "[Branch1][C][F][=C]": 494,
  "[Branch1][C][F][C@@H1]": 2393,
  "[Branch1][C][F][F]": 375,
  "[Branch1][C][F][O]": 2566,
  "[Branch1][C][I]": 964,
  "[Branch1][C][I][=C]": 2293,
  "[Branch1][C][N]": 385,
  "[Branch1][C][N][=C]": 1296,
  "[Branch1][C][N][=N]": 580,
  "[Branch1][C][N][=O]": 474,
  "[Branch1][C][N][=S]": 2536,
  "[Branch1][C][N][C@@H1]": 2068,
  "[Branch1][C][N][C]": 780,
  "[Branch1][C][N][N]": 1281,
  "[Branch1][C][N][O]": 2192,
  "[Branch1][C][N][S]": 1999,
  "[Branch1][C][O-1]": 583,
  "[Branch1][C][O-1][O-1]": 2109,
  "[Branch1][C][O-1][O]": 2131,
  "[Branch1][C][O]": 358,
  "[Branch1][C][O][/C]": 2771,
  "[Branch1][C][O][=C]": 577,
  "[Branch1][C][O][=N]": 1452,
  "[Branch1][C][O][C@@H1]": 501,
  "[Branch1][C][O][C@@]": 1913,
  "[Branch1][C][O][C@H1]": 455,
  "[Branch1][C][O][C@]": 1315,
  "[Branch1][C][O][C]": 414,
  "[Branch1][C][O][O]": 713,
  "[Branch1][C][S]": 808,
  "[Branch1][C][S][=N]": 1766,
  "[Branch1][C][S][N]": 1964,
  "[Branch1][C][\\C]": 2501,
  "[Branch1][Cl]": 1804,
  "[Branch1][F]": 1893,
  "[Branch1][N]": 404,
  "[Branch1][N][=Ring1][=Branch2]": 2553,
  "[Branch1][N][C]": 1118,
  "[Branch1][N][C][=N]": 1721,
  "[Branch1][N][C][C]": 687,
  "[Branch1][N][N]": 1478,
  "[Branch1][N][O]": 1980,
  "[Branch1][O]": 439,
  "[Branch1][O][C@H1]": 2327,
  "[Branch1][O][C]": 756,
  "[Branch1][O][C][#C]": 1798,
  "[Branch1][O][C][=C]": 2514,
  "[Branch1][O][C][C]": 664,
  "[Branch1][O][C][N]": 1971,
  "[Branch1][O][C][O]": 1206,
  "[Branch1][O][C][S]": 2432,
  "[Branch1][O][N]": 1236,
  "[Branch1][O][N][C]": 1458,
  "[Branch1][O][O]": 1255,
  "[Branch1][O][O][C]": 941,
  "[Branch1][O][S][C]": 2715,
  "[Branch1][P]": 453,
  "[Branch1][P][C]": 1850,
  "[Branch1][P][C][=C]": 2749,
  "[Branch1][P][C][=N]": 1937,
  "[Branch1][P][C][C]": 1532,
  "[Branch1][P][C][N]": 2316,
  "[Branch1][P][C][O]": 2533,
  "[Branch1][P][N]": 854,
  "[Branch1][P][O]": 1437,
  "[Branch1][P][O][C]": 2339,
  "[Branch1][Ring1]": 379,
  "[Branch1][Ring1][#Branch1]": 2126,
  "[Branch1][Ring1][#Branch2]": 2429,
  "[Branch1][Ring1][=Branch1]": 2167,
  "[Branch1][Ring1][=Branch2]": 1849,
  "[Branch1][Ring1][=C]": 2778,
  "[Branch1][Ring1][=N]": 2508,
  "[Branch1][Ring1][Branch2]": 1957,
  "[Branch1][Ring1][C][#N]": 531,
  "[Branch1][Ring1][C][=O]": 1289,
  "[Branch1][Ring1][C][C]": 1096,
  "[Branch1][Ring1][C][Cl]": 2350,
  "[Branch1][Ring1][C][F]": 1640,
  "[Branch1][Ring1][C][N]": 1290,
  "[Branch1][Ring1][C][O]": 483,
  "[Branch1][Ring1][O]": 595,
  "[Branch1][Ring1][O][C]": 546,
  "[Branch1][Ring1][P]": 1699,
  "[Branch1][Ring1][S]": 1815,
  "[Branch1][Ring1][S][C]": 2010,
  "[Branch1][Ring2]": 459,
  "[Branch1][Ring2][C][C]": 2417,
  "[Branch1][Ring2][C][Ring1]": 796,
  "[Branch1][Ring2][Ring1][Branch2]": 2663,
  "[Branch1][S]": 437,
  "[Branch1][S][C]": 1204,
  "[Branch1][S][C][C]": 1270,
  "[Branch1][S][C][N]": 2018,
  "[Branch1][S][N]": 799,
  "[Branch1][S][O]": 1456,
  "[Branch2]": 8,
  "[Branch2][#Branch1]": 863,
  "[Branch2][=Branch1]": 565,
  "[Branch2][=Branch1][#Branch1]": 1779,
  "[Branch2][=Branch1][#Branch2]": 2060,
  "[Branch2][=Branch1][#C]": 2383,
  "[Branch2][=Branch1][=Branch1]": 1951,
  "[Branch2][=Branch1][=Branch2]": 1933,
  "[Branch2][=Branch1][=C]": 2279,
  "[Branch2][=Branch1][=N]": 2309,
  "[Branch2][=Branch1][Branch1]": 2441,
  "[Branch2][=Branch1][Branch2]": 1731,
  "[Branch2][=Branch1][C]": 1789,
  "[Branch2][=Branch1][C][C]": 2697,
  "[Branch2][=Branch1][O]": 2509,
  "[Branch2][=Branch1][P]": 2567,
  "[Branch2][=Branch1][Ring1]": 1747,
  "[Branch2][=Branch1][Ring2]": 1495,
  "[Branch2][=Branch1][S]": 2666,
  "[Branch2][=C]": 1610,
  "[Branch2][=N]": 1943,
  "[Branch2][=N][\\N]": 2628,
  "[Branch2][Branch1]": 787,
  "[Branch2][Branch1][#Branch1]": 915,
  "[Branch2][Branch1][#Branch1][N]": 2384,
  "[Branch2][Branch1][#Branch2]": 1066,
  "[Branch2][Branch1][#Branch2][N]": 2712,
  "[Branch2][Branch1][#C]": 1280,
  "[Branch2][Branch1][=Branch1]": 1061,
  "[Branch2][Branch1][=Branch1][C]": 1383,
  "[Branch2][Branch1][=Branch1][N]": 2341,
  "[Branch2][Branch1][=Branch2]": 934,
  "[Branch2][Branch1][=Branch2][N]": 2560,
  "[Branch2][Branch1][=C]": 1184,
  "[Branch2][Branch1][=N]": 1186,
  "[Branch2][Branch1][Branch1]": 1307,
  "[Branch2][Branch1][Branch1][C]": 1627,
  "[Branch2][Branch1][Branch1][N]": 1845,
  "[Branch2][Branch1][Branch2]": 902,
  "[Branch2][Branch1][Branch2][N]": 2422,
  "[Branch2][Branch1][C]": 1178,
  "[Branch2][Branch1][C][C]": 1260,
  "[Branch2][Branch1][C][N]": 1455,
  "[Branch2][Branch1][N]": 1176,
  "[Branch2][Branch1][O]": 1095,
  "[Branch2][Branch1][P]": 1357,
  "[Branch2][Branch1][Ring1]": 807,
  "[Branch2][Branch1][Ring1][N]": 2006,
  "[Branch2][Branch1][Ring2]": 806,
  "[Branch2][Branch1][Ring2][N]": 1994,
  "[Branch2][Branch1][S]": 1365,
  "[Branch2][Branch2]": 2104,
  "[Branch2][C]": 1767,
  "[Branch2][C][=N]": 2335,
  "[Branch2][C][C]": 1714,
  "[Branch2][C][C][=C]": 1866,
  "[Branch2][C][N]": 2352,
  "[Branch2][C][O]": 2769,
  "[Branch2][Cl]": 1728,
  "[Branch2][F]": 1790,
  "[Branch2][N]": 1205,
  "[Branch2][N][C][=N]": 2584,
  "[Branch2][N][C][C]": 1642,
  "[Branch2][O]": 1487,
  "[Branch2][O][C]": 1212,
  "[Branch2][O][C][C]": 2031,
  "[Branch2][Ring1]": 343,
  "[Branch2][Ring1][#Branch1]": 468,
  "[Branch2][Ring1][#Branch1][C]": 2133,
  "[Branch2][Ring1][#Branch1][N]": 919,
  "[Branch2][Ring1][#Branch1][O]": 1901,
  "[Branch2][Ring1][#Branch2]": 498,
  "[Branch2][Ring1][#Branch2][C]": 1948,
  "[Branch2][Ring1][#Branch2][N]": 943,
  "[Branch2][Ring1][#Branch2][O]": 1814,
  "[Branch2][Ring1][#C]": 530,
  "[Branch2][Ring1][#C][C]": 2647,
  "[Branch2][Ring1][#C][N]": 1052,
  "[Branch2][Ring1][#C][O]": 2370,
  "[Branch2][Ring1][=Branch1]": 524,
  "[Branch2][Ring1][=Branch1][C]": 699,
  "[Branch2][Ring1][=Branch1][N]": 889,
  "[Branch2][Ring1][=Branch1][O]": 1651,
  "[Branch2][Ring1][=Branch2]": 488,
  "[Branch2][Ring1][=Branch2][C]": 2411,
  "[Branch2][Ring1][=Branch2][N]": 870,
  "[Branch2][Ring1][=Branch2][O]": 2016,
  "[Branch2][Ring1][=C]": 535,
  "[Branch2][Ring1][=C][C]": 2485,
  "[Branch2][Ring1][=C][N]": 1037,
  "[Branch2][Ring1][=C][O]": 2337,
  "[Branch2][Ring1][=N]": 573,
  "[Branch2][Ring1][=N][C]": 2396,
  "[Branch2][Ring1][=N][N]": 970,
  "[Branch2][Ring1][=N][O]": 2184,
  "[Branch2][Ring1][Branch1]": 634,
  "[Branch2][Ring1][Branch1][C]": 689,
  "[Branch2][Ring1][Branch1][N]": 869,
  "[Branch2][Ring1][Branch1][O]": 971,
  "[Branch2][Ring1][Branch2]": 473,
  "[Branch2][Ring1][Branch2][C]": 1869,
  "[Branch2][Ring1][Branch2][N]": 845,
  "[Branch2][Ring1][Branch2][O]": 1761,
  "[Branch2][Ring1][C]": 770,
  "[Branch2][Ring1][C][C]": 673,
  "[Branch2][Ring1][C][N]": 813,
  "[Branch2][Ring1][C][O]": 1459,
  "[Branch2][Ring1][N]": 606,
  "[Branch2][Ring1][N][C]": 1347,
  "[Branch2][Ring1][N][N]": 922,
  "[Branch2][Ring1][N][O]": 1832,
  "[Branch2][Ring1][O]": 532,
  "[Branch2][Ring1][O][C@@H1]": 2410,
  "[Branch2][Ring1][O][C@H1]": 2789,
  "[Branch2][Ring1][O][C]": 1323,
  "[Branch2][Ring1][O][N]": 983,
  "[Branch2][Ring1][O][O]": 2175,
  "[Branch2][Ring1][P]": 558,
  "[Branch2][Ring1][P][N]": 1149,
  "[Branch2][Ring1][P][O]": 2591,
  "[Branch2][Ring1][Ring1]": 463,
  "[Branch2][Ring1][Ring1][C]": 1894,
  "[Branch2][Ring1][Ring1][N]": 831,
  "[Branch2][Ring1][Ring1][O]": 1301,
  "[Branch2][Ring1][Ring2]": 458,
  "[Branch2][Ring1][Ring2][C]": 1238,
  "[Branch2][Ring1][Ring2][N]": 793,
  "[Branch2][Ring1][Ring2][O]": 1349,
  "[Branch2][Ring1][S]": 566,
  "[Branch2][Ring1][S][C]": 2243,
  "[Branch2][Ring1][S][N]": 1100,
  "[Branch2][Ring1][S][O]": 2170,
  "[Branch2][Ring2]": 359,
  "[Branch2][Ring2][#Branch1]": 555,
  "[Branch2][Ring2][#Branch1][C]": 2332,
  "[Branch2][Ring2][#Branch1][N]": 1198,
  "[Branch2][Ring2][#Branch1][O]": 2492,
  "[Branch2][Ring2][#Branch2]": 589,
  "[Branch2][Ring2][#Branch2][C]": 2020,
  "[Branch2][Ring2][#Branch2][N]": 1309,
  "[Branch2][Ring2][#Branch2][O]": 2527,
  "[Branch2][Ring2][#C]": 666,
  "[Branch2][Ring2][#C][N]": 1588,
  "[Branch2][Ring2][=Branch1]": 611,
  "[Branch2][Ring2][=Branch1][C]": 841,
  "[Branch2][Ring2][=Branch1][N]": 1141,
  "[Branch2][Ring2][=Branch1][O]": 2570,
  "[Branch2][Ring2][=Branch2]": 579,
  "[Branch2][Ring2][=Branch2][N]": 1279,
  "[Branch2][Ring2][=Branch2][O]": 2535,
  "[Branch2][Ring2][=C]": 663,
  "[Branch2][Ring2][=C][N]": 1546,
  "[Branch2][Ring2][=N]": 698,
  "[Branch2][Ring2][=N][N]": 1276,
  "[Branch2][Ring2][=N][O]": 2641,
  "[Branch2][Ring2][Branch1]": 788,
  "[Branch2][Ring2][Branch1][C]": 925,
  "[Branch2][Ring2][Branch1][N]": 1009,
  "[Branch2][Ring2][Branch1][O]": 2025,
  "[Branch2][Ring2][Branch2]": 559,
  "[Branch2][Ring2][Branch2][C]": 2298,
  "[Branch2][Ring2][Branch2][N]": 1232,
  "[Branch2][Ring2][Branch2][O]": 2672,
  "[Branch2][Ring2][C]": 921,
  "[Branch2][Ring2][C][C]": 838,
  "[Branch2][Ring2][C][N]": 976,
  "[Branch2][Ring2][C][O]": 1729,
  "[Branch2][Ring2][N]": 761,
  "[Branch2][Ring2][N][C]": 1812,
  "[Branch2][Ring2][N][N]": 1354,
  "[Branch2][Ring2][N][O]": 2753,
  "[Branch2][Ring2][O]": 653,
  "[Branch2][Ring2][O][C]": 1945,
  "[Branch2][Ring2][O][N]": 1306,
  "[Branch2][Ring2][O][O]": 2651,
  "[Branch2][Ring2][P]": 718,
  "[Branch2][Ring2][P][N]": 1830,
  "[Branch2][Ring2][Ring1]": 484,
  "[Branch2][Ring2][Ring1][Branch1]": 2546,
  "[Branch2][Ring2][Ring1][C]": 2453,
  "[Branch2][Ring2][Ring1][N]": 1060,
  "[Branch2][Ring2][Ring1][O]": 1833,
  "[Branch2][Ring2][Ring2]": 516,
  "[Branch2][Ring2][Ring2][C]": 2233,
  "[Branch2][Ring2][Ring2][N]": 1032,
  "[Branch2][Ring2][Ring2][O]": 2376,
  "[Branch2][Ring2][S]": 716,
  "[Branch2][Ring2][S][C]": 2664,
  "[Branch2][Ring2][S][N]": 1598,
  "[C+1]": 106,
  "[C-1]": 119,
  "[C-1][#N+1]": 1931,
  "[C@@H1]": 27,
  "[C@@H1][Branch1][#Branch1]": 2693,
  "[C@@H1][Branch1][#Branch2]": 1388,
  "[C@@H1][Branch1][#Branch2][C]": 1126,
  "[C@@H1][Branch1][#C]": 1566,
  "[C@@H1][Branch1][#C][N]": 2540,
  "[C@@H1][Branch1][=Branch1]": 2012,
  "[C@@H1][Branch1][=Branch1][C]": 1623,
  "[C@@H1][Branch1][=Branch2]": 1275,
  "[C@@H1][Branch1][=C][O]": 2617,
  "[C@@H1][Branch1][=N]": 2645,
  "[C@@H1][Branch1][=N][C]": 1863,
  "[C@@H1][Branch1][Branch2]": 2255,
  "[C@@H1][Branch1][C]": 1563,
  "[C@@H1][Branch1][C][C]": 612,
  "[C@@H1][Branch1][C][F]": 2785,
  "[C@@H1][Branch1][C][N]": 1884,
  "[C@@H1][Branch1][C][O]": 909,
  "[C@@H1][Branch1][N]": 1575,
  "[C@@H1][Branch1][Ring1]": 2660,
  "[C@@H1][Branch1][Ring2]": 1822,
  "[C@@H1][Branch1][S]": 2225,
  "[C@@H1][Branch1][S][N]": 2718,
  "[C@@H1][Branch2][Ring1]": 2059,
  "[C@@H1][Branch2][Ring1][Ring1]": 2775,
  "[C@@H1][Branch2][Ring1][Ring2]": 2317,
  "[C@@H1][C@@H1]": 1075,
  "[C@@H1][C@H1]": 1327,
  "[C@@H1][C]": 1576,
  "[C@@H1][C][C@@H1]": 935,
  "[C@@H1][C][C@@]": 2421,
  "[C@@H1][C][C@H1]": 917,
  "[C@@H1][C][C]": 1035,
  "[C@@H1][C][C][C@@H1]": 1687,
  "[C@@H1][C][C][C@@]": 2750,
  "[C@@H1][C][C][C@H1]": 1081,
  "[C@@H1][C][C][N]": 2592,
  "[C@@H1][C][N]": 1203,
  "[C@@H1][C][O]": 2598,
  "[C@@H1][C][S]": 2720,
  "[C@@H1][N]": 2657,
  "[C@@H1][O]": 1912,
  "[C@@H1][O][C@@H1]": 1853,
  "[C@@H1][O][C@H1]": 717,
  "[C@@H1][Ring1]": 2009,
  "[C@@H1][Ring1][#Branch1]": 1311,
  "[C@@H1][Ring1][#Branch2]": 2381,
  "[C@@H1][Ring1][#C]": 1493,
  "[C@@H1][Ring1][=Branch1]": 1242,
  "[C@@H1][Ring1][=Branch1][C]": 2095,
  "[C@@H1][Ring1][=Branch1][O]": 2787,
  "[C@@H1][Ring1][=Branch2]": 2610,
  "[C@@H1][Ring1][=C]": 2308,
  "[C@@H1][Ring1][=N]": 1787,
  "[C@@H1][Ring1][Branch1]": 2578,
  "[C@@H1][Ring1][Branch2]": 2074,
  "[C@@H1][Ring1][N]": 2568,
  "[C@@H1][Ring1][O]": 2637,
  "[C@@H1][Ring1][P]": 1742,
  "[C@@H1][Ring1][S]": 2264,
  "[C@@H1][Ring2][Ring1]": 1227,
  "[C@@H1][Ring2][Ring1][Ring1]": 2146,
  "[C@@H1][Ring2][Ring1][Ring2]": 2565,
  "[C@@H1][Ring2][Ring2]": 1968,
  "[C@@]": 28,
  "[C@@][Branch1][C][C]": 562,
  "[C@@][Branch1][C][O]": 1127,
  "[C@@][Branch1][P]": 1741,
  "[C@@][C][C][C@@H1]": 2732,
  "[C@@][Ring1]": 2096,
  "[C@@][Ring1][#Branch1]": 2478,
  "[C@@][Ring1][#Branch2]": 2494,
  "[C@@][Ring1][#C]": 1697,
  "[C@@][Ring1][=Branch1]": 2304,
  "[C@@][Ring1][=Branch2]": 2456,
  "[C@@][Ring1][=N]": 1659,
  "[C@@][Ring1][O]": 2265,
  "[C@@][Ring1][P]": 2671,
  "[C@@][Ring1][S]": 2135,
  "[C@@][Ring2][Ring1]": 2035,
  "[C@H1]": 33,
  "[C@H1][Branch1][#Branch1]": 2066,
  "[C@H1][Branch1][#Branch2]": 1326,
  "[C@H1][Branch1][#Branch2][C]": 956,
  "[C@H1][Branch1][#C]": 1299,
  "[C@H1][Branch1][=Branch1]": 1447,
  "[C@H1][Branch1][=Branch1][C]": 1333,
  "[C@H1][Branch1][=Branch1][N]": 1938,
  "[C@H1][Branch1][=Branch2]": 1046,
  "[C@H1][Branch1][=C][O]": 2526,
  "[C@H1][Branch1][=N]": 2134,
  "[C@H1][Branch1][=N][C]": 1653,
  "[C@H1][Branch1][Branch2]": 2000,
  "[C@H1][Branch1][C][C]": 643,
  "[C@H1][Branch1][C][F]": 2111,
  "[C@H1][Branch1][C][N]": 1700,
  "[C@H1][Branch1][C][O]": 885,
  "[C@H1][Branch1][N]": 1454,
  "[C@H1][Branch1][P]": 2254,
  "[C@H1][Branch1][Ring1]": 2497,
  "[C@H1][Branch1][Ring2]": 1605,
  "[C@H1][Branch1][S]": 2084,
  "[C@H1][Branch2][Ring1]": 1870,
  "[C@H1][Branch2][Ring1][#Branch1]": 2706,
  "[C@H1][Branch2][Ring1][Ring1]": 2273,
  "[C@H1][Branch2][Ring1][Ring2]": 2525,
  "[C@H1][C@@H1]": 1261,
  "[C@H1][C@H1]": 1108,
  "[C@H1][C]": 1573,
  "[C@H1][C][C@@H1]": 951,
  "[C@H1][C][C@@]": 2612,
  "[C@H1][C][C@H1]": 969,
  "[C@H1][C][C]": 1288,
  "[C@H1][C][C][C@@H1]": 1267,
  "[C@H1][C][C][C@@]": 2141,
  "[C@H1][C][C][C@H1]": 844,
  "[C@H1][C][C][C@]": 1568,
  "[C@H1][C][C][C]": 2280,
  "[C@H1][C][C][N]": 2531,
  "[C@H1][C][N]": 1391,
  "[C@H1][C][O]": 1769,
  "[C@H1][N][C@@H1]": 2599,
  "[C@H1][O]": 1572,
  "[C@H1][O][C@@H1]": 1412,
  "[C@H1][O][C@H1]": 1797,
  "[C@H1][Ring1][#Branch1]": 1517,
  "[C@H1][Ring1][#Branch2]": 1680,
  "[C@H1][Ring1][#Branch2][O]": 1936,
  "[C@H1][Ring1][#C]": 1520,
  "[C@H1][Ring1][=Branch1]": 1343,
  "[C@H1][Ring1][=Branch1][C]": 1484,
  "[C@H1][Ring1][=Branch2]": 1983,
  "[C@H1][Ring1][=C]": 1819,
  "[C@H1][Ring1][=N]": 1737,
  "[C@H1][Ring1][Branch2]": 1732,
  "[C@H1][Ring1][N]": 1916,
  "[C@H1][Ring1][O]": 1643,
  "[C@H1][Ring1][P]": 1882,
  "[C@H1][Ring1][S]": 2244,
  "[C@H1][Ring2][Ring1]": 1330,
  "[C@H1][Ring2][Ring1][#Branch1]": 1899,
  "[C@H1][Ring2][Ring1][Ring1]": 1952,
  "[C@H1][Ring2][Ring1][Ring2]": 2624,
  "[C@]": 35,
  "[C@][Branch1][C][C]": 683,
  "[C@][Branch1][C][O]": 1028,
  "[C@][C][C][C]": 2547,
  "[C@][Ring1]": 2762,
  "[C@][Ring1][#Branch1]": 2205,
  "[C@][Ring1][#Branch2]": 2669,
  "[C@][Ring1][#C]": 1976,
  "[C@][Ring1][=Branch1]": 2653,
  "[C@][Ring1][=Branch2]": 2389,
  "[C@][Ring1][Branch2]": 2319,
  "[C@][Ring1][N]": 2729,
  "[C@][Ring1][O]": 2328,
  "[C@][Ring1][P]": 2684,
  "[C@][Ring1][S]": 2291,
  "[C@][Ring2][Ring1]": 1986,
  "[C@][Ring2][Ring1][Ring1]": 1861,
  "[CH0]": 227,
  "[CH1-1]": 138,
  "[CH1]": 323,
  "[CH2]": 224,
  "[CH3]": 226,
  "[C]": 5,
  "[C][#C]": 656,
  "[C][#C][C][N]": 1519,
  "[C][#C][C][O]": 1959,
  "[C][#N]": 433,
  "[C][#N][=C]": 795,
  "[C][#N][=N]": 2257,
  "[C][#N][C][=N]": 1106,
  "[C][/C]": 1170,
  "[C][/C][=Branch1]": 1428,
  "[C][/C][=Branch2]": 1119,
  "[C][/C][=C]": 2148,
  "[C][/C][=C][/C]": 1404,
  "[C][/C][=C][\\C]": 1677,
  "[C][=Branch1]": 400,
  "[C][=Branch1][#Branch1]": 1961,
  "[C][=Branch1][#Branch2]": 2394,
  "[C][=Branch1][#C]": 2728,
  "[C][=Branch1][=Branch1]": 1068,
  "[C][=Branch1][Branch1]": 1672,
  "[C][=Branch1][Branch1][=C]": 1422,
  "[C][=Branch1][Branch2]": 2609,
  "[C][=Branch1][C][=N]": 1676,
  "[C][=Branch1][C][=O]": 341,
  "[C][=Branch1][C][=S]": 949,
  "[C][=Branch1][Ring2]": 416,
  "[C][=Branch1][Ring2][=N]": 1033,
  "[C][=Branch2]": 1058,
  "[C][=C]": 333,
  "[C][=C][Branch1]": 367,
  "[C][=C][Branch1][#Branch1]": 789,
  "[C][=C][Branch1][#Branch2]": 805,
  "[C][=C][Branch1][#C]": 752,
  "[C][=C][Branch1][=Branch1]": 1125,
  "[C][=C][Branch1][=Branch2]": 496,
  "[C][=C][Branch1][=C]": 725,
  "[C][=C][Branch1][=N]": 791,
  "[C][=C][Branch1][Branch1]": 2208,
  "[C][=C][Branch1][Branch2]": 727,
  "[C][=C][Branch1][N]": 604,
  "[C][=C][Branch1][O]": 930,
  "[C][=C][Branch1][P]": 762,
  "[C][=C][Branch1][Ring1]": 497,
  "[C][=C][Branch1][Ring2]": 981,
  "[C][=C][Branch1][S]": 766,
  "[C][=C][Branch2][Ring1]": 406,
  "[C][=C][Branch2][Ring2]": 1636,
  "[C][=C][C@@H1]": 1029,
  "[C][=C][C@@]": 2206,
  "[C][=C][C@H1]": 1223,
  "[C][=C][C@]": 1396,
  "[C][=C][C]": 360,
  "[C][=C][C][=Branch1]": 649,
  "[C][=C][C][=Branch2]": 1369,
  "[C][=C][C][=C]": 335,
  "[C][=C][C][=N+1]": 1338,
  "[C][=C][C][=N]": 395,
  "[C][=C][C][=Ring1]": 1601,
  "[C][=C][C][Branch1]": 377,
  "[C][=C][C][Branch2]": 2198,
  "[C][=C][C][C@@H1]": 1378,
  "[C][=C][C][C@H1]": 1979,
  "[C][=C][C][C]": 953,
  "[C][=C][C][NH1]": 1690,
  "[C][=C][C][N]": 888,
  "[C][=C][C][O]": 1133,
  "[C][=C][C][Ring1]": 2355,
  "[C][=C][C][S]": 2283,
  "[C][=C][N+1]": 1704,
  "[C][=C][N+1][=Branch2]": 2748,
  "[C][=C][NH1]": 547,
  "[C][=C][N]": 878,
  "[C][=C][N][=C]": 387,
  "[C][=C][N][=N]": 1696,
  "[C][=C][N][Branch1]": 682,
  "[C][=C][N][C]": 2562,
  "[C][=C][N][Ring1]": 1284,
  "[C][=C][O]": 1191,
  "[C][=C][O][C]": 1751,
  "[C][=C][Ring1]": 339,
  "[C][=C][Ring1][#Branch1]": 361,
  "[C][=C][Ring1][#Branch2]": 402,
  "[C][=C][Ring1][#C]": 481,
  "[C][=C][Ring1][=Branch1]": 350,
  "[C][=C][Ring1][=Branch2]": 425,
  "[C][=C][Ring1][=C]": 503,
  "[C][=C][Ring1][=N]": 499,
  "[C][=C][Ring1][Branch1]": 1159,
  "[C][=C][Ring1][Branch2]": 432,
  "[C][=C][Ring1][N]": 515,
  "[C][=C][Ring1][O]": 482,
  "[C][=C][Ring1][P]": 487,
  "[C][=C][Ring1][S]": 470,
  "[C][=C][Ring2]": 1130,
  "[C][=C][Ring2][Ring1]": 356,
  "[C][=C][Ring2][Ring2]": 469,
  "[C][=C][S]": 510,
  "[C][=C][S][C]": 2123,
  "[C][=N+1]": 1373,
  "[C][=N]": 345,
  "[C][=N][C]": 1791,
  "[C][=N][C][=C]": 783,
  "[C][=N][C][=N]": 548,
  "[C][=N][C][=Ring1]": 2548,
  "[C][=N][C][Branch1]": 2363,
  "[C][=N][C][C]": 1318,
  "[C][=N][C][NH1]": 1764,
  "[C][=N][C][S]": 2058,
  "[C][=N][NH1]": 877,
  "[C][=N][N]": 973,
  "[C][=N][N][=C]": 506,
  "[C][=N][N][=N]": 1082,
  "[C][=N][N][C]": 2301,
  "[C][=N][N][Ring1]": 1350,
  "[C][=N][O]": 862,
  "[C][=N][O][C]": 1272,
  "[C][=N][Ring1][#Branch1]": 751,
  "[C][=N][Ring1][#Branch2]": 1086,
  "[C][=N][Ring1][#C]": 1649,
  "[C][=N][Ring1][=Branch1]": 538,
  "[C][=N][Ring1][=Branch2]": 1489,
  "[C][=N][Ring1][=C]": 1630,
  "[C][=N][Ring1][=N]": 1689,
  "[C][=N][Ring1][Branch1]": 873,
  "[C][=N][Ring1][Branch2]": 1403,
  "[C][=N][Ring1][N]": 2246,
  "[C][=N][Ring1][P]": 1715,
  "[C][=N][Ring1][S]": 1668,
  "[C][=N][Ring2][Ring1]": 1974,
  "[C][=N][S]": 1613,
  "[C][=O]": 817,
  "[C][=Ring1]": 412,
  "[C][=Ring1][#Branch1]": 1192,
  "[C][=Ring1][#Branch2]": 1013,
  "[C][=Ring1][#C]": 1344,
  "[C][=Ring1][=Branch1]": 2088,
  "[C][=Ring1][=Branch2]": 1148,
  "[C][=Ring1][=C]": 1295,
  "[C][=Ring1][=N]": 1213,
  "[C][=Ring1][Branch1]": 905,
  "[C][=Ring1][Branch1][=C]": 2418,
  "[C][=Ring1][Branch1][C]": 867,
  "[C][=Ring1][Branch1][N]": 2558,
  "[C][=Ring1][Branch2]": 1157,
  "[C][=Ring1][N]": 1341,
  "[C][=Ring1][O]": 1442,
  "[C][=Ring1][P]": 1353,
  "[C][=Ring1][S]": 1501,
  "[C][=Ring2]": 575,
  "[C][=Ring2][Ring1]": 1638,
  "[C][=Ring2][Ring1][#Branch1]": 1557,
  "[C][=Ring2][Ring1][#Branch2]": 1784,
  "[C][=Ring2][Ring1][#C]": 2740,
  "[C][=Ring2][Ring1][=Branch1]": 2083,
  "[C][=Ring2][Ring1][=Branch2]": 2101,
  "[C][=Ring2][Ring1][=C]": 2452,
  "[C][=Ring2][Ring1][=N]": 2498,
  "[C][=Ring2][Ring1][Branch1]": 2042,
  "[C][=Ring2][Ring1][Branch2]": 1654,
  "[C][=Ring2][Ring1][C]": 2348,
  "[C][=Ring2][Ring1][N]": 2444,
  "[C][=Ring2][Ring1][O]": 2440,
  "[C][=Ring2][Ring1][Ring1]": 1497,
  "[C][=Ring2][Ring1][Ring2]": 1433,
  "[C][=Ring2][Ring2]": 2630,
  "[C][Br]": 2082,
  "[C][Branch1]": 346,
  "[C][Branch1][#Branch1]": 615,
  "[C][Branch1][#Branch2]": 523,
  "[C][Branch1][#Branch2][C]": 898,
  "[C][Branch1][#Branch2][N]": 1043,
  "[C][Branch1][#Branch2][O]": 1239,
  "[C][Branch1][#Branch2][S]": 2786,
  "[C][Branch1][#C]": 545,
  "[C][Branch1][#C][N]": 1218,
  "[C][Branch1][#C][O]": 2093,
  "[C][Branch1][=Branch1]": 736,
  "[C][Branch1][=Branch1][C]": 520,
  "[C][Branch1][=Branch1][N+1]": 685,
  "[C][Branch1][=Branch2]": 391,
  "[C][Branch1][=C]": 539,
  "[C][Branch1][=C][C]": 2466,
  "[C][Branch1][=C][N]": 989,
  "[C][Branch1][=C][O]": 2153,
  "[C][Branch1][=N]": 582,
  "[C][Branch1][=N][C]": 1485,
  "[C][Branch1][=N][N]": 938,
  "[C][Branch1][=N][O]": 1763,
  "[C][Branch1][Branch1][C]": 2731,
  "[C][Branch1][Branch2]": 527,
  "[C][Branch1][Branch2][N]": 1503,
  "[C][Branch1][Branch2][O]": 2121,
  "[C][Branch1][C]": 421,
  "[C][Branch1][C][2H]": 2173,
  "[C][Branch1][C][Br]": 662,
  "[C][Branch1][C][C]": 408,
  "[C][Branch1][C][Cl]": 423,
  "[C][Branch1][C][F]": 372,
  "[C][Branch1][C][I]": 1707,
  "[C][Branch1][C][N]": 1314,
  "[C][Branch1][C][O]": 475,
  "[C][Branch1][N]": 495,
  "[C][Branch1][N][C]": 2200,
  "[C][Branch1][N][N]": 1924,
  "[C][Branch1][O]": 630,
  "[C][Branch1][O][C]": 1523,
  "[C][Branch1][O][N]": 1424,
  "[C][Branch1][O][O]": 2232,
  "[C][Branch1][P]": 567,
  "[C][Branch1][P][C]": 2608,
  "[C][Branch1][P][N]": 1070,
  "[C][Branch1][P][O]": 2603,
  "[C][Branch1][Ring1]": 504,
  "[C][Branch1][Ring1][C]": 1571,
  "[C][Branch1][Ring1][O]": 490,
  "[C][Branch1][Ring1][S]": 2043,
  "[C][Branch1][Ring2]": 757,
  "[C][Branch1][S]": 551,
  "[C][Branch1][S][C]": 2305,
  "[C][Branch1][S][N]": 1142,
  "[C][Branch1][S][O]": 2242,
  "[C][Branch2]": 608,
  "[C][Branch2][#Branch1]": 2541,
  "[C][Branch2][=Branch1]": 1399,
  "[C][Branch2][Branch1][#Branch1]": 1838,
  "[C][Branch2][Branch1][#Branch2]": 2249,
  "[C][Branch2][Branch1][=Branch1]": 1910,
  "[C][Branch2][Branch1][=Branch2]": 2037,
  "[C][Branch2][Branch1][=N]": 2597,
  "[C][Branch2][Branch1][Branch1]": 2522,
  "[C][Branch2][Branch1][Branch2]": 2055,
  "[C][Branch2][Branch1][C]": 2495,
  "[C][Branch2][Branch1][O]": 2733,
  "[C][Branch2][Branch1][Ring1]": 1591,
  "[C][Branch2][Branch1][Ring2]": 1560,
  "[C][Branch2][Ring1]": 371,
  "[C][Branch2][Ring1][#Branch1]": 665,
  "[C][Branch2][Ring1][#Branch2]": 707,
  "[C][Branch2][Ring1][#C]": 809,
  "[C][Branch2][Ring1][=Branch1]": 734,
  "[C][Branch2][Ring1][=Branch2]": 693,
  "[C][Branch2][Ring1][=C]": 801,
  "[C][Branch2][Ring1][=N]": 876,
  "[C][Branch2][Ring1][Branch1]": 1007,
  "[C][Branch2][Ring1][Branch2]": 646,
  "[C][Branch2][Ring1][C]": 1216,
  "[C][Branch2][Ring1][N]": 955,
  "[C][Branch2][Ring1][O]": 900,
  "[C][Branch2][Ring1][P]": 840,
  "[C][Branch2][Ring1][Ring1]": 639,
  "[C][Branch2][Ring1][Ring2]": 602,
  "[C][Branch2][Ring1][S]": 872,
  "[C][Branch2][Ring2]": 441,
  "[C][Branch2][Ring2][#Branch1]": 965,
  "[C][Branch2][Ring2][#Branch2]": 1181,
  "[C][Branch2][Ring2][#C]": 1434,
  "[C][Branch2][Ring2][=Branch1]": 1243,
  "[C][Branch2][Ring2][=Branch2]": 1025,
  "[C][Branch2][Ring2][=C]": 1325,
  "[C][Branch2][Ring2][=N]": 1362,
  "[C][Branch2][Ring2][Branch1]": 1555,
  "[C][Branch2][Ring2][Branch2]": 1014,
  "[C][Branch2][Ring2][C]": 1816,
  "[C][Branch2][Ring2][N]": 1708,
  "[C][Branch2][Ring2][O]": 1462,
  "[C][Branch2][Ring2][P]": 1411,
  "[C][Branch2][Ring2][Ring1]": 939,
  "[C][Branch2][Ring2][Ring2]": 881,
  "[C][Branch2][Ring2][S]": 1450,
  "[C][C@@H1]": 399,
  "[C][C@@H1][Branch1][=Branch2]": 2278,
  "[C][C@@H1][C@@H1]": 2465,
  "[C][C@@H1][C][C@@H1]": 2423,
  "[C][C@@H1][C][C@H1]": 1675,
  "[C][C@@H1][C][C]": 1953,
  "[C][C@@H1][C][N]": 979,
  "[C][C@@H1][C][O]": 2482,
  "[C][C@@H1][N]": 1935,
  "[C][C@@H1][O][C@@H1]": 2359,
  "[C][C@@H1][Ring1]": 2289,
  "[C][C@@H1][Ring1][#Branch1]": 2736,
  "[C][C@@H1][Ring1][#C]": 2287,
  "[C][C@@H1][Ring1][=C]": 2086,
  "[C][C@@H1][Ring1][Branch1]": 2260,
  "[C][C@@H1][Ring1][P]": 2181,
  "[C][C@@H1][Ring1][Ring1]": 1321,
  "[C][C@@H1][Ring1][S]": 2763,
  "[C][C@@H1][Ring2][Ring1]": 1897,
  "[C][C@@H1][Ring2][Ring2]": 2772,
  "[C][C@@]": 702,
  "[C][C@@][Ring1][#C]": 2226,
  "[C][C@H1]": 398,
  "[C][C@H1][Branch1][#C]": 2479,
  "[C][C@H1][Branch1][=Branch2]": 2140,
  "[C][C@H1][Branch2][Ring1]": 2483,
  "[C][C@H1][C@@H1]": 2007,
  "[C][C@H1][C@H1]": 2640,
  "[C][C@H1][C][C@@H1]": 1903,
  "[C][C@H1][C][C@H1]": 2325,
  "[C][C@H1][C][C]": 2367,
  "[C][C@H1][C][N]": 1283,
  "[C][C@H1][C][O]": 2580,
  "[C][C@H1][O]": 2564,
  "[C][C@H1][O][C@@H1]": 2400,
  "[C][C@H1][Ring1]": 1471,
  "[C][C@H1][Ring1][#Branch1]": 2532,
  "[C][C@H1][Ring1][Branch1]": 2168,
  "[C][C@H1][Ring1][Ring1]": 1473,
  "[C][C@H1][Ring1][S]": 2737,
  "[C][C@]": 636,
  "[C][C@][C][C]": 2462,
  "[C][C@][Ring1]": 2001,
  "[C][C]": 334,
  "[C][C][#C]": 1124,
  "[C][C][#N]": 1056,
  "[C][C][/C]": 1346,
  "[C][C][=Branch1]": 2369,
  "[C][C][=C]": 426,
  "[C][C][=C][Branch1]": 659,
  "[C][C][=C][C]": 457,
  "[C][C][=C][NH1]": 741,
  "[C][C][=C][N]": 1171,
  "[C][C][=C][O]": 2252,
  "[C][C][=C][S]": 998,
  "[C][C][=N]": 405,
  "[C][C][=N][C]": 2773,
  "[C][C][=N][NH1]": 797,
  "[C][C][=N][N]": 860,
  "[C][C][=N][O]": 1774,
  "[C][C][=Ring2]": 2203,
  "[C][C][Branch1][#Branch1]": 2213,
  "[C][C][Branch1][#Branch2]": 1733,
  "[C][C][Branch1][#C]": 1387,
  "[C][C][Branch1][=Branch2]": 884,
  "[C][C][Branch1][=C]": 1843,
  "[C][C][Branch1][=N]": 1479,
  "[C][C][Branch1][Branch2]": 1449,
  "[C][C][Branch1][C]": 1054,
  "[C][C][Branch1][N]": 1256,
  "[C][C][Branch1][O]": 2385,
  "[C][C][Branch1][P]": 1679,
  "[C][C][Branch1][Ring1]": 2204,
  "[C][C][Branch1][Ring2]": 1475,
  "[C][C][Branch1][S]": 1529,
  "[C][C][Branch2][Ring1]": 1705,
  "[C][C][C@@H1]": 461,
  "[C][C][C@@H1][C@@H1]": 1885,
  "[C][C][C@@H1][Ring1]": 2248,
  "[C][C][C@@]": 651,
  "[C][C][C@H1]": 436,
  "[C][C][C@H1][C@@H1]": 1166,
  "[C][C][C@H1][O]": 1842,
  "[C][C][C@H1][Ring1]": 1874,
  "[C][C][C@]": 507,
  "[C][C][C@][Ring1]": 1678,
  "[C][C][C]": 389,
  "[C][C][C][=C]": 622,
  "[C][C][C][=N]": 695,
  "[C][C][C][Branch1]": 1087,
  "[C][C][C][C@@H1]": 850,
  "[C][C][C][C@@]": 1408,
  "[C][C][C][C@H1]": 871,
  "[C][C][C][C@]": 1153,
  "[C][C][C][C]": 353,
  "[C][C][C][N]": 411,
  "[C][C][C][O]": 525,
  "[C][C][C][Ring1]": 415,
  "[C][C][C][S]": 1556,
  "[C][C][Cl]": 1220,
  "[C][C][F]": 2176,
  "[C][C][N+1]": 1915,
  "[C][C][N+1][=C]": 2174,
  "[C][C][NH1]": 1179,
  "[C][C][N]": 410,
  "[C][C][N][=C]": 847,
  "[C][C][N][=N]": 2343,
  "[C][C][N][Branch1]": 492,
  "[C][C][N][C]": 818,
  "[C][C][N][Ring1]": 1750,
  "[C][C][O]": 394,
  "[C][C][O][C@@H1]": 1641,
  "[C][C][O][C]": 728,
  "[C][C][Ring1]": 370,
  "[C][C][Ring1][#Branch1]": 533,
  "[C][C][Ring1][#Branch2]": 820,
  "[C][C][Ring1][#C]": 655,
  "[C][C][Ring1][=Branch1]": 560,
  "[C][C][Ring1][=Branch2]": 834,
  "[C][C][Ring1][=C]": 658,
  "[C][C][Ring1][=N]": 586,
  "[C][C][Ring1][Branch1]": 585,
  "[C][C][Ring1][Branch2]": 759,
  "[C][C][Ring1][N]": 732,
  "[C][C][Ring1][O]": 1132,
  "[C][C][Ring1][P]": 735,
  "[C][C][Ring1][Ring1]": 1057,
  "[C][C][Ring1][Ring2]": 1101,
  "[C][C][Ring1][S]": 638,
  "[C][C][Ring2][Ring1]": 403,
  "[C][C][Ring2][Ring2]": 2575,
  "[C][C][S]": 810,
  "[C][C][S][C]": 1954,
  "[C][Cl]": 968,
  "[C][F]": 1000,
  "[C][N+1]": 792,
  "[C][N+1][=C]": 1231,
  "[C][NH1]": 544,
  "[C][NH1][C][=C]": 931,
  "[C][NH1][C][=N]": 1446,
  "[C][NH1][N][=C]": 1189,
  "[C][N]": 352,
  "[C][N][=C]": 600,
  "[C][N][=N]": 1150,
  "[C][N][=N][NH1]": 1465,
  "[C][N][Branch1][#Branch1]": 1564,
  "[C][N][Branch1][#Branch2]": 1762,
  "[C][N][Branch1][#C]": 1380,
  "[C][N][Branch1][=Branch1]": 2644,
  "[C][N][Branch1][=Branch2]": 875,
  "[C][N][Branch1][=C]": 1111,
  "[C][N][Branch1][=N]": 1298,
  "[C][N][Branch1][Branch2]": 2090,
  "[C][N][Branch1][N]": 1543,
  "[C][N][Branch1][O]": 2053,
  "[C][N][Branch1][P]": 1241,
  "[C][N][Branch1][Ring1]": 2402,
  "[C][N][Branch1][Ring2]": 1631,
  "[C][N][Branch1][S]": 1528,
  "[C][N][Branch2][Ring1]": 1498,
  "[C][N][Branch2][Ring2]": 2186,
  "[C][N][C@@H1]": 1514,
  "[C][N][C@H1]": 1670,
  "[C][N][C]": 645,
  "[C][N][C][=C]": 758,
  "[C][N][C][=N]": 591,
  "[C][N][C][C@@H1]": 1062,
  "[C][N][C][C@H1]": 1244,
  "[C][N][C][C]": 397,
  "[C][N][N][=C]": 679,
  "[C][N][N][=N]": 1083,
  "[C][N][Ring1][#Branch1]": 1848,
  "[C][N][Ring1][#C]": 2269,
  "[C][N][Ring1][=Branch1]": 1867,
  "[C][N][Ring1][=Branch2]": 2217,
  "[C][N][Ring1][=N]": 2636,
  "[C][N][Ring1][Branch2]": 2026,
  "[C][N][Ring1][P]": 2788,
  "[C][N][Ring1][S]": 2378,
  "[C][N][Ring2][Ring1]": 2735,
  "[C][O]": 349,
  "[C][O][/N][=C]": 2353,
  "[C][O][=C]": 1034,
  "[C][O][C@@H1]": 890,
  "[C][O][C@@]": 1880,
  "[C][O][C@H1]": 769,
  "[C][O][C@]": 1920,
  "[C][O][C]": 721,
  "[C][O][C][=C]": 829,
  "[C][O][C][=N]": 703,
  "[C][O][C][C@@H1]": 1180,
  "[C][O][C][C@H1]": 1120,
  "[C][O][C][C@]": 2700,
  "[C][O][C][C]": 624,
  "[C][O][C][O]": 1413,
  "[C][O][N]": 2033,
  "[C][O][N][=C]": 1864,
  "[C][O][Ring1][#C]": 2652,
  "[C][O][Ring1][=Branch2]": 2395,
  "[C][O][Ring1][Branch1]": 1955,
  "[C][O][Ring1][Branch2]": 1436,
  "[C][Ring1]": 355,
  "[C][Ring1][#Branch1]": 466,
  "[C][Ring1][#Branch1][=C]": 1545,
  "[C][Ring1][#Branch1][=N]": 1426,
  "[C][Ring1][#Branch1][=O]": 815,
  "[C][Ring1][#Branch1][N]": 2311,
  "[C][Ring1][#Branch2]": 570,
  "[C][Ring1][#Branch2][=C]": 2145,
  "[C][Ring1][#Branch2][=O]": 1222,
  "[C][Ring1][#C]": 568,
  "[C][Ring1][#C][=O]": 945,
  "[C][Ring1][=Branch1]": 450,
  "[C][Ring1][=Branch1][=C]": 1586,
  "[C][Ring1][=Branch1][=N+1]": 2681,
  "[C][Ring1][=Branch1][=N]": 779,
  "[C][Ring1][=Branch1][=O]": 1329,
  "[C][Ring1][=Branch1][C]": 1072,
  "[C][Ring1][=Branch1][N]": 2639,
  "[C][Ring1][=Branch2]": 584,
  "[C][Ring1][=Branch2][=C]": 2545,
  "[C][Ring1][=Branch2][=O]": 1551,
  "[C][Ring1][=Branch2][=Ring1]": 1548,
  "[C][Ring1][=C]": 576,
  "[C][Ring1][=C][=C]": 2705,
  "[C][Ring1][=C][=O]": 940,
  "[C][Ring1][=N]": 593,
  "[C][Ring1][=N][=O]": 972,
  "[C][Ring1][Branch1]": 519,
  "[C][Ring1][Branch1][=C]": 1597,
  "[C][Ring1][Branch1][=N]": 1109,
  "[C][Ring1][Branch1][=O]": 1143,
  "[C][Ring1][Branch1][C]": 929,
  "[C][Ring1][Branch1][N]": 2658,
  "[C][Ring1][Branch2]": 569,
  "[C][Ring1][Branch2][=C]": 1802,
  "[C][Ring1][Branch2][=N]": 2524,
  "[C][Ring1][Branch2][=O]": 1022,
  "[C][Ring1][N]": 765,
  "[C][Ring1][N][=C]": 2691,
  "[C][Ring1][N][=N]": 2670,
  "[C][Ring1][N][=O]": 1092,
  "[C][Ring1][O]": 678,
  "[C][Ring1][O][=C]": 1973,
  "[C][Ring1][O][=O]": 1114,
  "[C][Ring1][P]": 592,
  "[C][Ring1][P][=O]": 1031,
  "[C][Ring1][Ring1]": 737,
  "[C][Ring1][Ring1][=C]": 1825,
  "[C][Ring1][Ring1][=N]": 1946,
  "[C][Ring1][Ring1][N]": 2347,
  "[C][Ring1][Ring2]": 825,
  "[C][Ring1][S]": 601,
  "[C][Ring1][S][=O]": 1116,
  "[C][Ring1][S][=Ring1]": 2702,
  "[C][Ring2]": 1749,
  "[C][Ring2][Ring1]": 384,
  "[C][Ring2][Ring1][#Branch1]": 706,
  "[C][Ring2][Ring1][#Branch2]": 830,
  "[C][Ring2][Ring1][#C]": 974,
  "[C][Ring2][Ring1][=Branch1]": 722,
  "[C][Ring2][Ring1][=Branch2]": 786,
  "[C][Ring2][Ring1][=C]": 911,
  "[C][Ring2][Ring1][=N]": 893,
  "[C][Ring2][Ring1][Branch1]": 709,
  "[C][Ring2][Ring1][Branch2]": 730,
  "[C][Ring2][Ring1][C]": 1018,
  "[C][Ring2][Ring1][N]": 986,
  "[C][Ring2][Ring1][O]": 886,
  "[C][Ring2][Ring1][P]": 1122,
  "[C][Ring2][Ring1][Ring1]": 677,
  "[C][Ring2][Ring1][Ring2]": 680,
  "[C][Ring2][Ring1][S]": 1097,
  "[C][Ring2][Ring2]": 2164,
  "[C][Ring2][Ring2][#Branch1]": 2297,
  "[C][Ring2][Ring2][=Branch1]": 2315,
  "[C][Ring2][Ring2][Branch2]": 2296,
  "[C][Ring2][Ring2][C]": 2342,
  "[C][Ring2][Ring2][Ring1]": 1460,
  "[C][Ring2][Ring2][Ring2]": 1688,
  "[C][S]": 431,
  "[C][S][C]": 1331,
  "[C][S][C][=C]": 1823,
  "[C][S][C][=N]": 676,
  "[C][S][C][C]": 1147,
  "[Ca+2]": 122,
  "[CaH2]": 288,
  "[Ca]": 234,
  "[Cl+1]": 139,
  "[Cl+2]": 240,
  "[Cl+3]": 61,
  "[Cl-1]": 39,
  "[ClH0]": 126,
  "[Cl]": 24,
  "[Cl][=C]": 987,
  "[Cl][=C][N][=C]": 2746,
  "[Cl][=N]": 1286,
  "[Cl][C]": 2687,
  "[Cl][C][=C]": 2765,
  "[Cl][C][=C][C]": 2158,
  "[Cl][C][=N]": 2169,
  "[Cl][C][C]": 2488,
  "[Cl][Cl]": 848,
  "[Cl][Cl][Cl][Cl]": 2714,
  "[Cl][N]": 1420,
  "[Cl][N][=C]": 1836,
  "[Cl][N][C][=N]": 2764,
  "[Cl][N][C][C]": 1361,
  "[Cl][O]": 1665,
  "[Cl][O][=C]": 1559,
  "[Cs+1]": 85,
  "[Cs]": 284,
  "[F-1]": 111,
  "[F]": 16,
  "[F][=C]": 936,
  "[F][=N]": 1504,
  "[F][C][=C]": 2268,
  "[F][C][=C][C]": 1859,
  "[F][C][=N]": 1337,
  "[F][C][C]": 2045,
  "[F][N]": 2251,
  "[F][N][=C]": 2595,
  "[F][N][C][C]": 2236,
  "[H+1]": 151,
  "[H-1]": 285,
  "[He]": 115,
  "[I+1]": 153,
  "[I+2]": 308,
  "[I+3]": 309,
  "[I-1]": 66,
  "[IH0]": 183,
  "[I]": 42,
  "[K+1]": 83,
  "[KH1]": 228,
  "[K]": 313,
  "[Kr]": 315,
  "[Li+1]": 110,
  "[LiH1]": 233,
  "[Li]": 276,
  "[Mg+1]": 289,
  "[Mg+2]": 75,
  "[MgH2]": 236,
  "[Mg]": 235,
  "[N+1]": 30,
  "[N+1][=C]": 1051,
  "[N+1][Branch1][C]": 2449,
  "[N+1][Branch1][C][C]": 1015,
  "[N+1][Branch1][C][O-1]": 1308,
  "[N-1]": 37,
  "[N-1][=N+1]": 2172,
  "[N-1][=N+1][=N]": 2538,
  "[N@+1]": 97,
  "[N@@+1]": 109,
  "[N@@]": 140,
  "[N@H1+1]": 297,
  "[N@]": 91,
  "[NH0]": 238,
  "[NH1+1]": 216,
  "[NH1-1]": 124,
  "[NH1]": 38,
  "[NH1][/C][=Branch2]": 1817,
  "[NH1][C]": 2777,
  "[NH1][C][=C]": 901,
  "[NH1][C][=C][C]": 1385,
  "[NH1][C][=N]": 1123,
  "[NH1][C][=Ring1]": 1112,
  "[NH1][C][Branch1][=Branch2]": 1831,
  "[NH1][C][Branch1][C]": 2358,
  "[NH1][C][Branch2][Ring1]": 2688,
  "[NH1][C][Ring1][#Branch1]": 2689,
  "[NH1][C][Ring1][#Branch2]": 2699,
  "[NH1][C][Ring1][=Branch1]": 2314,
  "[NH1][C][Ring1][=N]": 2022,
  "[NH1][C][Ring1][Branch1]": 2144,
  "[NH1][C][Ring2][Ring1]": 2259,
  "[NH1][N][=C]": 771,
  "[NH1][N][=N]": 2224,
  "[NH1][N][=Ring1]": 1088,
  "[NH1][N][=Ring1][Branch1]": 2143,
  "[NH1][N][=Ring1][Branch2]": 2649,
  "[NH1][Ring1]": 2751,
  "[NH1][Ring1][#Branch1]": 1786,
  "[NH1][Ring1][#Branch2]": 1190,
  "[NH1][Ring1][#C]": 1782,
  "[NH1][Ring1][=Branch1]": 1807,
  "[NH1][Ring1][=Branch1][=N]": 2713,
  "[NH1][Ring1][=Branch2]": 785,
  "[NH1][Ring1][=C]": 1876,
  "[NH1][Ring1][=N]": 1477,
  "[NH1][Ring1][Branch1]": 846,
  "[NH1][Ring1][Branch1][=C]": 2551,
  "[NH1][Ring1][Branch1][C]": 1582,
  "[NH1][Ring1][Branch2]": 2559,
  "[NH1][Ring1][N]": 1857,
  "[NH1][Ring1][O]": 1609,
  "[NH1][Ring1][P]": 1783,
  "[NH1][Ring1][S]": 1755,
  "[NH1][Ring2][Ring1][#Branch1]": 2435,
  "[NH1][Ring2][Ring1][#Branch2]": 2473,
  "[NH1][Ring2][Ring1][=Branch1]": 2081,
  "[NH1][Ring2][Ring1][=Branch2]": 2285,
  "[NH1][Ring2][Ring1][Branch1]": 2633,
  "[NH1][Ring2][Ring1][Branch2]": 2106,
  "[NH1][Ring2][Ring1][C]": 2455,
  "[NH1][Ring2][Ring1][O]": 2561,
  "[NH1][Ring2][Ring1][Ring1]": 2130,
  "[NH1][Ring2][Ring1][Ring2]": 2150,
  "[NH2+1]": 215,
  "[NH3+1]": 293,
  "[NH4+1]": 260,
  "[N]": 10,
  "[N][#C]": 509,
  "[N][#C][C][=C]": 1527,
  "[N][#C][C][=N]": 2459,
  "[N][#C][C][C]": 1553,
  "[N][=C]": 348,
  "[N][=C][Branch1][#Branch1]": 2716,
  "[N][=C][Branch1][#Branch2]": 1345,
  "[N][=C][Branch1][#C]": 1441,
  "[N][=C][Branch1][=Branch1]": 2085,
  "[N][=C][Branch1][=Branch2]": 704,
  "[N][=C][Branch1][=C]": 1423,
  "[N][=C][Branch1][=N]": 1342,
  "[N][=C][Branch1][Branch2]": 1461,
  "[N][=C][Branch1][N]": 1010,
  "[N][=C][Branch1][O]": 1947,
  "[N][=C][Branch1][P]": 1552,
  "[N][=C][Branch1][S]": 1405,
  "[N][=C][Branch2][Ring1]": 1515,
  "[N][=C][C][=C]": 1421,
  "[N][=C][C][=N]": 1739,
  "[N][=C][NH1]": 1634,
  "[N][=C][N]": 2648,
  "[N][=C][N][=C]": 778,
  "[N][=C][N][Ring1]": 1105,
  "[N][=C][Ring1]": 982,
  "[N][=C][Ring1][#Branch1]": 574,
  "[N][=C][Ring1][#Branch2]": 675,
  "[N][=C][Ring1][#C]": 1002,
  "[N][=C][Ring1][=Branch1]": 465,
  "[N][=C][Ring1][=Branch2]": 991,
  "[N][=C][Ring1][=C]": 1099,
  "[N][=C][Ring1][=N]": 954,
  "[N][=C][Ring1][Branch1]": 802,
  "[N][=C][Ring1][Branch2]": 913,
  "[N][=C][Ring1][N]": 984,
  "[N][=C][Ring1][O]": 924,
  "[N][=C][Ring1][P]": 1020,
  "[N][=C][Ring1][S]": 819,
  "[N][=C][Ring2][Ring1]": 454,
  "[N][=C][Ring2][Ring2]": 2161,
  "[N][=C][S]": 1135,
  "[N][=N+1][=N-1]": 1834,
  "[N][=N]": 443,
  "[N][=N][C][=C]": 2782,
  "[N][=N][N][=C]": 2195,
  "[N][=N][N][Ring1]": 1432,
  "[N][=N][Ring1][#Branch1]": 2103,
  "[N][=N][Ring1][#C]": 1439,
  "[N][=N][Ring1][=Branch1]": 2323,
  "[N][=N][Ring1][=Branch2]": 2627,
  "[N][=N][Ring1][=C]": 1375,
  "[N][=N][Ring1][=N]": 1340,
  "[N][=N][Ring1][Branch1]": 1138,
  "[N][=N][Ring1][N]": 1469,
  "[N][=N][Ring1][O]": 1770,
  "[N][=N][Ring1][P]": 1646,
  "[N][=N][Ring1][S]": 1390,
  "[N][=N][Ring2][Ring1]": 1987,
  "[N][=O]": 2380,
  "[N][=Ring1]": 522,
  "[N][=Ring1][#Branch1]": 2620,
  "[N][=Ring1][#C]": 1795,
  "[N][=Ring1][=Branch1]": 1146,
  "[N][=Ring1][=Branch2]": 2230,
  "[N][=Ring1][=C]": 2021,
  "[N][=Ring1][=N]": 2196,
  "[N][=Ring1][Branch1]": 1253,
  "[N][=Ring1][Branch1][C]": 2262,
  "[N][=Ring1][Branch2]": 1293,
  "[N][=Ring1][N]": 2717,
  "[N][=Ring1][O]": 2489,
  "[N][=Ring1][P]": 2127,
  "[N][=Ring1][S]": 2245,
  "[N][=Ring2]": 619,
  "[N][=Ring2][Ring1][#Branch1]": 1596,
  "[N][=Ring2][Ring1][#Branch2]": 2276,
  "[N][=Ring2][Ring1][=Branch1]": 1984,
  "[N][=Ring2][Ring1][=Branch2]": 2063,
  "[N][=Ring2][Ring1][=C]": 2386,
  "[N][=Ring2][Ring1][=N]": 2282,
  "[N][=Ring2][Ring1][Branch1]": 1969,
  "[N][=Ring2][Ring1][Branch2]": 1743,
  "[N][=Ring2][Ring1][C]": 1895,
  "[N][=Ring2][Ring1][N]": 2190,
  "[N][=Ring2][Ring1][O]": 2424,
  "[N][=Ring2][Ring1][Ring1]": 1718,
  "[N][=Ring2][Ring1][Ring2]": 1703,
  "[N][Branch1]": 366,
  "[N][Branch1][#Branch1]": 708,
  "[N][Branch1][#Branch2]": 711,
  "[N][Branch1][#Branch2][C]": 623,
  "[N][Branch1][#C]": 747,
  "[N][Branch1][#C][C]": 2723,
  "[N][Branch1][=Branch1]": 1139,
  "[N][Branch1][=Branch1][C]": 866,
  "[N][Branch1][=Branch2]": 467,
  "[N][Branch1][=Branch2][C]": 1219,
  "[N][Branch1][=C]": 705,
  "[N][Branch1][=C][C]": 1376,
  "[N][Branch1][=N]": 635,
  "[N][Branch1][=N][C]": 822,
  "[N][Branch1][Branch1][C]": 1891,
  "[N][Branch1][Branch2]": 851,
  "[N][Branch1][C][C]": 428,
  "[N][Branch1][C][O]": 2791,
  "[N][Branch1][N]": 605,
  "[N][Branch1][N][C]": 1760,
  "[N][Branch1][O]": 1292,
  "[N][Branch1][O][C]": 1226,
  "[N][Branch1][P]": 763,
  "[N][Branch1][P][C]": 1320,
  "[N][Branch1][Ring1]": 1012,
  "[N][Branch1][Ring2]": 811,
  "[N][Branch1][S]": 826,
  "[N][Branch1][S][C]": 1352,
  "[N][Branch2][Ring1]": 392,
  "[N][Branch2][Ring1][#Branch1]": 804,
  "[N][Branch2][Ring1][#Branch2]": 942,
  "[N][Branch2][Ring1][#C]": 1021,
  "[N][Branch2][Ring1][=Branch1]": 1073,
  "[N][Branch2][Ring1][=Branch2]": 880,
  "[N][Branch2][Ring1][=C]": 1207,
  "[N][Branch2][Ring1][=N]": 1156,
  "[N][Branch2][Ring1][Branch1]": 1407,
  "[N][Branch2][Ring1][Branch2]": 856,
  "[N][Branch2][Ring1][C]": 1398,
  "[N][Branch2][Ring1][N]": 1619,
  "[N][Branch2][Ring1][O]": 1235,
  "[N][Branch2][Ring1][P]": 1076,
  "[N][Branch2][Ring1][Ring1]": 652,
  "[N][Branch2][Ring1][Ring2]": 697,
  "[N][Branch2][Ring1][S]": 1274,
  "[N][Branch2][Ring2]": 1579,
  "[N][Branch2][Ring2][#Branch1]": 2183,
  "[N][Branch2][Ring2][#Branch2]": 2361,
  "[N][Branch2][Ring2][=Branch1]": 2743,
  "[N][Branch2][Ring2][=Branch2]": 2346,
  "[N][Branch2][Ring2][=N]": 2709,
  "[N][Branch2][Ring2][Branch2]": 2443,
  "[N][Branch2][Ring2][Ring1]": 2054,
  "[N][Branch2][Ring2][Ring2]": 1890,
  "[N][C@@H1]": 478,
  "[N][C@@H1][Branch1][#Branch2]": 1824,
  "[N][C@@H1][Branch1][#C]": 1811,
  "[N][C@@H1][Branch1][=Branch1]": 2544,
  "[N][C@@H1][Branch1][=Branch2]": 2070,
  "[N][C@@H1][C][C@H1]": 1780,
  "[N][C@@H1][C][C]": 2017,
  "[N][C@@H1][C][N]": 2677,
  "[N][C@@]": 2092,
  "[N][C@H1]": 505,
  "[N][C@H1][Branch1][#C]": 2683,
  "[N][C@H1][C][C@H1]": 2502,
  "[N][C@H1][C][C]": 1793,
  "[N][C@]": 2188,
  "[N][C]": 365,
  "[N][C][#N]": 2460,
  "[N][C][=Branch1]": 1050,
  "[N][C][=Branch2]": 1835,
  "[N][C][=C]": 629,
  "[N][C][=C][Branch1]": 1639,
  "[N][C][=C][C]": 587,
  "[N][C][=C][S]": 2487,
  "[N][C][=N]": 390,
  "[N][C][=N][C]": 1794,
  "[N][C][=N][NH1]": 1524,
  "[N][C][=N][O]": 2366,
  "[N][C][=Ring1]": 1175,
  "[N][C][=Ring1][S]": 2516,
  "[N][C][Branch1][#Branch1]": 2216,
  "[N][C][Branch1][#Branch2]": 2364,
  "[N][C][Branch1][#C]": 2650,
  "[N][C][Branch1][=Branch2]": 1254,
  "[N][C][Branch1][=C]": 2711,
  "[N][C][Branch1][Branch2]": 1872,
  "[N][C][Branch1][C]": 1064,
  "[N][C][Branch1][N]": 2129,
  "[N][C][Branch1][Ring1]": 1888,
  "[N][C][Branch2][Ring1]": 1990,
  "[N][C][C@@H1]": 633,
  "[N][C][C@H1]": 588,
  "[N][C][C@]": 2105,
  "[N][C][C]": 344,
  "[N][C][C][=C]": 729,
  "[N][C][C][=N]": 918,
  "[N][C][C][C@@H1]": 891,
  "[N][C][C][C@@]": 1972,
  "[N][C][C][C@H1]": 908,
  "[N][C][C][C@]": 1332,
  "[N][C][C][C]": 768,
  "[N][C][C][N]": 564,
  "[N][C][C][O]": 836,
  "[N][C][C][S]": 1470,
  "[N][C][N]": 1581,
  "[N][C][N][=C]": 1228,
  "[N][C][O]": 2258,
  "[N][C][Ring1][=Branch1]": 1364,
  "[N][C][S]": 1069,
  "[N][Cl]": 1851,
  "[N][F]": 2425,
  "[N][N]": 543,
  "[N][N][=C]": 491,
  "[N][N][=N]": 1395,
  "[N][N][C]": 1777,
  "[N][N][C][=N]": 2046,
  "[N][N][C][C]": 1248,
  "[N][O]": 701,
  "[N][O][=C]": 2550,
  "[N][O][C]": 1199,
  "[N][O][C][C]": 1474,
  "[N][Ring1]": 368,
  "[N][Ring1][#Branch1]": 669,
  "[N][Ring1][#Branch1][C]": 1580,
  "[N][Ring1][#Branch2]": 694,
  "[N][Ring1][#Branch2][C]": 1500,
  "[N][Ring1][#C]": 686,
  "[N][Ring1][#C][C]": 1496,
  "[N][Ring1][=Branch1]": 773,
  "[N][Ring1][=Branch1][C]": 715,
  "[N][Ring1][=Branch2]": 599,
  "[N][Ring1][=Branch2][C]": 1098,
  "[N][Ring1][=C]": 738,
  "[N][Ring1][=C][C]": 1547,
  "[N][Ring1][=N]": 733,
  "[N][Ring1][=N][C]": 1584,
  "[N][Ring1][Branch1]": 597,
  "[N][Ring1][Branch1][C]": 609,
  "[N][Ring1][Branch2]": 710,
  "[N][Ring1][Branch2][C]": 1508,
  "[N][Ring1][N]": 999,
  "[N][Ring1][N][C]": 1595,
  "[N][Ring1][O]": 832,
  "[N][Ring1][O][C]": 1368,
  "[N][Ring1][P]": 720,
  "[N][Ring1][P][C]": 1620,
  "[N][Ring1][S]": 782,
  "[N][Ring1][S][C]": 1671,
  "[N][Ring2][Ring1]": 434,
  "[N][Ring2][Ring1][#Branch1]": 1048,
  "[N][Ring2][Ring1][#Branch2]": 1313,
  "[N][Ring2][Ring1][#C]": 1427,
  "[N][Ring2][Ring1][=Branch1]": 1158,
  "[N][Ring2][Ring1][=Branch2]": 1065,
  "[N][Ring2][Ring1][=C]": 1998,
  "[N][Ring2][Ring1][=N]": 1854,
  "[N][Ring2][Ring1][Branch1]": 1339,
  "[N][Ring2][Ring1][Branch2]": 1089,
  "[N][Ring2][Ring1][C]": 1549,
  "[N][Ring2][Ring1][N]": 2194,
  "[N][Ring2][Ring1][O]": 1904,
  "[N][Ring2][Ring1][P]": 1792,
  "[N][Ring2][Ring1][Ring1]": 950,
  "[N][Ring2][Ring1][Ring2]": 887,
  "[N][Ring2][Ring1][S]": 2197,
  "[Na+1]": 40,
  "[Na+1][Na+1]": 1425,
  "[NaH1]": 221,
  "[Na]": 268,
  "[O+1]": 136,
  "[O-1]": 31,
  "[O-2]": 270,
  "[OH0]": 96,
  "[OH1+1]": 220,
  "[OH1-1]": 154,
  "[OH1]": 212,
  "[OH3+1]": 274,
  "[O]": 6,
  "[O][/N][=C]": 2212,
  "[O][=C]": 362,
  "[O][=C][Branch1]": 2388,
  "[O][=C][Branch1][#Branch1]": 1855,
  "[O][=C][Branch1][#Branch2]": 957,
  "[O][=C][Branch1][#C]": 1004,
  "[O][=C][Branch1][=Branch1]": 2682,
  "[O][=C][Branch1][=Branch2]": 933,
  "[O][=C][Branch1][=C]": 916,
  "[O][=C][Branch1][=N]": 1271,
  "[O][=C][Branch1][Branch2]": 1237,
  "[O][=C][Branch1][N]": 952,
  "[O][=C][Branch1][O]": 839,
  "[O][=C][Branch1][P]": 1026,
  "[O][=C][Branch1][Ring1]": 1268,
  "[O][=C][Branch1][S]": 1059,
  "[O][=C][Branch2][Ring1]": 444,
  "[O][=C][Branch2][Ring2]": 1431,
  "[O][=C][C]": 2344,
  "[O][=C][C][=C]": 1363,
  "[O][=C][C][=N]": 2398,
  "[O][=C][C][C]": 1049,
  "[O][=C][C][N]": 2240,
  "[O][=C][C][O]": 2065,
  "[O][=C][C][S]": 1977,
  "[O][=C][NH1]": 985,
  "[O][=C][N]": 883,
  "[O][=C][N][=C]": 1759,
  "[O][=C][N][C]": 1740,
  "[O][=C][O]": 1348,
  "[O][=C][O][C]": 2338,
  "[O][=C][S]": 1803,
  "[O][=N]": 1418,
  "[O][=P]": 1633,
  "[O][C@@H1]": 460,
  "[O][C@@H1][Branch1][=Branch2]": 2781,
  "[O][C@@H1][Branch1][=N]": 1966,
  "[O][C@@H1][Branch1][P]": 1827,
  "[O][C@@H1][Branch1][S]": 2589,
  "[O][C@@H1][C@@H1]": 2080,
  "[O][C@@H1][C@H1]": 2234,
  "[O][C@@H1][C][C@H1]": 2374,
  "[O][C@@H1][C][C]": 2201,
  "[O][C@@H1][O]": 1602,
  "[O][C@@H1][O][C@@H1]": 1800,
  "[O][C@@H1][O][C@H1]": 1084,
  "[O][C@@H1][Ring1][#Branch1]": 2519,
  "[O][C@@]": 1197,
  "[O][C@@][Ring1][Ring1]": 2754,
  "[O][C@H1]": 452,
  "[O][C@H1][Branch1][=Branch2]": 2792,
  "[O][C@H1][C@@H1]": 2302,
  "[O][C@H1][C@H1]": 1583,
  "[O][C@H1][C]": 2391,
  "[O][C@H1][C][C@@H1]": 2210,
  "[O][C@H1][C][C@H1]": 1637,
  "[O][C@H1][C][C]": 1788,
  "[O][C@H1][O][C@H1]": 1868,
  "[O][C@H1][Ring1][#Branch1]": 2674,
  "[O][C@H1][Ring1][Branch2]": 2484,
  "[O][C@]": 1091,
  "[O][C@][Ring1][Ring1]": 2002,
  "[O][C]": 354,
  "[O][C][#C]": 1909,
  "[O][C][#N]": 2725,
  "[O][C][=C]": 775,
  "[O][C][=C][C]": 690,
  "[O][C][=C][Ring1]": 2529,
  "[O][C][=N]": 667,
  "[O][C][=N][O]": 2774,
  "[O][C][=Ring1]": 627,
  "[O][C][=Ring1][#C]": 2634,
  "[O][C][=Ring1][=Branch1]": 1686,
  "[O][C][=Ring1][Branch1]": 1302,
  "[O][C][Branch1]": 2585,
  "[O][C][Branch1][#Branch2]": 2572,
  "[O][C][Branch1][=Branch2]": 1040,
  "[O][C][Branch1][=N]": 2701,
  "[O][C][Branch1][Branch2]": 2457,
  "[O][C][Branch1][C]": 927,
  "[O][C][Branch1][N]": 1900,
  "[O][C][Branch1][Ring1]": 2661,
  "[O][C][Branch2][Ring1]": 2253,
  "[O][C][C@@H1]": 648,
  "[O][C][C@@]": 1669,
  "[O][C][C@H1]": 590,
  "[O][C][C@]": 1694,
  "[O][C][C]": 364,
  "[O][C][C][#C]": 2450,
  "[O][C][C][=C]": 833,
  "[O][C][C][=N]": 1195,
  "[O][C][C][C@@H1]": 1663,
  "[O][C][C][C@H1]": 1847,
  "[O][C][C][C@]": 1262,
  "[O][C][C][C]": 1336,
  "[O][C][C][N]": 882,
  "[O][C][C][O]": 603,
  "[O][C][C][S]": 2427,
  "[O][C][N]": 1160,
  "[O][C][N][=C]": 2377,
  "[O][C][O]": 511,
  "[O][C][Ring1][#Branch1]": 1187,
  "[O][C][Ring1][#Branch2]": 1837,
  "[O][C][Ring1][#C]": 1173,
  "[O][C][Ring1][=Branch1]": 1480,
  "[O][C][Ring1][=Branch2]": 1415,
  "[O][C][Ring1][=C]": 1844,
  "[O][C][Ring1][=N]": 1510,
  "[O][C][Ring1][Branch1]": 2499,
  "[O][C][Ring1][Branch2]": 1379,
  "[O][C][Ring1][N]": 2229,
  "[O][C][Ring1][O]": 1727,
  "[O][C][Ring1][P]": 2079,
  "[O][C][Ring1][Ring2]": 1445,
  "[O][C][Ring1][S]": 1911,
  "[O][C][Ring2][Ring1]": 2166,
  "[O][C][S]": 2320,
  "[O][Cl]": 1684,
  "[O][F]": 2322,
  "[O][N]": 749,
  "[O][N][=C]": 1604,
  "[O][N][=Ring1]": 966,
  "[O][N][=Ring1][Branch1]": 1813,
  "[O][N][C]": 2142,
  "[O][N][C][C]": 1567,
  "[O][O]": 790,
  "[O][O][=C]": 2727,
  "[O][O][C]": 1079,
  "[O][O][C][C]": 1491,
  "[O][O][Ring1][#C]": 2120,
  "[O][O][Ring1][=N]": 2013,
  "[O][Ring1][#Branch1]": 1294,
  "[O][Ring1][#Branch2]": 967,
  "[O][Ring1][#C]": 1152,
  "[O][Ring1][=Branch1]": 1093,
  "[O][Ring1][=Branch1][C]": 2761,
  "[O][Ring1][=Branch2]": 1063,
  "[O][Ring1][=C]": 1055,
  "[O][Ring1][=N]": 1115,
  "[O][Ring1][Branch1]": 542,
  "[O][Ring1][Branch1][=C]": 1691,
  "[O][Ring1][Branch1][=N]": 1655,
  "[O][Ring1][Branch1][C]": 894,
  "[O][Ring1][Branch1][N]": 2490,
  "[O][Ring1][Branch2]": 907,
  "[O][Ring1][N]": 1036,
  "[O][Ring1][O]": 1131,
  "[O][Ring1][P]": 1165,
  "[O][Ring1][S]": 1266,
  "[O][Ring2][Ring1]": 2412,
  "[O][Ring2][Ring1][#Branch1]": 1574,
  "[O][Ring2][Ring1][#Branch2]": 2099,
  "[O][Ring2][Ring1][#C]": 2626,
  "[O][Ring2][Ring1][=Branch1]": 1606,
  "[O][Ring2][Ring1][=Branch2]": 1993,
  "[O][Ring2][Ring1][=C]": 2004,
  "[O][Ring2][Ring1][=N]": 2436,
  "[O][Ring2][Ring1][Branch1]": 1628,
  "[O][Ring2][Ring1][Branch2]": 1522,
  "[O][Ring2][Ring1][C]": 1589,
  "[O][Ring2][Ring1][N]": 2481,
  "[O][Ring2][Ring1][O]": 2594,
  "[O][Ring2][Ring1][Ring1]": 1356,
  "[O][Ring2][Ring1][Ring2]": 1360,
  "[P+1]": 112,
  "[P+1][Branch1][=Branch2]": 2076,
  "[P-1]": 135,
  "[P@+1]": 163,
  "[P@@+1]": 237,
  "[P@@]": 78,
  "[P@]": 72,
  "[PH1]": 127,
  "[PH2+1]": 305,
  "[P]": 25,
  "[P][=Branch1][C][=O]": 554,
  "[P][=Branch1][C][=S]": 2408,
  "[P][Branch1][C][C]": 2329,
  "[P][C]": 1585,
  "[P][C][=N]": 2238,
  "[P][C][C]": 2064,
  "[P][C][O]": 2745,
  "[P][N]": 1200,
  "[P][N][C][C]": 2334,
  "[P][O]": 2277,
  "[P][O][C]": 1821,
  "[Ra]": 187,
  "[Rb+1]": 207,
  "[Rb]": 321,
  "[Ring1]": 9,
  "[Ring1][#Branch1]": 382,
  "[Ring1][#Branch1][=C]": 1008,
  "[Ring1][#Branch1][=N]": 1466,
  "[Ring1][#Branch1][=O]": 1877,
  "[Ring1][#Branch1][C]": 1234,
  "[Ring1][#Branch1][C][=N]": 1513,
  "[Ring1][#Branch1][C][C]": 2014,
  "[Ring1][#Branch1][C][N]": 2543,
  "[Ring1][#Branch1][Cl]": 828,
  "[Ring1][#Branch1][F]": 896,
  "[Ring1][#Branch1][N]": 1419,
  "[Ring1][#Branch1][O]": 1745,
  "[Ring1][#Branch1][O][C]": 2582,
  "[Ring1][#Branch2]": 388,
  "[Ring1][#Branch2][=C]": 1304,
  "[Ring1][#Branch2][=N]": 2078,
  "[Ring1][#Branch2][=O]": 1193,
  "[Ring1][#Branch2][C@@H1]": 2606,
  "[Ring1][#Branch2][C@H1]": 1430,
  "[Ring1][#Branch2][C]": 2051,
  "[Ring1][#Branch2][N]": 2097,
  "[Ring1][#Branch2][O]": 946,
  "[Ring1][#Branch2][O][=C]": 1846,
  "[Ring1][#Branch2][O][C@@H1]": 1995,
  "[Ring1][#Branch2][O][C@H1]": 2032,
  "[Ring1][#Branch2][O][C]": 1992,
  "[Ring1][#Branch2][Ring1][=Branch1]": 1389,
  "[Ring1][#C]": 430,
  "[Ring1][#C][=C]": 2326,
  "[Ring1][#C][=O]": 2554,
  "[Ring1][#C][O]": 2507,
  "[Ring1][=Branch1]": 351,
  "[Ring1][=Branch1][=C]": 512,
  "[Ring1][=Branch1][=C][Ring1]": 2072,
  "[Ring1][=Branch1][=N]": 581,
  "[Ring1][=Branch1][=O]": 865,
  "[Ring1][=Branch1][=O][C]": 2403,
  "[Ring1][=Branch1][C@@H1]": 1042,
  "[Ring1][=Branch1][C@@]": 2215,
  "[Ring1][=Branch1][C@H1]": 1155,
  "[Ring1][=Branch1][C]": 409,
  "[Ring1][=Branch1][C][#N]": 2752,
  "[Ring1][=Branch1][C][=C]": 1438,
  "[Ring1][=Branch1][C][=N]": 923,
  "[Ring1][=Branch1][C][=Ring1]": 2571,
  "[Ring1][=Branch1][C][C@@H1]": 1711,
  "[Ring1][=Branch1][C][C@H1]": 2563,
  "[Ring1][=Branch1][C][C]": 853,
  "[Ring1][=Branch1][C][N]": 1958,
  "[Ring1][=Branch1][C][O]": 1978,
  "[Ring1][=Branch1][Cl]": 1230,
  "[Ring1][=Branch1][F]": 1561,
  "[Ring1][=Branch1][N+1]": 1985,
  "[Ring1][=Branch1][NH1]": 1603,
  "[Ring1][=Branch1][N]": 745,
  "[Ring1][=Branch1][N][=C]": 1626,
  "[Ring1][=Branch1][N][C]": 1922,
  "[Ring1][=Branch1][O]": 696,
  "[Ring1][=Branch1][O][=C]": 2569,
  "[Ring1][=Branch1][O][C]": 1090,
  "[Ring1][=Branch1][Ring1][#Branch2]": 1534,
  "[Ring1][=Branch1][Ring1][=Branch2]": 1625,
  "[Ring1][=Branch1][S]": 1417,
  "[Ring1][=Branch2]": 396,
  "[Ring1][=Branch2][=C]": 1252,
  "[Ring1][=Branch2][=N]": 1944,
  "[Ring1][=Branch2][=O]": 1805,
  "[Ring1][=Branch2][C]": 1881,
  "[Ring1][=Branch2][N]": 2406,
  "[Ring1][=Branch2][O]": 1713,
  "[Ring1][=Branch2][Ring1][=Branch1]": 2250,
  "[Ring1][=C]": 420,
  "[Ring1][=C][=C]": 1941,
  "[Ring1][=C][=O]": 1251,
  "[Ring1][=C][C]": 1674,
  "[Ring1][=C][C][=N]": 2590,
  "[Ring1][=C][N]": 2503,
  "[Ring1][=C][O]": 1650,
  "[Ring1][=C][Ring1][=Branch2]": 2539,
  "[Ring1][=C][Ring1][Branch2]": 2756,
  "[Ring1][=C][Ring1][P]": 2407,
  "[Ring1][=C][Ring2][Ring1]": 2486,
  "[Ring1][=N]": 407,
  "[Ring1][=N][=C]": 1773,
  "[Ring1][=N][=N]": 2659,
  "[Ring1][=N][=O]": 2044,
  "[Ring1][=N][C]": 2040,
  "[Ring1][=N][N]": 2607,
  "[Ring1][=N][O]": 2191,
  "[Ring1][=N][Ring1][=Branch2]": 2071,
  "[Ring1][=N][Ring1][Branch2]": 2281,
  "[Ring1][=N][Ring1][S]": 2623,
  "[Ring1][Branch1]": 383,
  "[Ring1][Branch1][=C]": 990,
  "[Ring1][Branch1][=N]": 1392,
  "[Ring1][Branch1][=O]": 1615,
  "[Ring1][Branch1][C]": 447,
  "[Ring1][Branch1][C][#N]": 2171,
  "[Ring1][Branch1][C][=N]": 1397,
  "[Ring1][Branch1][C][=Ring2]": 2438,
  "[Ring1][Branch1][C][C@@H1]": 1934,
  "[Ring1][Branch1][C][C@H1]": 2284,
  "[Ring1][Branch1][C][C]": 621,
  "[Ring1][Branch1][C][N]": 1754,
  "[Ring1][Branch1][N]": 1377,
  "[Ring1][Branch1][N][=C]": 1956,
  "[Ring1][Branch1][O]": 1632,
  "[Ring1][Branch1][O][C]": 2655,
  "[Ring1][Branch1][S]": 2759,
  "[Ring1][Branch2]": 424,
  "[Ring1][Branch2][=C]": 1862,
  "[Ring1][Branch2][=N]": 1991,
  "[Ring1][Branch2][C]": 2605,
  "[Ring1][Branch2][O]": 1027,
  "[Ring1][Branch2][O][C]": 1570,
  "[Ring1][C]": 857,
  "[Ring1][C][#N]": 1949,
  "[Ring1][C][#N][=C]": 997,
  "[Ring1][C][=C]": 1590,
  "[Ring1][C][=C][C]": 2413,
  "[Ring1][C][=N]": 1215,
  "[Ring1][C][C]": 719,
  "[Ring1][C][C][C]": 1923,
  "[Ring1][C][N]": 2073,
  "[Ring1][C][O]": 2067,
  "[Ring1][C][O][=C]": 1965,
  "[Ring1][Cl]": 1828,
  "[Ring1][F]": 1736,
  "[Ring1][N]": 413,
  "[Ring1][N][=C]": 904,
  "[Ring1][N][=N]": 2549,
  "[Ring1][N][=O]": 1117,
  "[Ring1][N][C@@H1]": 1810,
  "[Ring1][N][C]": 910,
  "[Ring1][N][C][=N]": 1540,
  "[Ring1][N][C][C]": 784,
  "[Ring1][N][N]": 2163,
  "[Ring1][N][O]": 1660,
  "[Ring1][N][Ring1][#C]": 2574,
  "[Ring1][N][Ring1][Branch2]": 2631,
  "[Ring1][O]": 386,
  "[Ring1][O][=C]": 843,
  "[Ring1][O][=N]": 2500,
  "[Ring1][O][=O]": 978,
  "[Ring1][O][C@H1]": 2069,
  "[Ring1][O][C]": 827,
  "[Ring1][O][C][=C]": 1214,
  "[Ring1][O][C][=N]": 2019,
  "[Ring1][O][C][C@@H1]": 2708,
  "[Ring1][O][C][C]": 824,
  "[Ring1][O][C][O]": 1381,
  "[Ring1][O][N]": 2112,
  "[Ring1][O][O]": 2152,
  "[Ring1][O][Ring1][#Branch1]": 1509,
  "[Ring1][O][Ring1][=Branch1]": 2029,
  "[Ring1][O][Ring1][Branch2]": 2779,
  "[Ring1][P]": 448,
  "[Ring1][P][=C]": 2511,
  "[Ring1][P][=O]": 1402,
  "[Ring1][P][C]": 2354,
  "[Ring1][P][O]": 2261,
  "[Ring1][Ring1]": 500,
  "[Ring1][Ring1][#C]": 1841,
  "[Ring1][Ring1][=Branch1]": 1799,
  "[Ring1][Ring1][=C]": 1401,
  "[Ring1][Ring1][=N]": 1481,
  "[Ring1][Ring1][C@@H1]": 2113,
  "[Ring1][Ring1][C@H1]": 2362,
  "[Ring1][Ring1][C][C@H1]": 2330,
  "[Ring1][Ring1][F]": 2199,
  "[Ring1][Ring1][N]": 1719,
  "[Ring1][Ring1][S]": 2694,
  "[Ring1][Ring2]": 557,
  "[Ring1][Ring2][=C]": 2360,
  "[Ring1][Ring2][Ring1][=Branch1]": 2263,
  "[Ring1][S]": 429,
  "[Ring1][S][=C]": 2180,
  "[Ring1][S][=O]": 1414,
  "[Ring1][S][C]": 1539,
  "[Ring1][S][C][C]": 1852,
  "[Ring1][S][O]": 1310,
  "[Ring2]": 12,
  "[Ring2][=Branch1]": 2039,
  "[Ring2][=C]": 2299,
  "[Ring2][=C][Ring1][=Branch1]": 1370,
  "[Ring2][=C][Ring1][Branch2]": 2613,
  "[Ring2][=N]": 859,
  "[Ring2][=N][Ring1][=Branch1]": 1554,
  "[Ring2][=N][Ring1][Branch1]": 1908,
  "[Ring2][Branch1]": 1917,
  "[Ring2][Branch1][#Branch1]": 1887,
  "[Ring2][Branch1][#Branch2]": 2306,
  "[Ring2][Branch1][#C]": 2704,
  "[Ring2][Branch1][=Branch1]": 1928,
  "[Ring2][Branch1][=Branch2]": 1970,
  "[Ring2][Branch1][=C]": 2520,
  "[Ring2][Branch1][=N]": 2375,
  "[Ring2][Branch1][Branch1]": 2147,
  "[Ring2][Branch1][Branch2]": 2050,
  "[Ring2][Branch1][C]": 1635,
  "[Ring2][Branch1][N]": 2555,
  "[Ring2][Branch1][O]": 2464,
  "[Ring2][Branch1][Ring1]": 1536,
  "[Ring2][Branch1][Ring2]": 1616,
  "[Ring2][C]": 1335,
  "[Ring2][C][=N]": 2442,
  "[Ring2][C][C]": 1771,
  "[Ring2][C][N]": 2202,
  "[Ring2][C][O]": 2392,
  "[Ring2][Cl]": 1918,
  "[Ring2][F]": 1919,
  "[Ring2][N]": 1011,
  "[Ring2][N][C]": 2428,
  "[Ring2][N][C][C]": 1785,
  "[Ring2][O]": 1324,
  "[Ring2][O][C]": 1210,
  "[Ring2][O][C][C]": 2303,
  "[Ring2][Ring1]": 340,
  "[Ring2][Ring1][#Branch1]": 502,
  "[Ring2][Ring1][#Branch1][=O]": 1530,
  "[Ring2][Ring1][#Branch1][C]": 2159,
  "[Ring2][Ring1][#Branch1][O]": 2138,
  "[Ring2][Ring1][#Branch2]": 553,
  "[Ring2][Ring1][#Branch2][=O]": 1537,
  "[Ring2][Ring1][#Branch2][C]": 2409,
  "[Ring2][Ring1][#Branch2][O]": 2151,
  "[Ring2][Ring1][#C]": 616,
  "[Ring2][Ring1][#C][=O]": 1963,
  "[Ring2][Ring1][#C][C]": 2272,
  "[Ring2][Ring1][#C][O]": 2351,
  "[Ring2][Ring1][=Branch1]": 508,
  "[Ring2][Ring1][=Branch1][=O]": 1467,
  "[Ring2][Ring1][=Branch1][C]": 1024,
  "[Ring2][Ring1][=Branch1][O]": 1878,
  "[Ring2][Ring1][=Branch2]": 541,
  "[Ring2][Ring1][=Branch2][=O]": 1511,
  "[Ring2][Ring1][=Branch2][C]": 2742,
  "[Ring2][Ring1][=Branch2][O]": 2057,
  "[Ring2][Ring1][=C]": 613,
  "[Ring2][Ring1][=C][=O]": 1981,
  "[Ring2][Ring1][=C][C]": 2461,
  "[Ring2][Ring1][=C][O]": 2179,
  "[Ring2][Ring1][=N]": 626,
  "[Ring2][Ring1][=N][=O]": 1871,
  "[Ring2][Ring1][=N][C]": 2642,
  "[Ring2][Ring1][=N][O]": 2357,
  "[Ring2][Ring1][Branch1]": 528,
  "[Ring2][Ring1][Branch1][=C]": 2189,
  "[Ring2][Ring1][Branch1][=O]": 1410,
  "[Ring2][Ring1][Branch1][C]": 1006,
  "[Ring2][Ring1][Branch1][O]": 1614,
  "[Ring2][Ring1][Branch2]": 537,
  "[Ring2][Ring1][Branch2][=O]": 1538,
  "[Ring2][Ring1][Branch2][C]": 2447,
  "[Ring2][Ring1][Branch2][O]": 1896,
  "[Ring2][Ring1][C]": 561,
  "[Ring2][Ring1][C][=N]": 1709,
  "[Ring2][Ring1][C][=O]": 1196,
  "[Ring2][Ring1][C][C@H1]": 2710,
  "[Ring2][Ring1][C][C]": 992,
  "[Ring2][Ring1][C][N]": 2207,
  "[Ring2][Ring1][C][O]": 1624,
  "[Ring2][Ring1][N]": 640,
  "[Ring2][Ring1][N][=O]": 1858,
  "[Ring2][Ring1][N][C]": 1744,
  "[Ring2][Ring1][N][O]": 2154,
  "[Ring2][Ring1][O]": 607,
  "[Ring2][Ring1][O][=C]": 1921,
  "[Ring2][Ring1][O][=O]": 1664,
  "[Ring2][Ring1][O][C]": 1600,
  "[Ring2][Ring1][O][O]": 2087,
  "[Ring2][Ring1][P]": 637,
  "[Ring2][Ring1][P][=O]": 2221,
  "[Ring2][Ring1][P][C]": 1757,
  "[Ring2][Ring1][P][O]": 2491,
  "[Ring2][Ring1][Ring1]": 472,
  "[Ring2][Ring1][Ring1][=C]": 1829,
  "[Ring2][Ring1][Ring1][=O]": 1319,
  "[Ring2][Ring1][Ring1][C]": 1706,
  "[Ring2][Ring1][Ring1][O]": 1685,
  "[Ring2][Ring1][Ring2]": 476,
  "[Ring2][Ring1][Ring2][=C]": 2673,
  "[Ring2][Ring1][Ring2][=O]": 1371,
  "[Ring2][Ring1][Ring2][C]": 1730,
  "[Ring2][Ring1][Ring2][O]": 1752,
  "[Ring2][Ring1][S]": 660,
  "[Ring2][Ring1][S][=O]": 2125,
  "[Ring2][Ring1][S][C]": 2468,
  "[Ring2][Ring1][S][O]": 2390,
  "[Ring2][Ring2]": 373,
  "[Ring2][Ring2][#Branch1]": 774,
  "[Ring2][Ring2][#Branch2]": 958,
  "[Ring2][Ring2][#C]": 1245,
  "[Ring2][Ring2][=Branch1]": 754,
  "[Ring2][Ring2][=Branch1][C]": 2023,
  "[Ring2][Ring2][=Branch2]": 868,
  "[Ring2][Ring2][=Branch2][=O]": 2667,
  "[Ring2][Ring2][=C]": 1225,
  "[Ring2][Ring2][=N]": 1177,
  "[Ring2][Ring2][Branch1]": 760,
  "[Ring2][Ring2][Branch1][=O]": 2193,
  "[Ring2][Ring2][Branch1][C]": 1906,
  "[Ring2][Ring2][Branch2]": 837,
  "[Ring2][Ring2][C]": 628,
  "[Ring2][Ring2][C][=O]": 1746,
  "[Ring2][Ring2][C][C]": 1758,
  "[Ring2][Ring2][C][O]": 2505,
  "[Ring2][Ring2][N]": 1185,
  "[Ring2][Ring2][N][=O]": 2611,
  "[Ring2][Ring2][O]": 1110,
  "[Ring2][Ring2][O][=O]": 2744,
  "[Ring2][Ring2][P]": 1406,
  "[Ring2][Ring2][Ring1]": 518,
  "[Ring2][Ring2][Ring1][#Branch1]": 2638,
  "[Ring2][Ring2][Ring1][=O]": 2266,
  "[Ring2][Ring2][Ring1][C]": 2160,
  "[Ring2][Ring2][Ring1][O]": 2108,
  "[Ring2][Ring2][Ring2]": 618,
  "[Ring2][Ring2][Ring2][=O]": 2290,
  "[Ring2][Ring2][Ring2][C]": 2542,
  "[Ring2][Ring2][Ring2][O]": 2780,
  "[Ring2][Ring2][S]": 1367,
  "[S+1]": 44,
  "[S+1][Branch1][C][C]": 2177,
  "[S+1][Branch1][C][O-1]": 1172,
  "[S-1]": 60,
  "[S-2]": 172,
  "[S@+1]": 56,
  "[S@@+1]": 95,
  "[S@@]": 51,
  "[S@@][=Branch1][C][=O]": 2446,
  "[S@]": 184,
  "[SH0]": 170,
  "[SH1+1]": 263,
  "[SH1-1]": 205,
  "[SH1]": 264,
  "[SH2]": 299,
  "[S]": 17,
  "[S][/C]": 1662,
  "[S][=Branch1][C][=O]": 369,
  "[S][=C]": 1188,
  "[S][=N]": 1512,
  "[S][Branch1][C][C]": 563,
  "[S][Branch1][C][N]": 750,
  "[S][C]": 540,
  "[S][C][=C]": 1382,
  "[S][C][=C][C]": 1285,
  "[S][C][=N]": 684,
  "[S][C][=Ring1]": 657,
  "[S][C][=Ring1][=Branch1]": 2228,
  "[S][C][=Ring1][=N]": 2523,
  "[S][C][=Ring1][Branch1]": 1217,
  "[S][C][=Ring2]": 1334,
  "[S][C][Branch1][=Branch2]": 2030,
  "[S][C][Branch1][C]": 2220,
  "[S][C][C@H1]": 2185,
  "[S][C][C]": 549,
  "[S][C][C][=C]": 2048,
  "[S][C][C][=N]": 1907,
  "[S][C][C][C]": 2077,
  "[S][C][C][N]": 2288,
  "[S][C][N]": 2267,
  "[S][C][N][=C]": 2758,
  "[S][C][Ring1]": 2604,
  "[S][C][Ring1][#Branch1]": 2431,
  "[S][C][Ring1][#C]": 2698,
  "[S][C][Ring1][=C]": 2695,
  "[S][C][Ring2][Ring1]": 2690,
  "[S][Cl]": 2372,
  "[S][N]": 1163,
  "[S][N][C][C]": 2056,
  "[S][O]": 2275,
  "[S][O][C]": 1768,
  "[S][O][C][C]": 2783,
  "[S][Ring1]": 2034,
  "[S][Ring1][#Branch1]": 2588,
  "[S][Ring1][#Branch2]": 1045,
  "[S][Ring1][#C]": 1168,
  "[S][Ring1][=Branch1]": 959,
  "[S][Ring1][=Branch2]": 772,
  "[S][Ring1][=C]": 1067,
  "[S][Ring1][=N]": 1078,
  "[S][Ring1][Branch1]": 556,
  "[S][Ring1][Branch1][=C]": 1516,
  "[S][Ring1][Branch1][=N]": 1765,
  "[S][Ring1][Branch1][C]": 977,
  "[S][Ring1][Branch1][N]": 2757,
  "[S][Ring1][Branch2]": 1277,
  "[S][Ring1][N]": 1287,
  "[S][Ring1][O]": 1247,
  "[S][Ring1][P]": 1233,
  "[S][Ring1][S]": 1224,
  "[S][Ring2][Ring1]": 2052,
  "[S][Ring2][Ring1][#Branch1]": 1681,
  "[S][Ring2][Ring1][#Branch2]": 1775,
  "[S][Ring2][Ring1][#C]": 2496,
  "[S][Ring2][Ring1][=Branch1]": 1656,
  "[S][Ring2][Ring1][=Branch2]": 1723,
  "[S][Ring2][Ring1][=C]": 2300,
  "[S][Ring2][Ring1][=N]": 2117,
  "[S][Ring2][Ring1][Branch1]": 1722,
  "[S][Ring2][Ring1][Branch2]": 2027,
  "[S][Ring2][Ring1][C]": 1562,
  "[S][Ring2][Ring1][N]": 2091,
  "[S][Ring2][Ring1][O]": 2116,
  "[S][Ring2][Ring1][Ring1]": 1451,
  "[S][Ring2][Ring1][Ring2]": 1400,
  "[S][Ring2][Ring1][S]": 2619,
  "[S][S]": 1883,
  "[Sb]": 211,
  "[Se+1]": 230,
  "[SeH1]": 130,
  "[SeH2]": 330,
  "[Se]": 36,
  "[Si-1]": 331,
  "[Si@]": 287,
  "[SiH1-1]": 192,
  "[SiH1]": 104,
  "[SiH2]": 300,
  "[SiH3-1]": 219,
  "[SiH4]": 271,
  "[Si]": 49,
  "[Si][Branch1][C][C]": 1429,
  "[Sr+2]": 158,
  "[Sr]": 332,
  "[TeH1]": 279,
  "[TeH2]": 239,
  "[Te]": 81,
  "[Xe]": 320,
  "[Yb]": 209,
  "[Zn+1]": 213,
  "[Zn+2]": 148,
  "[Zn-2]": 261,
  "[Zn]": 82,
  "[\\11CH3]": 203,
  "[\\123I]": 214,
  "[\\125I]": 79,
  "[\\3H]": 250,
  "[\\B]": 217,
  "[\\Br]": 89,
  "[\\C-1]": 265,
  "[\\C@@H1]": 46,
  "[\\C@@]": 80,
  "[\\C@H1]": 77,
  "[\\C@]": 99,
  "[\\CH1-1]": 241,
  "[\\C]": 43,
  "[\\C][#N]": 1482,
  "[\\C][=Branch1][C][=O]": 1712,
  "[\\C][=C]": 572,
  "[\\C][=C][C][=C]": 2581,
  "[\\C][C][C]": 1914,
  "[\\Cl]": 58,
  "[\\F]": 118,
  "[\\I]": 59,
  "[\\N+1]": 113,
  "[\\N-1]": 222,
  "[\\NH1]": 108,
  "[\\N]": 55,
  "[\\O-1]": 64,
  "[\\O]": 47,
  "[\\P]": 93,
  "[\\S+1]": 121,
  "[\\S-1]": 255,
  "[\\S]": 54,
  "[\\Se]": 168,
  "[\\Si]": 195
}
